{
  "version": "1.0",
  "truncation": null,
  "padding": null,
  "added_tokens": [
    {
      "id": 0,
      "content": "[PAD]",
      "single_word": false,
      "lstrip": false,
      "rstrip": false,
      "normalized": false,
      "special": true
    },
    {
      "id": 1,
      "content": "[UNK]",
      "single_word": false,
      "lstrip": false,
      "rstrip": false,
      "normalized": false,
      "special": true
    },
    {
      "id": 2,
      "content": "[BOS]",
      "single_word": false,
      "lstrip": false,
      "rstrip": false,
      "normalized": false,
      "special": true
    },
    {
      "id": 3,
      "content": "[EOS]",
      "single_word": false,
      "lstrip": false,
      "rstrip": false,
      "normalized": false,
      "special": true
    }
  ],
  "normalizer": null,
  "pre_tokenizer": {
    "type": "Whitespace"
  },
  "post_processor": null,
  "decoder": null,
  "model": {
    "type": "WordPiece",
    "unk_token": "[UNK]",
    "continuing_subword_prefix": "##",
    "max_input_chars_per_word": 100,
    "vocab": {
      "[PAD]": 0,
      "[UNK]": 1,
      "[BOS]": 2,
      "[EOS]": 3,
      "!": 4,
      "\"": 5,
      "#": 6,
      "$": 7,
      "%": 8,
      "&": 9,
      "'": 10,
      "(": 11,
      ")": 12,
      "*": 13,
      "+": 14,
      ",": 15,
      "-": 16,
      ".": 17,
      "/": 18,
      "0": 19,
      "1": 20,
      "2": 21,
      "3": 22,
      "4": 23,
      "5": 24,
      "6": 25,
      "7": 26,
      "8": 27,
      "9": 28,
      ":": 29,
      ";": 30,
      "<": 31,
      "=": 32,
      ">": 33,
      "?": 34,
      "@": 35,
      "A": 36,
      "B": 37,
      "C": 38,
      "D": 39,
      "E": 40,
      "F": 41,
      "G": 42,
      "H": 43,
      "I": 44,
      "J": 45,
      "K": 46,
      "L": 47,
      "M": 48,
      "N": 49,
      "O": 50,
      "P": 51,
      "Q": 52,
      "R": 53,
      "S": 54,
      "T": 55,
      "U": 56,
      "V": 57,
      "W": 58,
      "X": 59,
      "Y": 60,
      "Z": 61,
      "[": 62,
      "\\": 63,
      "]": 64,
      "^": 65,
      "_": 66,
      "`": 67,
      "a": 68,
      "b": 69,
      "c": 70,
      "d": 71,
      "e": 72,
      "f": 73,
      "g": 74,
      "h": 75,
      "i": 76,
      "j": 77,
      "k": 78,
      "l": 79,
      "m": 80,
      "n": 81,
      "o": 82,
      "p": 83,
      "q": 84,
      "r": 85,
      "s": 86,
      "t": 87,
      "u": 88,
      "v": 89,
      "w": 90,
      "x": 91,
      "y": 92,
      "z": 93,
      "{": 94,
      "|": 95,
      "}": 96,
      "~": 97,
      "": 98,
      "": 99,
      "": 100,
      "": 101,
      "": 102,
      "": 103,
      "": 104,
      "": 105,
      "": 106,
      "": 107,
      "": 108,
      "": 109,
      "": 110,
      "": 111,
      "": 112,
      "": 113,
      "": 114,
      "": 115,
      "": 116,
      "": 117,
      "": 118,
      "": 119,
      "": 120,
      "": 121,
      "": 122,
      "": 123,
      "": 124,
      "": 125,
      "": 126,
      "¡": 127,
      "¢": 128,
      "£": 129,
      "¤": 130,
      "¥": 131,
      "¦": 132,
      "§": 133,
      "¨": 134,
      "©": 135,
      "ª": 136,
      "«": 137,
      "¬": 138,
      "­": 139,
      "®": 140,
      "¯": 141,
      "°": 142,
      "±": 143,
      "²": 144,
      "³": 145,
      "´": 146,
      "µ": 147,
      "¶": 148,
      "·": 149,
      "¸": 150,
      "¹": 151,
      "º": 152,
      "»": 153,
      "¼": 154,
      "½": 155,
      "¾": 156,
      "¿": 157,
      "À": 158,
      "Á": 159,
      "Â": 160,
      "Ã": 161,
      "Ä": 162,
      "Å": 163,
      "Æ": 164,
      "Ç": 165,
      "È": 166,
      "É": 167,
      "Ê": 168,
      "Ë": 169,
      "Ì": 170,
      "Í": 171,
      "Î": 172,
      "Ï": 173,
      "Ð": 174,
      "Ñ": 175,
      "Ò": 176,
      "Ó": 177,
      "Ô": 178,
      "Õ": 179,
      "Ö": 180,
      "×": 181,
      "Ø": 182,
      "Ù": 183,
      "Ú": 184,
      "Û": 185,
      "Ü": 186,
      "Ý": 187,
      "Þ": 188,
      "ß": 189,
      "à": 190,
      "á": 191,
      "â": 192,
      "ã": 193,
      "ä": 194,
      "å": 195,
      "æ": 196,
      "ç": 197,
      "è": 198,
      "é": 199,
      "ê": 200,
      "ë": 201,
      "ì": 202,
      "í": 203,
      "î": 204,
      "ï": 205,
      "ð": 206,
      "ñ": 207,
      "ò": 208,
      "ó": 209,
      "ô": 210,
      "õ": 211,
      "ö": 212,
      "÷": 213,
      "ø": 214,
      "ù": 215,
      "ú": 216,
      "û": 217,
      "ü": 218,
      "ý": 219,
      "þ": 220,
      "ÿ": 221,
      "Ā": 222,
      "ā": 223,
      "Ă": 224,
      "ă": 225,
      "Ą": 226,
      "ą": 227,
      "Ć": 228,
      "ć": 229,
      "Ĉ": 230,
      "ĉ": 231,
      "ċ": 232,
      "Č": 233,
      "č": 234,
      "Ď": 235,
      "ď": 236,
      "Đ": 237,
      "đ": 238,
      "Ē": 239,
      "ē": 240,
      "ĕ": 241,
      "Ė": 242,
      "ė": 243,
      "Ę": 244,
      "ę": 245,
      "Ě": 246,
      "ě": 247,
      "ĝ": 248,
      "Ğ": 249,
      "ğ": 250,
      "Ġ": 251,
      "ġ": 252,
      "Ģ": 253,
      "ģ": 254,
      "ĥ": 255,
      "Ħ": 256,
      "ħ": 257,
      "ĩ": 258,
      "Ī": 259,
      "ī": 260,
      "Į": 261,
      "į": 262,
      "İ": 263,
      "ı": 264,
      "Ĳ": 265,
      "ĵ": 266,
      "Ķ": 267,
      "ķ": 268,
      "ĸ": 269,
      "Ĺ": 270,
      "ĺ": 271,
      "Ļ": 272,
      "ļ": 273,
      "Ľ": 274,
      "ľ": 275,
      "Ŀ": 276,
      "Ł": 277,
      "ł": 278,
      "Ń": 279,
      "ń": 280,
      "Ņ": 281,
      "ņ": 282,
      "Ň": 283,
      "ň": 284,
      "ŋ": 285,
      "Ō": 286,
      "ō": 287,
      "ŏ": 288,
      "Ő": 289,
      "ő": 290,
      "Œ": 291,
      "œ": 292,
      "Ŕ": 293,
      "ŕ": 294,
      "Ř": 295,
      "ř": 296,
      "Ś": 297,
      "ś": 298,
      "Ŝ": 299,
      "ŝ": 300,
      "Ş": 301,
      "ş": 302,
      "Š": 303,
      "š": 304,
      "Ţ": 305,
      "ţ": 306,
      "Ť": 307,
      "ť": 308,
      "ũ": 309,
      "Ū": 310,
      "ū": 311,
      "ŭ": 312,
      "Ů": 313,
      "ů": 314,
      "Ű": 315,
      "ű": 316,
      "Ų": 317,
      "ų": 318,
      "ŵ": 319,
      "ŷ": 320,
      "Ÿ": 321,
      "Ź": 322,
      "ź": 323,
      "Ż": 324,
      "ż": 325,
      "Ž": 326,
      "ž": 327,
      "ſ": 328,
      "Ƒ": 329,
      "ƒ": 330,
      "Ɠ": 331,
      "Ɩ": 332,
      "Ƙ": 333,
      "ƛ": 334,
      "Ɲ": 335,
      "Ơ": 336,
      "ơ": 337,
      "Ʀ": 338,
      "Ƭ": 339,
      "ư": 340,
      "ǎ": 341,
      "ǐ": 342,
      "ǒ": 343,
      "ǔ": 344,
      "ǘ": 345,
      "ǜ": 346,
      "ǝ": 347,
      "ǣ": 348,
      "ǵ": 349,
      "Ǻ": 350,
      "ș": 351,
      "ț": 352,
      "Ȥ": 353,
      "Ȼ": 354,
      "ɐ": 355,
      "ɑ": 356,
      "ɒ": 357,
      "ɔ": 358,
      "ɕ": 359,
      "ə": 360,
      "ɛ": 361,
      "ɜ": 362,
      "ɡ": 363,
      "ɢ": 364,
      "ɪ": 365,
      "ɫ": 366,
      "ɯ": 367,
      "ɲ": 368,
      "ɹ": 369,
      "ɾ": 370,
      "ʀ": 371,
      "ʁ": 372,
      "ʃ": 373,
      "ʊ": 374,
      "ʌ": 375,
      "ʎ": 376,
      "ʐ": 377,
      "ʒ": 378,
      "ʔ": 379,
      "ʚ": 380,
      "ʤ": 381,
      "ʦ": 382,
      "ʰ": 383,
      "ʲ": 384,
      "ʺ": 385,
      "ʻ": 386,
      "ʼ": 387,
      "ʾ": 388,
      "ʿ": 389,
      "ˁ": 390,
      "ˆ": 391,
      "ˇ": 392,
      "ˈ": 393,
      "ˌ": 394,
      "ː": 395,
      "˘": 396,
      "˙": 397,
      "˚": 398,
      "˛": 399,
      "˜": 400,
      "˝": 401,
      "ˡ": 402,
      "̀": 403,
      "́": 404,
      "̃": 405,
      "̆": 406,
      "̇": 407,
      "̈": 408,
      "̍": 409,
      "̤": 410,
      "̯": 411,
      "̶": 412,
      "͡": 413,
      ";": 414,
      "΄": 415,
      "Ά": 416,
      "Έ": 417,
      "Ί": 418,
      "Ό": 419,
      "Ώ": 420,
      "ΐ": 421,
      "Α": 422,
      "Β": 423,
      "Γ": 424,
      "Δ": 425,
      "Ε": 426,
      "Ζ": 427,
      "Η": 428,
      "Θ": 429,
      "Ι": 430,
      "Κ": 431,
      "Λ": 432,
      "Μ": 433,
      "Ν": 434,
      "Ο": 435,
      "Π": 436,
      "Ρ": 437,
      "Σ": 438,
      "Τ": 439,
      "Υ": 440,
      "Φ": 441,
      "Χ": 442,
      "Ω": 443,
      "ά": 444,
      "έ": 445,
      "ή": 446,
      "ί": 447,
      "α": 448,
      "β": 449,
      "γ": 450,
      "δ": 451,
      "ε": 452,
      "ζ": 453,
      "η": 454,
      "θ": 455,
      "ι": 456,
      "κ": 457,
      "λ": 458,
      "μ": 459,
      "ν": 460,
      "ξ": 461,
      "ο": 462,
      "π": 463,
      "ρ": 464,
      "ς": 465,
      "σ": 466,
      "τ": 467,
      "υ": 468,
      "φ": 469,
      "χ": 470,
      "ψ": 471,
      "ω": 472,
      "ϊ": 473,
      "ϋ": 474,
      "ό": 475,
      "ύ": 476,
      "ώ": 477,
      "Ё": 478,
      "Ђ": 479,
      "Ѓ": 480,
      "Є": 481,
      "Ѕ": 482,
      "І": 483,
      "Ї": 484,
      "Ј": 485,
      "Љ": 486,
      "Њ": 487,
      "Ћ": 488,
      "Ќ": 489,
      "Ў": 490,
      "Џ": 491,
      "А": 492,
      "Б": 493,
      "В": 494,
      "Г": 495,
      "Д": 496,
      "Е": 497,
      "Ж": 498,
      "З": 499,
      "И": 500,
      "Й": 501,
      "К": 502,
      "Л": 503,
      "М": 504,
      "Н": 505,
      "О": 506,
      "П": 507,
      "Р": 508,
      "С": 509,
      "Т": 510,
      "У": 511,
      "Ф": 512,
      "Х": 513,
      "Ц": 514,
      "Ч": 515,
      "Ш": 516,
      "Щ": 517,
      "Ъ": 518,
      "Ы": 519,
      "Ь": 520,
      "Э": 521,
      "Ю": 522,
      "Я": 523,
      "а": 524,
      "б": 525,
      "в": 526,
      "г": 527,
      "д": 528,
      "е": 529,
      "ж": 530,
      "з": 531,
      "и": 532,
      "й": 533,
      "к": 534,
      "л": 535,
      "м": 536,
      "н": 537,
      "о": 538,
      "п": 539,
      "р": 540,
      "с": 541,
      "т": 542,
      "у": 543,
      "ф": 544,
      "х": 545,
      "ц": 546,
      "ч": 547,
      "ш": 548,
      "щ": 549,
      "ъ": 550,
      "ы": 551,
      "ь": 552,
      "э": 553,
      "ю": 554,
      "я": 555,
      "ё": 556,
      "ђ": 557,
      "ѓ": 558,
      "є": 559,
      "ѕ": 560,
      "і": 561,
      "ї": 562,
      "ј": 563,
      "љ": 564,
      "њ": 565,
      "ћ": 566,
      "ќ": 567,
      "ў": 568,
      "џ": 569,
      "Ґ": 570,
      "ґ": 571,
      "ғ": 572,
      "ҙ": 573,
      "қ": 574,
      "Ҡ": 575,
      "ҡ": 576,
      "ң": 577,
      "ү": 578,
      "ұ": 579,
      "Ҳ": 580,
      "ҳ": 581,
      "һ": 582,
      "ә": 583,
      "ө": 584,
      "ӳ": 585,
      "ְ": 586,
      "ֲ": 587,
      "ֳ": 588,
      "ִ": 589,
      "ֶ": 590,
      "ַ": 591,
      "ָ": 592,
      "ֹ": 593,
      "ּ": 594,
      "ֿ": 595,
      "ׁ": 596,
      "א": 597,
      "ב": 598,
      "ג": 599,
      "ד": 600,
      "ה": 601,
      "ו": 602,
      "ז": 603,
      "ח": 604,
      "ט": 605,
      "י": 606,
      "כ": 607,
      "ל": 608,
      "ם": 609,
      "מ": 610,
      "ן": 611,
      "נ": 612,
      "ס": 613,
      "ע": 614,
      "פ": 615,
      "ץ": 616,
      "צ": 617,
      "ק": 618,
      "ר": 619,
      "ש": 620,
      "ת": 621,
      "،": 622,
      "ؒ": 623,
      "؛": 624,
      "ء": 625,
      "آ": 626,
      "أ": 627,
      "ؤ": 628,
      "إ": 629,
      "ئ": 630,
      "ا": 631,
      "ب": 632,
      "ة": 633,
      "ت": 634,
      "ث": 635,
      "ج": 636,
      "ح": 637,
      "خ": 638,
      "د": 639,
      "ذ": 640,
      "ر": 641,
      "ز": 642,
      "س": 643,
      "ش": 644,
      "ص": 645,
      "ض": 646,
      "ط": 647,
      "ظ": 648,
      "ع": 649,
      "غ": 650,
      "ـ": 651,
      "ف": 652,
      "ق": 653,
      "ك": 654,
      "ل": 655,
      "م": 656,
      "ن": 657,
      "ه": 658,
      "و": 659,
      "ى": 660,
      "ي": 661,
      "ً": 662,
      "ٌ": 663,
      "َ": 664,
      "ُ": 665,
      "ِ": 666,
      "ّ": 667,
      "ْ": 668,
      "ٲ": 669,
      "ټ": 670,
      "پ": 671,
      "ځ": 672,
      "ڠ": 673,
      "ک": 674,
      "ڬ": 675,
      "ڭ": 676,
      "گ": 677,
      "ھ": 678,
      "ۆ": 679,
      "ۇ": 680,
      "ی": 681,
      "ې": 682,
      "۞": 683,
      "۩": 684,
      "۰": 685,
      "۱": 686,
      "۲": 687,
      "۳": 688,
      "۴": 689,
      "۵": 690,
      "۶": 691,
      "۷": 692,
      "۸": 693,
      "۹": 694,
      "ރ": 695,
      "ކ": 696,
      "އ": 697,
      "މ": 698,
      "ާ": 699,
      "ި": 700,
      "ެ": 701,
      "ߖ": 702,
      "߮": 703,
      "ं": 704,
      "अ": 705,
      "आ": 706,
      "ई": 707,
      "उ": 708,
      "क": 709,
      "ग": 710,
      "च": 711,
      "छ": 712,
      "ज": 713,
      "ञ": 714,
      "ट": 715,
      "ड": 716,
      "ढ": 717,
      "ण": 718,
      "त": 719,
      "थ": 720,
      "द": 721,
      "ध": 722,
      "न": 723,
      "प": 724,
      "ब": 725,
      "भ": 726,
      "म": 727,
      "य": 728,
      "र": 729,
      "ल": 730,
      "व": 731,
      "श": 732,
      "स": 733,
      "ह": 734,
      "़": 735,
      "ा": 736,
      "ि": 737,
      "ी": 738,
      "ु": 739,
      "ृ": 740,
      "े": 741,
      "ॉ": 742,
      "ो": 743,
      "्": 744,
      "ॐ": 745,
      "ॡ": 746,
      "०": 747,
      "१": 748,
      "२": 749,
      "३": 750,
      "५": 751,
      "९": 752,
      "ং": 753,
      "আ": 754,
      "ই": 755,
      "এ": 756,
      "ক": 757,
      "গ": 758,
      "ঙ": 759,
      "চ": 760,
      "ট": 761,
      "ত": 762,
      "ন": 763,
      "প": 764,
      "ব": 765,
      "ম": 766,
      "য": 767,
      "র": 768,
      "ল": 769,
      "শ": 770,
      "ষ": 771,
      "হ": 772,
      "়": 773,
      "া": 774,
      "ি": 775,
      "ু": 776,
      "ো": 777,
      "্": 778,
      "ৰ": 779,
      "ਗ": 780,
      "ਚ": 781,
      "ਡ": 782,
      "ਹ": 783,
      "ੀ": 784,
      "੍": 785,
      "ੜ": 786,
      "ੰ": 787,
      "ં": 788,
      "અ": 789,
      "ક": 790,
      "જ": 791,
      "ત": 792,
      "મ": 793,
      "ય": 794,
      "ર": 795,
      "સ": 796,
      "ા": 797,
      "િ": 798,
      "ુ": 799,
      "ે": 800,
      "્": 801,
      "૦": 802,
      "૧": 803,
      "૨": 804,
      "க": 805,
      "ச": 806,
      "ட": 807,
      "த": 808,
      "ன": 809,
      "ப": 810,
      "ம": 811,
      "ய": 812,
      "ர": 813,
      "ு": 814,
      "ூ": 815,
      "ெ": 816,
      "ை": 817,
      "ோ": 818,
      "்": 819,
      "ం": 820,
      "ఆ": 821,
      "ద": 822,
      "ధ": 823,
      "ప": 824,
      "ర": 825,
      "శ": 826,
      "ె": 827,
      "్": 828,
      "ౕ": 829,
      "ಐ": 830,
      "ಯ": 831,
      "ರ": 832,
      "ವ": 833,
      "ಶ": 834,
      "ಾ": 835,
      "ೆ": 836,
      "್": 837,
      "ೖ": 838,
      "೦": 839,
      "೧": 840,
      "೨": 841,
      "೩": 842,
      "೫": 843,
      "೬": 844,
      "೮": 845,
      "೯": 846,
      "എ": 847,
      "ക": 848,
      "ദ": 849,
      "പ": 850,
      "യ": 851,
      "ല": 852,
      "വ": 853,
      "ഷ": 854,
      "സ": 855,
      "ീ": 856,
      "ു": 857,
      "്": 858,
      "න": 859,
      "ම": 860,
      "ර": 861,
      "ව": 862,
      "හ": 863,
      "ු": 864,
      "ก": 865,
      "ข": 866,
      "ค": 867,
      "ฆ": 868,
      "ง": 869,
      "จ": 870,
      "ฉ": 871,
      "ช": 872,
      "ซ": 873,
      "ญ": 874,
      "ฎ": 875,
      "ฏ": 876,
      "ฐ": 877,
      "ฒ": 878,
      "ณ": 879,
      "ด": 880,
      "ต": 881,
      "ถ": 882,
      "ท": 883,
      "ธ": 884,
      "น": 885,
      "บ": 886,
      "ป": 887,
      "ผ": 888,
      "ฝ": 889,
      "พ": 890,
      "ฟ": 891,
      "ภ": 892,
      "ม": 893,
      "ย": 894,
      "ร": 895,
      "ฤ": 896,
      "ล": 897,
      "ว": 898,
      "ศ": 899,
      "ษ": 900,
      "ส": 901,
      "ห": 902,
      "อ": 903,
      "ฮ": 904,
      "ฯ": 905,
      "ะ": 906,
      "ั": 907,
      "า": 908,
      "ำ": 909,
      "ิ": 910,
      "ี": 911,
      "ึ": 912,
      "ื": 913,
      "ุ": 914,
      "ู": 915,
      "฿": 916,
      "เ": 917,
      "แ": 918,
      "โ": 919,
      "ใ": 920,
      "ไ": 921,
      "ๆ": 922,
      "็": 923,
      "่": 924,
      "้": 925,
      "๊": 926,
      "์": 927,
      "๑": 928,
      "ຄ": 929,
      "ງ": 930,
      "ດ": 931,
      "ຖ": 932,
      "ນ": 933,
      "ມ": 934,
      "ວ": 935,
      "ັ": 936,
      "ຸ": 937,
      "་": 938,
      "ད": 939,
      "བ": 940,
      "ོ": 941,
      "ა": 942,
      "ბ": 943,
      "გ": 944,
      "დ": 945,
      "ე": 946,
      "ვ": 947,
      "თ": 948,
      "ი": 949,
      "კ": 950,
      "ლ": 951,
      "მ": 952,
      "ნ": 953,
      "ო": 954,
      "პ": 955,
      "რ": 956,
      "ს": 957,
      "ტ": 958,
      "უ": 959,
      "ქ": 960,
      "ღ": 961,
      "შ": 962,
      "ც": 963,
      "ხ": 964,
      "ህ": 965,
      "ሊ": 966,
      "ል": 967,
      "ሕ": 968,
      "መ": 969,
      "ሜ": 970,
      "ም": 971,
      "ረ": 972,
      "ሪ": 973,
      "ራ": 974,
      "ር": 975,
      "ሰ": 976,
      "ስ": 977,
      "ሻ": 978,
      "ቀ": 979,
      "ቐ": 980,
      "በ": 981,
      "ቢ": 982,
      "ባ": 983,
      "ተ": 984,
      "ት": 985,
      "ቶ": 986,
      "ን": 987,
      "አ": 988,
      "ኣ": 989,
      "ኤ": 990,
      "እ": 991,
      "ኦ": 992,
      "ካ": 993,
      "ክ": 994,
      "ዋ": 995,
      "ው": 996,
      "ዓ": 997,
      "የ": 998,
      "ይ": 999,
      "ዲ": 1000,
      "ድ": 1001,
      "ገ": 1002,
      "ጨ": 1003,
      "ጽ": 1004,
      "ፈ": 1005,
      "፣": 1006,
      "Ꭰ": 1007,
      "Ꭲ": 1008,
      "Ꮊ": 1009,
      "ᐊ": 1010,
      "ᑲ": 1011,
      "ᒥ": 1012,
      "ᓕ": 1013,
      "ដ": 1014,
      "ឋ": 1015,
      "រ": 1016,
      "ស": 1017,
      "ហ": 1018,
      "្": 1019,
      "ḍ": 1020,
      "Ḥ": 1021,
      "ḥ": 1022,
      "ḫ": 1023,
      "ḷ": 1024,
      "ḿ": 1025,
      "ṃ": 1026,
      "ṅ": 1027,
      "ṇ": 1028,
      "ṉ": 1029,
      "ṛ": 1030,
      "ṣ": 1031,
      "Ṭ": 1032,
      "ṭ": 1033,
      "Ṯ": 1034,
      "ṳ": 1035,
      "ẋ": 1036,
      "ạ": 1037,
      "ả": 1038,
      "ấ": 1039,
      "ầ": 1040,
      "ẩ": 1041,
      "ậ": 1042,
      "ắ": 1043,
      "Ẳ": 1044,
      "ẵ": 1045,
      "ẻ": 1046,
      "ẽ": 1047,
      "ế": 1048,
      "ề": 1049,
      "ể": 1050,
      "ễ": 1051,
      "ệ": 1052,
      "ọ": 1053,
      "ỏ": 1054,
      "ố": 1055,
      "ồ": 1056,
      "ổ": 1057,
      "ộ": 1058,
      "ớ": 1059,
      "ờ": 1060,
      "ở": 1061,
      "ợ": 1062,
      "ụ": 1063,
      "ủ": 1064,
      "ứ": 1065,
      "ừ": 1066,
      "ử": 1067,
      "ữ": 1068,
      "ự": 1069,
      "ỳ": 1070,
      "ỹ": 1071,
      "ἀ": 1072,
      "ἄ": 1073,
      "ἅ": 1074,
      "ἔ": 1075,
      "Ἥ": 1076,
      "ἰ": 1077,
      "ὁ": 1078,
      "ὄ": 1079,
      "ά": 1080,
      "ὶ": 1081,
      "ὺ": 1082,
      "ῆ": 1083,
      "ῑ": 1084,
      "ῥ": 1085,
      "ῦ": 1086,
      "​": 1087,
      "‌": 1088,
      "‍": 1089,
      "‎": 1090,
      "‏": 1091,
      "‐": 1092,
      "‑": 1093,
      "‒": 1094,
      "–": 1095,
      "—": 1096,
      "―": 1097,
      "‘": 1098,
      "’": 1099,
      "‚": 1100,
      "‛": 1101,
      "“": 1102,
      "”": 1103,
      "„": 1104,
      "‟": 1105,
      "†": 1106,
      "‡": 1107,
      "•": 1108,
      "…": 1109,
      "‪": 1110,
      "‬": 1111,
      "‭": 1112,
      "‰": 1113,
      "′": 1114,
      "″": 1115,
      "‹": 1116,
      "›": 1117,
      "※": 1118,
      "‼": 1119,
      "⁄": 1120,
      "⁴": 1121,
      "ⁿ": 1122,
      "₂": 1123,
      "₤": 1124,
      "₩": 1125,
      "₪": 1126,
      "€": 1127,
      "₴": 1128,
      "℃": 1129,
      "ℓ": 1130,
      "№": 1131,
      "™": 1132,
      "Ω": 1133,
      "⅛": 1134,
      "⅞": 1135,
      "Ⅱ": 1136,
      "Ⅲ": 1137,
      "←": 1138,
      "↑": 1139,
      "→": 1140,
      "↓": 1141,
      "↔": 1142,
      "⇒": 1143,
      "⇗": 1144,
      "⇢": 1145,
      "∀": 1146,
      "∈": 1147,
      "∑": 1148,
      "−": 1149,
      "∙": 1150,
      "√": 1151,
      "∞": 1152,
      "∫": 1153,
      "∴": 1154,
      "∶": 1155,
      "≈": 1156,
      "≠": 1157,
      "≤": 1158,
      "≥": 1159,
      "≪": 1160,
      "≫": 1161,
      "⋅": 1162,
      "⌃": 1163,
      "⌘": 1164,
      "①": 1165,
      "②": 1166,
      "③": 1167,
      "─": 1168,
      "│": 1169,
      "╚": 1170,
      "╞": 1171,
      "╩": 1172,
      "█": 1173,
      "░": 1174,
      "■": 1175,
      "□": 1176,
      "▪": 1177,
      "▲": 1178,
      "△": 1179,
      "▸": 1180,
      "►": 1181,
      "▼": 1182,
      "◆": 1183,
      "◇": 1184,
      "◈": 1185,
      "◊": 1186,
      "○": 1187,
      "◎": 1188,
      "●": 1189,
      "◙": 1190,
      "◦": 1191,
      "★": 1192,
      "☆": 1193,
      "☎": 1194,
      "☏": 1195,
      "☑": 1196,
      "☺": 1197,
      "☻": 1198,
      "☼": 1199,
      "♀": 1200,
      "♂": 1201,
      "♠": 1202,
      "♣": 1203,
      "♥": 1204,
      "♦": 1205,
      "♪": 1206,
      "♫": 1207,
      "✿": 1208,
      "➔": 1209,
      "➚": 1210,
      "➟": 1211,
      "➲": 1212,
      "Ⰶ": 1213,
      "ⲉ": 1214,
      "ⲟ": 1215,
      "Ⲡ": 1216,
      "ⲣ": 1217,
      "ⲩ": 1218,
      "、": 1219,
      "。": 1220,
      "々": 1221,
      "《": 1222,
      "》": 1223,
      "「": 1224,
      "」": 1225,
      "『": 1226,
      "』": 1227,
      "【": 1228,
      "】": 1229,
      "〔": 1230,
      "〕": 1231,
      "〜": 1232,
      "あ": 1233,
      "ぃ": 1234,
      "い": 1235,
      "う": 1236,
      "え": 1237,
      "お": 1238,
      "か": 1239,
      "が": 1240,
      "き": 1241,
      "ぎ": 1242,
      "く": 1243,
      "ぐ": 1244,
      "け": 1245,
      "げ": 1246,
      "こ": 1247,
      "ご": 1248,
      "さ": 1249,
      "ざ": 1250,
      "し": 1251,
      "じ": 1252,
      "す": 1253,
      "ず": 1254,
      "せ": 1255,
      "ぜ": 1256,
      "そ": 1257,
      "ぞ": 1258,
      "た": 1259,
      "だ": 1260,
      "ち": 1261,
      "ぢ": 1262,
      "っ": 1263,
      "つ": 1264,
      "づ": 1265,
      "て": 1266,
      "で": 1267,
      "と": 1268,
      "ど": 1269,
      "な": 1270,
      "に": 1271,
      "ぬ": 1272,
      "ね": 1273,
      "の": 1274,
      "は": 1275,
      "ば": 1276,
      "ひ": 1277,
      "び": 1278,
      "ふ": 1279,
      "ぶ": 1280,
      "ぷ": 1281,
      "へ": 1282,
      "べ": 1283,
      "ほ": 1284,
      "ぼ": 1285,
      "ま": 1286,
      "み": 1287,
      "む": 1288,
      "め": 1289,
      "も": 1290,
      "や": 1291,
      "ゆ": 1292,
      "ょ": 1293,
      "よ": 1294,
      "ら": 1295,
      "り": 1296,
      "る": 1297,
      "れ": 1298,
      "ろ": 1299,
      "わ": 1300,
      "を": 1301,
      "ん": 1302,
      "゛": 1303,
      "゜": 1304,
      "ア": 1305,
      "ィ": 1306,
      "イ": 1307,
      "ゥ": 1308,
      "ウ": 1309,
      "ェ": 1310,
      "エ": 1311,
      "オ": 1312,
      "カ": 1313,
      "ガ": 1314,
      "キ": 1315,
      "ギ": 1316,
      "ク": 1317,
      "グ": 1318,
      "ケ": 1319,
      "ゲ": 1320,
      "コ": 1321,
      "ゴ": 1322,
      "サ": 1323,
      "ザ": 1324,
      "シ": 1325,
      "ジ": 1326,
      "ス": 1327,
      "ズ": 1328,
      "セ": 1329,
      "ゼ": 1330,
      "ソ": 1331,
      "ゾ": 1332,
      "タ": 1333,
      "ダ": 1334,
      "チ": 1335,
      "ッ": 1336,
      "ツ": 1337,
      "テ": 1338,
      "デ": 1339,
      "ト": 1340,
      "ド": 1341,
      "ナ": 1342,
      "ニ": 1343,
      "ヌ": 1344,
      "ネ": 1345,
      "ノ": 1346,
      "ハ": 1347,
      "バ": 1348,
      "パ": 1349,
      "ヒ": 1350,
      "ビ": 1351,
      "ピ": 1352,
      "フ": 1353,
      "ブ": 1354,
      "プ": 1355,
      "ヘ": 1356,
      "ベ": 1357,
      "ペ": 1358,
      "ホ": 1359,
      "ボ": 1360,
      "ポ": 1361,
      "マ": 1362,
      "ミ": 1363,
      "ム": 1364,
      "メ": 1365,
      "モ": 1366,
      "ヤ": 1367,
      "ュ": 1368,
      "ユ": 1369,
      "ヨ": 1370,
      "ラ": 1371,
      "リ": 1372,
      "ル": 1373,
      "レ": 1374,
      "ロ": 1375,
      "ワ": 1376,
      "ン": 1377,
      "ヴ": 1378,
      "・": 1379,
      "ー": 1380,
      "ㄅ": 1381,
      "ㄆ": 1382,
      "ㄇ": 1383,
      "ㄈ": 1384,
      "ㄤ": 1385,
      "ㄧ": 1386,
      "ㅓ": 1387,
      "ㅔ": 1388,
      "ㅕ": 1389,
      "ㅖ": 1390,
      "ㅡ": 1391,
      "ㅣ": 1392,
      "㎡": 1393,
      "䟩": 1394,
      "一": 1395,
      "七": 1396,
      "万": 1397,
      "丈": 1398,
      "三": 1399,
      "上": 1400,
      "下": 1401,
      "不": 1402,
      "与": 1403,
      "世": 1404,
      "丘": 1405,
      "东": 1406,
      "两": 1407,
      "丨": 1408,
      "个": 1409,
      "中": 1410,
      "丸": 1411,
      "丹": 1412,
      "为": 1413,
      "主": 1414,
      "丼": 1415,
      "丽": 1416,
      "举": 1417,
      "久": 1418,
      "义": 1419,
      "之": 1420,
      "乌": 1421,
      "乎": 1422,
      "乏": 1423,
      "乐": 1424,
      "乗": 1425,
      "乙": 1426,
      "九": 1427,
      "也": 1428,
      "习": 1429,
      "书": 1430,
      "乱": 1431,
      "了": 1432,
      "事": 1433,
      "二": 1434,
      "于": 1435,
      "云": 1436,
      "互": 1437,
      "五": 1438,
      "井": 1439,
      "亚": 1440,
      "些": 1441,
      "亞": 1442,
      "交": 1443,
      "产": 1444,
      "亨": 1445,
      "京": 1446,
      "人": 1447,
      "什": 1448,
      "仁": 1449,
      "今": 1450,
      "从": 1451,
      "他": 1452,
      "付": 1453,
      "代": 1454,
      "以": 1455,
      "仪": 1456,
      "仮": 1457,
      "仲": 1458,
      "件": 1459,
      "价": 1460,
      "伊": 1461,
      "伎": 1462,
      "伏": 1463,
      "休": 1464,
      "优": 1465,
      "会": 1466,
      "伝": 1467,
      "伦": 1468,
      "伯": 1469,
      "伴": 1470,
      "伸": 1471,
      "但": 1472,
      "位": 1473,
      "住": 1474,
      "佐": 1475,
      "佑": 1476,
      "体": 1477,
      "何": 1478,
      "佗": 1479,
      "余": 1480,
      "作": 1481,
      "你": 1482,
      "佰": 1483,
      "侍": 1484,
      "依": 1485,
      "便": 1486,
      "俄": 1487,
      "俊": 1488,
      "保": 1489,
      "信": 1490,
      "修": 1491,
      "倉": 1492,
      "倍": 1493,
      "倒": 1494,
      "做": 1495,
      "健": 1496,
      "储": 1497,
      "傷": 1498,
      "働": 1499,
      "像": 1500,
      "儀": 1501,
      "儉": 1502,
      "元": 1503,
      "先": 1504,
      "光": 1505,
      "克": 1506,
      "免": 1507,
      "入": 1508,
      "全": 1509,
      "八": 1510,
      "公": 1511,
      "六": 1512,
      "共": 1513,
      "关": 1514,
      "兵": 1515,
      "其": 1516,
      "内": 1517,
      "円": 1518,
      "册": 1519,
      "写": 1520,
      "冤": 1521,
      "决": 1522,
      "况": 1523,
      "冷": 1524,
      "凄": 1525,
      "凉": 1526,
      "凍": 1527,
      "减": 1528,
      "几": 1529,
      "凶": 1530,
      "出": 1531,
      "函": 1532,
      "刀": 1533,
      "分": 1534,
      "切": 1535,
      "刑": 1536,
      "列": 1537,
      "刘": 1538,
      "则": 1539,
      "刚": 1540,
      "创": 1541,
      "別": 1542,
      "刨": 1543,
      "利": 1544,
      "别": 1545,
      "到": 1546,
      "則": 1547,
      "前": 1548,
      "剑": 1549,
      "剣": 1550,
      "剥": 1551,
      "副": 1552,
      "割": 1553,
      "創": 1554,
      "力": 1555,
      "功": 1556,
      "加": 1557,
      "务": 1558,
      "动": 1559,
      "助": 1560,
      "势": 1561,
      "動": 1562,
      "勢": 1563,
      "勧": 1564,
      "勿": 1565,
      "包": 1566,
      "化": 1567,
      "北": 1568,
      "匠": 1569,
      "匹": 1570,
      "区": 1571,
      "医": 1572,
      "匿": 1573,
      "區": 1574,
      "十": 1575,
      "千": 1576,
      "华": 1577,
      "卓": 1578,
      "单": 1579,
      "南": 1580,
      "博": 1581,
      "卡": 1582,
      "危": 1583,
      "却": 1584,
      "厂": 1585,
      "原": 1586,
      "去": 1587,
      "县": 1588,
      "参": 1589,
      "參": 1590,
      "及": 1591,
      "友": 1592,
      "反": 1593,
      "发": 1594,
      "取": 1595,
      "受": 1596,
      "变": 1597,
      "口": 1598,
      "只": 1599,
      "叫": 1600,
      "召": 1601,
      "可": 1602,
      "台": 1603,
      "史": 1604,
      "右": 1605,
      "号": 1606,
      "司": 1607,
      "吃": 1608,
      "合": 1609,
      "吉": 1610,
      "吊": 1611,
      "同": 1612,
      "名": 1613,
      "后": 1614,
      "向": 1615,
      "吗": 1616,
      "君": 1617,
      "否": 1618,
      "吧": 1619,
      "听": 1620,
      "吳": 1621,
      "吴": 1622,
      "吸": 1623,
      "吹": 1624,
      "吾": 1625,
      "呀": 1626,
      "呆": 1627,
      "呉": 1628,
      "告": 1629,
      "呑": 1630,
      "员": 1631,
      "周": 1632,
      "味": 1633,
      "呼": 1634,
      "咆": 1635,
      "和": 1636,
      "咬": 1637,
      "品": 1638,
      "哈": 1639,
      "員": 1640,
      "哮": 1641,
      "哲": 1642,
      "唐": 1643,
      "售": 1644,
      "唸": 1645,
      "商": 1646,
      "啤": 1647,
      "啦": 1648,
      "喀": 1649,
      "喜": 1650,
      "嗣": 1651,
      "嘉": 1652,
      "嘛": 1653,
      "器": 1654,
      "四": 1655,
      "回": 1656,
      "因": 1657,
      "団": 1658,
      "囧": 1659,
      "园": 1660,
      "固": 1661,
      "国": 1662,
      "图": 1663,
      "圆": 1664,
      "國": 1665,
      "圏": 1666,
      "土": 1667,
      "在": 1668,
      "地": 1669,
      "圳": 1670,
      "场": 1671,
      "址": 1672,
      "坊": 1673,
      "坐": 1674,
      "坛": 1675,
      "垣": 1676,
      "城": 1677,
      "埔": 1678,
      "堂": 1679,
      "堆": 1680,
      "報": 1681,
      "場": 1682,
      "塔": 1683,
      "塾": 1684,
      "墟": 1685,
      "墩": 1686,
      "壊": 1687,
      "士": 1688,
      "壮": 1689,
      "売": 1690,
      "壳": 1691,
      "处": 1692,
      "変": 1693,
      "夏": 1694,
      "夕": 1695,
      "外": 1696,
      "多": 1697,
      "夢": 1698,
      "大": 1699,
      "天": 1700,
      "太": 1701,
      "央": 1702,
      "头": 1703,
      "夷": 1704,
      "夹": 1705,
      "奄": 1706,
      "奉": 1707,
      "套": 1708,
      "奘": 1709,
      "奥": 1710,
      "女": 1711,
      "奸": 1712,
      "好": 1713,
      "如": 1714,
      "妻": 1715,
      "始": 1716,
      "委": 1717,
      "娃": 1718,
      "娄": 1719,
      "娜": 1720,
      "娥": 1721,
      "娱": 1722,
      "婁": 1723,
      "婷": 1724,
      "媛": 1725,
      "子": 1726,
      "字": 1727,
      "存": 1728,
      "学": 1729,
      "孴": 1730,
      "宁": 1731,
      "宇": 1732,
      "安": 1733,
      "宋": 1734,
      "宗": 1735,
      "官": 1736,
      "定": 1737,
      "宜": 1738,
      "宝": 1739,
      "实": 1740,
      "実": 1741,
      "客": 1742,
      "宣": 1743,
      "宮": 1744,
      "宰": 1745,
      "家": 1746,
      "容": 1747,
      "宿": 1748,
      "富": 1749,
      "寤": 1750,
      "實": 1751,
      "寧": 1752,
      "寨": 1753,
      "寶": 1754,
      "寸": 1755,
      "对": 1756,
      "寺": 1757,
      "寻": 1758,
      "寿": 1759,
      "専": 1760,
      "将": 1761,
      "小": 1762,
      "少": 1763,
      "尔": 1764,
      "尘": 1765,
      "就": 1766,
      "尾": 1767,
      "局": 1768,
      "屄": 1769,
      "居": 1770,
      "屈": 1771,
      "届": 1772,
      "屋": 1773,
      "屏": 1774,
      "属": 1775,
      "山": 1776,
      "屿": 1777,
      "岐": 1778,
      "岛": 1779,
      "岩": 1780,
      "岭": 1781,
      "岷": 1782,
      "島": 1783,
      "崎": 1784,
      "崔": 1785,
      "崩": 1786,
      "嵥": 1787,
      "嶼": 1788,
      "川": 1789,
      "州": 1790,
      "工": 1791,
      "左": 1792,
      "巧": 1793,
      "巨": 1794,
      "已": 1795,
      "巴": 1796,
      "巻": 1797,
      "市": 1798,
      "布": 1799,
      "师": 1800,
      "希": 1801,
      "帝": 1802,
      "師": 1803,
      "席": 1804,
      "帯": 1805,
      "常": 1806,
      "幡": 1807,
      "干": 1808,
      "平": 1809,
      "年": 1810,
      "幸": 1811,
      "幹": 1812,
      "广": 1813,
      "庁": 1814,
      "広": 1815,
      "庄": 1816,
      "庆": 1817,
      "应": 1818,
      "底": 1819,
      "庚": 1820,
      "府": 1821,
      "度": 1822,
      "座": 1823,
      "庫": 1824,
      "康": 1825,
      "建": 1826,
      "开": 1827,
      "弁": 1828,
      "弄": 1829,
      "式": 1830,
      "弓": 1831,
      "引": 1832,
      "张": 1833,
      "弦": 1834,
      "張": 1835,
      "当": 1836,
      "形": 1837,
      "彩": 1838,
      "彭": 1839,
      "彰": 1840,
      "影": 1841,
      "役": 1842,
      "彻": 1843,
      "彼": 1844,
      "征": 1845,
      "很": 1846,
      "律": 1847,
      "後": 1848,
      "徒": 1849,
      "得": 1850,
      "御": 1851,
      "復": 1852,
      "微": 1853,
      "徳": 1854,
      "德": 1855,
      "徹": 1856,
      "徽": 1857,
      "心": 1858,
      "必": 1859,
      "忆": 1860,
      "忍": 1861,
      "志": 1862,
      "応": 1863,
      "念": 1864,
      "忻": 1865,
      "态": 1866,
      "怒": 1867,
      "思": 1868,
      "怡": 1869,
      "急": 1870,
      "性": 1871,
      "恢": 1872,
      "恩": 1873,
      "恵": 1874,
      "悟": 1875,
      "悠": 1876,
      "患": 1877,
      "您": 1878,
      "悩": 1879,
      "悪": 1880,
      "情": 1881,
      "惑": 1882,
      "惧": 1883,
      "惯": 1884,
      "想": 1885,
      "意": 1886,
      "愛": 1887,
      "慈": 1888,
      "慢": 1889,
      "慣": 1890,
      "憎": 1891,
      "憾": 1892,
      "成": 1893,
      "我": 1894,
      "戴": 1895,
      "戶": 1896,
      "户": 1897,
      "戸": 1898,
      "房": 1899,
      "所": 1900,
      "扈": 1901,
      "手": 1902,
      "才": 1903,
      "打": 1904,
      "找": 1905,
      "承": 1906,
      "技": 1907,
      "投": 1908,
      "折": 1909,
      "抜": 1910,
      "报": 1911,
      "押": 1912,
      "担": 1913,
      "拉": 1914,
      "拓": 1915,
      "择": 1916,
      "括": 1917,
      "拼": 1918,
      "拿": 1919,
      "持": 1920,
      "挂": 1921,
      "指": 1922,
      "挑": 1923,
      "挡": 1924,
      "振": 1925,
      "损": 1926,
      "掉": 1927,
      "排": 1928,
      "探": 1929,
      "接": 1930,
      "控": 1931,
      "掻": 1932,
      "揃": 1933,
      "提": 1934,
      "換": 1935,
      "握": 1936,
      "援": 1937,
      "搅": 1938,
      "搜": 1939,
      "搞": 1940,
      "携": 1941,
      "摂": 1942,
      "摇": 1943,
      "摩": 1944,
      "撮": 1945,
      "操": 1946,
      "支": 1947,
      "收": 1948,
      "放": 1949,
      "政": 1950,
      "故": 1951,
      "敏": 1952,
      "救": 1953,
      "教": 1954,
      "散": 1955,
      "敦": 1956,
      "数": 1957,
      "整": 1958,
      "文": 1959,
      "斗": 1960,
      "料": 1961,
      "新": 1962,
      "方": 1963,
      "施": 1964,
      "旅": 1965,
      "旋": 1966,
      "族": 1967,
      "无": 1968,
      "日": 1969,
      "旧": 1970,
      "旨": 1971,
      "时": 1972,
      "昇": 1973,
      "明": 1974,
      "星": 1975,
      "映": 1976,
      "春": 1977,
      "是": 1978,
      "显": 1979,
      "晏": 1980,
      "晨": 1981,
      "普": 1982,
      "景": 1983,
      "智": 1984,
      "暂": 1985,
      "暫": 1986,
      "暴": 1987,
      "曌": 1988,
      "曝": 1989,
      "更": 1990,
      "書": 1991,
      "最": 1992,
      "會": 1993,
      "月": 1994,
      "有": 1995,
      "望": 1996,
      "朝": 1997,
      "木": 1998,
      "末": 1999,
      "本": 2000,
      "札": 2001,
      "术": 2002,
      "朱": 2003,
      "机": 2004,
      "李": 2005,
      "杏": 2006,
      "材": 2007,
      "村": 2008,
      "条": 2009,
      "来": 2010,
      "杨": 2011,
      "杭": 2012,
      "東": 2013,
      "松": 2014,
      "板": 2015,
      "林": 2016,
      "果": 2017,
      "枫": 2018,
      "架": 2019,
      "某": 2020,
      "染": 2021,
      "柔": 2022,
      "查": 2023,
      "柱": 2024,
      "柴": 2025,
      "标": 2026,
      "树": 2027,
      "校": 2028,
      "株": 2029,
      "样": 2030,
      "核": 2031,
      "根": 2032,
      "桂": 2033,
      "桃": 2034,
      "框": 2035,
      "桓": 2036,
      "梅": 2037,
      "梨": 2038,
      "检": 2039,
      "森": 2040,
      "椅": 2041,
      "植": 2042,
      "検": 2043,
      "楠": 2044,
      "業": 2045,
      "極": 2046,
      "楼": 2047,
      "楽": 2048,
      "標": 2049,
      "模": 2050,
      "横": 2051,
      "樱": 2052,
      "橿": 2053,
      "檀": 2054,
      "次": 2055,
      "欢": 2056,
      "款": 2057,
      "歌": 2058,
      "止": 2059,
      "正": 2060,
      "此": 2061,
      "步": 2062,
      "武": 2063,
      "歩": 2064,
      "歳": 2065,
      "死": 2066,
      "殊": 2067,
      "段": 2068,
      "殷": 2069,
      "殿": 2070,
      "毁": 2071,
      "母": 2072,
      "比": 2073,
      "毛": 2074,
      "氏": 2075,
      "民": 2076,
      "气": 2077,
      "気": 2078,
      "氣": 2079,
      "水": 2080,
      "氷": 2081,
      "永": 2082,
      "汇": 2083,
      "汉": 2084,
      "汕": 2085,
      "江": 2086,
      "汤": 2087,
      "汴": 2088,
      "決": 2089,
      "沈": 2090,
      "沙": 2091,
      "沛": 2092,
      "没": 2093,
      "沪": 2094,
      "沱": 2095,
      "河": 2096,
      "油": 2097,
      "治": 2098,
      "況": 2099,
      "泉": 2100,
      "泊": 2101,
      "法": 2102,
      "波": 2103,
      "泥": 2104,
      "注": 2105,
      "泽": 2106,
      "洋": 2107,
      "洒": 2108,
      "洛": 2109,
      "洪": 2110,
      "洲": 2111,
      "活": 2112,
      "派": 2113,
      "流": 2114,
      "浄": 2115,
      "测": 2116,
      "济": 2117,
      "浙": 2118,
      "浦": 2119,
      "浮": 2120,
      "海": 2121,
      "涂": 2122,
      "消": 2123,
      "涩": 2124,
      "淫": 2125,
      "深": 2126,
      "淹": 2127,
      "清": 2128,
      "済": 2129,
      "渋": 2130,
      "温": 2131,
      "港": 2132,
      "渲": 2133,
      "游": 2134,
      "湖": 2135,
      "湾": 2136,
      "満": 2137,
      "溜": 2138,
      "溝": 2139,
      "溢": 2140,
      "溥": 2141,
      "溪": 2142,
      "溫": 2143,
      "溶": 2144,
      "滬": 2145,
      "漢": 2146,
      "漫": 2147,
      "潟": 2148,
      "潮": 2149,
      "澄": 2150,
      "澤": 2151,
      "激": 2152,
      "濟": 2153,
      "灣": 2154,
      "火": 2155,
      "灯": 2156,
      "灰": 2157,
      "灾": 2158,
      "点": 2159,
      "為": 2160,
      "烦": 2161,
      "無": 2162,
      "然": 2163,
      "焼": 2164,
      "照": 2165,
      "煮": 2166,
      "熊": 2167,
      "熟": 2168,
      "熨": 2169,
      "爆": 2170,
      "爛": 2171,
      "爪": 2172,
      "爱": 2173,
      "父": 2174,
      "片": 2175,
      "版": 2176,
      "牌": 2177,
      "牙": 2178,
      "物": 2179,
      "特": 2180,
      "状": 2181,
      "狐": 2182,
      "狗": 2183,
      "独": 2184,
      "狭": 2185,
      "献": 2186,
      "獄": 2187,
      "玄": 2188,
      "率": 2189,
      "玉": 2190,
      "王": 2191,
      "现": 2192,
      "玲": 2193,
      "珠": 2194,
      "班": 2195,
      "球": 2196,
      "理": 2197,
      "琢": 2198,
      "瑠": 2199,
      "瑩": 2200,
      "璃": 2201,
      "璐": 2202,
      "瓶": 2203,
      "甜": 2204,
      "生": 2205,
      "用": 2206,
      "田": 2207,
      "由": 2208,
      "甲": 2209,
      "申": 2210,
      "电": 2211,
      "男": 2212,
      "甸": 2213,
      "町": 2214,
      "画": 2215,
      "界": 2216,
      "留": 2217,
      "畢": 2218,
      "略": 2219,
      "畿": 2220,
      "疆": 2221,
      "疑": 2222,
      "疗": 2223,
      "疫": 2224,
      "病": 2225,
      "痛": 2226,
      "痴": 2227,
      "癌": 2228,
      "白": 2229,
      "百": 2230,
      "的": 2231,
      "皇": 2232,
      "皮": 2233,
      "益": 2234,
      "盖": 2235,
      "盗": 2236,
      "盛": 2237,
      "目": 2238,
      "直": 2239,
      "相": 2240,
      "省": 2241,
      "看": 2242,
      "県": 2243,
      "真": 2244,
      "眩": 2245,
      "眼": 2246,
      "着": 2247,
      "睦": 2248,
      "瞎": 2249,
      "瞳": 2250,
      "矢": 2251,
      "知": 2252,
      "石": 2253,
      "码": 2254,
      "砂": 2255,
      "砕": 2256,
      "硝": 2257,
      "硬": 2258,
      "确": 2259,
      "確": 2260,
      "磨": 2261,
      "礱": 2262,
      "示": 2263,
      "礼": 2264,
      "社": 2265,
      "祝": 2266,
      "神": 2267,
      "票": 2268,
      "祸": 2269,
      "祿": 2270,
      "禅": 2271,
      "福": 2272,
      "禪": 2273,
      "秀": 2274,
      "私": 2275,
      "秉": 2276,
      "秋": 2277,
      "种": 2278,
      "科": 2279,
      "秦": 2280,
      "积": 2281,
      "称": 2282,
      "移": 2283,
      "程": 2284,
      "稱": 2285,
      "稼": 2286,
      "空": 2287,
      "立": 2288,
      "站": 2289,
      "竞": 2290,
      "章": 2291,
      "端": 2292,
      "競": 2293,
      "竹": 2294,
      "笠": 2295,
      "第": 2296,
      "筆": 2297,
      "答": 2298,
      "简": 2299,
      "箕": 2300,
      "管": 2301,
      "箱": 2302,
      "篇": 2303,
      "米": 2304,
      "系": 2305,
      "紂": 2306,
      "紅": 2307,
      "納": 2308,
      "純": 2309,
      "級": 2310,
      "素": 2311,
      "索": 2312,
      "紧": 2313,
      "終": 2314,
      "経": 2315,
      "結": 2316,
      "統": 2317,
      "經": 2318,
      "続": 2319,
      "綺": 2320,
      "総": 2321,
      "線": 2322,
      "縮": 2323,
      "繁": 2324,
      "織": 2325,
      "约": 2326,
      "级": 2327,
      "纸": 2328,
      "纹": 2329,
      "纽": 2330,
      "线": 2331,
      "细": 2332,
      "经": 2333,
      "绞": 2334,
      "统": 2335,
      "维": 2336,
      "网": 2337,
      "罗": 2338,
      "罪": 2339,
      "置": 2340,
      "羅": 2341,
      "美": 2342,
      "群": 2343,
      "義": 2344,
      "羲": 2345,
      "羽": 2346,
      "翁": 2347,
      "翠": 2348,
      "翻": 2349,
      "耀": 2350,
      "老": 2351,
      "考": 2352,
      "者": 2353,
      "而": 2354,
      "耳": 2355,
      "耶": 2356,
      "耸": 2357,
      "联": 2358,
      "肥": 2359,
      "育": 2360,
      "背": 2361,
      "胖": 2362,
      "胜": 2363,
      "胞": 2364,
      "胡": 2365,
      "能": 2366,
      "脱": 2367,
      "腕": 2368,
      "腰": 2369,
      "腹": 2370,
      "腺": 2371,
      "膚": 2372,
      "臂": 2373,
      "臈": 2374,
      "臓": 2375,
      "臘": 2376,
      "臣": 2377,
      "臧": 2378,
      "臨": 2379,
      "自": 2380,
      "至": 2381,
      "致": 2382,
      "臺": 2383,
      "舁": 2384,
      "舅": 2385,
      "舊": 2386,
      "舍": 2387,
      "舐": 2388,
      "舖": 2389,
      "舞": 2390,
      "舣": 2391,
      "舩": 2392,
      "航": 2393,
      "舫": 2394,
      "良": 2395,
      "色": 2396,
      "艳": 2397,
      "节": 2398,
      "芝": 2399,
      "花": 2400,
      "苏": 2401,
      "苑": 2402,
      "若": 2403,
      "英": 2404,
      "茂": 2405,
      "茜": 2406,
      "茨": 2407,
      "茶": 2408,
      "荣": 2409,
      "莉": 2410,
      "莞": 2411,
      "获": 2412,
      "莹": 2413,
      "菜": 2414,
      "華": 2415,
      "菱": 2416,
      "萄": 2417,
      "萧": 2418,
      "萬": 2419,
      "落": 2420,
      "葉": 2421,
      "著": 2422,
      "葡": 2423,
      "蒋": 2424,
      "蒸": 2425,
      "蔓": 2426,
      "蔚": 2427,
      "薇": 2428,
      "薔": 2429,
      "薬": 2430,
      "藏": 2431,
      "藤": 2432,
      "蘇": 2433,
      "虑": 2434,
      "蛋": 2435,
      "蜀": 2436,
      "蝦": 2437,
      "螨": 2438,
      "螳": 2439,
      "螺": 2440,
      "蟲": 2441,
      "血": 2442,
      "衆": 2443,
      "行": 2444,
      "術": 2445,
      "街": 2446,
      "衣": 2447,
      "表": 2448,
      "裂": 2449,
      "裕": 2450,
      "製": 2451,
      "西": 2452,
      "要": 2453,
      "見": 2454,
      "視": 2455,
      "覧": 2456,
      "親": 2457,
      "覺": 2458,
      "见": 2459,
      "观": 2460,
      "视": 2461,
      "觉": 2462,
      "角": 2463,
      "解": 2464,
      "言": 2465,
      "訓": 2466,
      "記": 2467,
      "設": 2468,
      "許": 2469,
      "試": 2470,
      "詩": 2471,
      "話": 2472,
      "誓": 2473,
      "語": 2474,
      "說": 2475,
      "読": 2476,
      "談": 2477,
      "請": 2478,
      "諸": 2479,
      "謑": 2480,
      "證": 2481,
      "计": 2482,
      "讣": 2483,
      "讨": 2484,
      "讯": 2485,
      "记": 2486,
      "讲": 2487,
      "许": 2488,
      "论": 2489,
      "设": 2490,
      "证": 2491,
      "识": 2492,
      "译": 2493,
      "试": 2494,
      "诘": 2495,
      "话": 2496,
      "该": 2497,
      "语": 2498,
      "说": 2499,
      "请": 2500,
      "课": 2501,
      "调": 2502,
      "谢": 2503,
      "谷": 2504,
      "豆": 2505,
      "豊": 2506,
      "貌": 2507,
      "販": 2508,
      "貮": 2509,
      "貴": 2510,
      "賀": 2511,
      "資": 2512,
      "賢": 2513,
      "贞": 2514,
      "负": 2515,
      "贡": 2516,
      "贤": 2517,
      "货": 2518,
      "质": 2519,
      "贱": 2520,
      "贳": 2521,
      "费": 2522,
      "资": 2523,
      "赌": 2524,
      "赛": 2525,
      "赞": 2526,
      "赤": 2527,
      "赵": 2528,
      "赶": 2529,
      "起": 2530,
      "超": 2531,
      "越": 2532,
      "趙": 2533,
      "足": 2534,
      "跋": 2535,
      "跟": 2536,
      "跨": 2537,
      "路": 2538,
      "跳": 2539,
      "踌": 2540,
      "躇": 2541,
      "躍": 2542,
      "身": 2543,
      "軍": 2544,
      "転": 2545,
      "輪": 2546,
      "车": 2547,
      "转": 2548,
      "轮": 2549,
      "载": 2550,
      "较": 2551,
      "辑": 2552,
      "辛": 2553,
      "辞": 2554,
      "辱": 2555,
      "込": 2556,
      "达": 2557,
      "迅": 2558,
      "过": 2559,
      "迎": 2560,
      "运": 2561,
      "近": 2562,
      "返": 2563,
      "这": 2564,
      "进": 2565,
      "连": 2566,
      "迷": 2567,
      "送": 2568,
      "逃": 2569,
      "逆": 2570,
      "选": 2571,
      "透": 2572,
      "途": 2573,
      "通": 2574,
      "逸": 2575,
      "遇": 2576,
      "遊": 2577,
      "道": 2578,
      "達": 2579,
      "遗": 2580,
      "遝": 2581,
      "遣": 2582,
      "遪": 2583,
      "遭": 2584,
      "遲": 2585,
      "遽": 2586,
      "那": 2587,
      "邱": 2588,
      "郎": 2589,
      "郑": 2590,
      "郝": 2591,
      "郡": 2592,
      "部": 2593,
      "郷": 2594,
      "都": 2595,
      "鄂": 2596,
      "鄉": 2597,
      "鄭": 2598,
      "酉": 2599,
      "配": 2600,
      "酒": 2601,
      "采": 2602,
      "釉": 2603,
      "里": 2604,
      "重": 2605,
      "野": 2606,
      "量": 2607,
      "金": 2608,
      "鈍": 2609,
      "鈴": 2610,
      "銀": 2611,
      "鋍": 2612,
      "鋑": 2613,
      "鋒": 2614,
      "鋓": 2615,
      "鋖": 2616,
      "鋘": 2617,
      "鋜": 2618,
      "鋝": 2619,
      "鋞": 2620,
      "鋟": 2621,
      "鐵": 2622,
      "针": 2623,
      "钓": 2624,
      "钢": 2625,
      "钦": 2626,
      "钧": 2627,
      "钱": 2628,
      "铃": 2629,
      "铭": 2630,
      "银": 2631,
      "销": 2632,
      "锈": 2633,
      "锋": 2634,
      "错": 2635,
      "键": 2636,
      "镜": 2637,
      "長": 2638,
      "門": 2639,
      "開": 2640,
      "間": 2641,
      "関": 2642,
      "閣": 2643,
      "閩": 2644,
      "门": 2645,
      "问": 2646,
      "间": 2647,
      "闵": 2648,
      "闻": 2649,
      "闽": 2650,
      "阜": 2651,
      "队": 2652,
      "阪": 2653,
      "防": 2654,
      "阳": 2655,
      "阿": 2656,
      "陀": 2657,
      "际": 2658,
      "陈": 2659,
      "降": 2660,
      "限": 2661,
      "除": 2662,
      "陳": 2663,
      "陵": 2664,
      "陶": 2665,
      "隆": 2666,
      "階": 2667,
      "際": 2668,
      "难": 2669,
      "雄": 2670,
      "雅": 2671,
      "集": 2672,
      "雛": 2673,
      "離": 2674,
      "雪": 2675,
      "雲": 2676,
      "雷": 2677,
      "電": 2678,
      "需": 2679,
      "青": 2680,
      "静": 2681,
      "非": 2682,
      "面": 2683,
      "革": 2684,
      "靳": 2685,
      "音": 2686,
      "項": 2687,
      "須": 2688,
      "頑": 2689,
      "頭": 2690,
      "顗": 2691,
      "页": 2692,
      "顶": 2693,
      "顾": 2694,
      "预": 2695,
      "颐": 2696,
      "颖": 2697,
      "题": 2698,
      "颜": 2699,
      "風": 2700,
      "风": 2701,
      "飛": 2702,
      "飞": 2703,
      "食": 2704,
      "飯": 2705,
      "飼": 2706,
      "館": 2707,
      "饮": 2708,
      "首": 2709,
      "香": 2710,
      "馬": 2711,
      "駄": 2712,
      "駅": 2713,
      "験": 2714,
      "騜": 2715,
      "马": 2716,
      "验": 2717,
      "髄": 2718,
      "體": 2719,
      "高": 2720,
      "鬼": 2721,
      "魔": 2722,
      "鰀": 2723,
      "鰃": 2724,
      "鰄": 2725,
      "鰈": 2726,
      "鰊": 2727,
      "鰎": 2728,
      "鱼": 2729,
      "鲁": 2730,
      "鲞": 2731,
      "鳳": 2732,
      "鴻": 2733,
      "鵜": 2734,
      "鹈": 2735,
      "鹤": 2736,
      "鹿": 2737,
      "麗": 2738,
      "麩": 2739,
      "麺": 2740,
      "黃": 2741,
      "黄": 2742,
      "黒": 2743,
      "黚": 2744,
      "黡": 2745,
      "黨": 2746,
      "黮": 2747,
      "黵": 2748,
      "黷": 2749,
      "鼻": 2750,
      "齡": 2751,
      "龍": 2752,
      "龙": 2753,
      "검": 2754,
      "고": 2755,
      "구": 2756,
      "국": 2757,
      "군": 2758,
      "김": 2759,
      "뀌": 2760,
      "나": 2761,
      "널": 2762,
      "녀": 2763,
      "년": 2764,
      "누": 2765,
      "는": 2766,
      "니": 2767,
      "님": 2768,
      "다": 2769,
      "단": 2770,
      "당": 2771,
      "대": 2772,
      "돌": 2773,
      "드": 2774,
      "로": 2775,
      "루": 2776,
      "류": 2777,
      "르": 2778,
      "마": 2779,
      "막": 2780,
      "맨": 2781,
      "문": 2782,
      "미": 2783,
      "바": 2784,
      "박": 2785,
      "반": 2786,
      "번": 2787,
      "법": 2788,
      "베": 2789,
      "별": 2790,
      "비": 2791,
      "빛": 2792,
      "사": 2793,
      "서": 2794,
      "성": 2795,
      "세": 2796,
      "셀": 2797,
      "셜": 2798,
      "소": 2799,
      "스": 2800,
      "습": 2801,
      "시": 2802,
      "신": 2803,
      "아": 2804,
      "어": 2805,
      "었": 2806,
      "에": 2807,
      "엘": 2808,
      "엠": 2809,
      "영": 2810,
      "왕": 2811,
      "요": 2812,
      "웅": 2813,
      "월": 2814,
      "유": 2815,
      "으": 2816,
      "이": 2817,
      "인": 2818,
      "일": 2819,
      "자": 2820,
      "작": 2821,
      "적": 2822,
      "조": 2823,
      "존": 2824,
      "주": 2825,
      "지": 2826,
      "짝": 2827,
      "창": 2828,
      "천": 2829,
      "체": 2830,
      "추": 2831,
      "층": 2832,
      "치": 2833,
      "킨": 2834,
      "터": 2835,
      "톨": 2836,
      "티": 2837,
      "폐": 2838,
      "한": 2839,
      "향": 2840,
      "호": 2841,
      "환": 2842,
      "회": 2843,
      "훈": 2844,
      "": 2845,
      "": 2846,
      "": 2847,
      "": 2848,
      "": 2849,
      "": 2850,
      "": 2851,
      "": 2852,
      "": 2853,
      "": 2854,
      "": 2855,
      "": 2856,
      "": 2857,
      "": 2858,
      "": 2859,
      "": 2860,
      "": 2861,
      "": 2862,
      "": 2863,
      "": 2864,
      "": 2865,
      "": 2866,
      "": 2867,
      "ﬁ": 2868,
      "ﬂ": 2869,
      "ﷲ": 2870,
      "︰": 2871,
      "﻿": 2872,
      "！": 2873,
      "（": 2874,
      "）": 2875,
      "＊": 2876,
      "，": 2877,
      "－": 2878,
      "．": 2879,
      "：": 2880,
      "；": 2881,
      "？": 2882,
      "ｔ": 2883,
      "､": 2884,
      "ｲ": 2885,
      "ｿ": 2886,
      "ﾜ": 2887,
      "ﾟ": 2888,
      "￡": 2889,
      "￥": 2890,
      "￼": 2891,
      "�": 2892,
      "𐌰": 2893,
      "𐌴": 2894,
      "𐌸": 2895,
      "𐌼": 2896,
      "𐌽": 2897,
      "𐍃": 2898,
      "𐍉": 2899,
      "𠐄": 2900,
      "𢥲": 2901,
      "𧵮": 2902,
      "𲠄": 2903,
      "𲠤": 2904,
      "򮬩": 2905,
      "򮮥": 2906,
      "򲤥": 2907,
      "򲵮": 2908,
      "򴩧": 2909,
      "##a": 2910,
      "##s": 2911,
      "##q": 2912,
      "##u": 2913,
      "##n": 2914,
      "##g": 2915,
      "##e": 2916,
      "##l": 2917,
      "##i": 2918,
      "##r": 2919,
      "##o": 2920,
      "##t": 2921,
      "##ú": 2922,
      "##m": 2923,
      "##з": 2924,
      "##г": 2925,
      "##л": 2926,
      "##я": 2927,
      "##н": 2928,
      "##у": 2929,
      "##т": 2930,
      "##ь": 2931,
      "##d": 2932,
      "##c": 2933,
      "##h": 2934,
      "##y": 2935,
      "##z": 2936,
      "##f": 2937,
      "##w": 2938,
      "##b": 2939,
      "##p": 2940,
      "##á": 2941,
      "##T": 2942,
      "##k": 2943,
      "##ß": 2944,
      "##M": 2945,
      "##O": 2946,
      "##R": 2947,
      "##P": 2948,
      "##G": 2949,
      "##ä": 2950,
      "##ö": 2951,
      "##ü": 2952,
      "##v": 2953,
      "##ó": 2954,
      "##č": 2955,
      "##Г": 2956,
      "##º": 2957,
      "##D": 2958,
      "##B": 2959,
      "##E": 2960,
      "##I": 2961,
      "##Y": 2962,
      "##S": 2963,
      "##H": 2964,
      "##A": 2965,
      "##U": 2966,
      "##Ã": 2967,
      "##ň": 2968,
      "##đ": 2969,
      "##î": 2970,
      "##ę": 2971,
      "##N": 2972,
      "##V": 2973,
      "##8": 2974,
      "##j": 2975,
      "##2": 2976,
      "##3": 2977,
      "##C": 2978,
      "##x": 2979,
      "##ē": 2980,
      "##«": 2981,
      "##7": 2982,
      "##F": 2983,
      "##α": 2984,
      "##ρ": 2985,
      "##λ": 2986,
      "##ί": 2987,
      "##ε": 2988,
      "##ς": 2989,
      "##é": 2990,
      "##1": 2991,
      "##W": 2992,
      "##ć": 2993,
      "##L": 2994,
      "##ı": 2995,
      "##J": 2996,
      "##K": 2997,
      "##â": 2998,
      "##0": 2999,
      "##5": 3000,
      "##è": 3001,
      "##9": 3002,
      "##í": 3003,
      "##6": 3004,
      "##4": 3005,
      "##о": 3006,
      "##в": 3007,
      "##и": 3008,
      "##а": 3009,
      "##с": 3010,
      "##е": 3011,
      "##£": 3012,
      "##ç": 3013,
      "##õ": 3014,
      "##ł": 3015,
      "##X": 3016,
      "##_": 3017,
      "##р": 3018,
      "##ч": 3019,
      "##х": 3020,
      "##ò": 3021,
      "##à": 3022,
      "##ž": 3023,
      "##š": 3024,
      "##ë": 3025,
      "##έ": 3026,
      "##χ": 3027,
      "##ι": 3028,
      "##*": 3029,
      "##/": 3030,
      "##ð": 3031,
      "##π": 3032,
      "##ο": 3033,
      "##ή": 3034,
      "##Z": 3035,
      "##Ä": 3036,
      "##斗": 3037,
      "##ы": 3038,
      "##б": 3039,
      "##æ": 3040,
      "##к": 3041,
      "##ш": 3042,
      "##[": 3043,
      "##克": 3044,
      "##赛": 3045,
      "##钦": 3046,
      "##υ": 3047,
      "##ν": 3048,
      "##τ": 3049,
      "##ό": 3050,
      "##η": 3051,
      "##ş": 3052,
      "##ã": 3053,
      "##є": 3054,
      "##п": 3055,
      "##鋘": 3056,
      "##й": 3057,
      "##,": 3058,
      "##!": 3059,
      "##κ": 3060,
      "##ż": 3061,
      "##Q": 3062,
      "##价": 3063,
      "##ж": 3064,
      "##”": 3065,
      "##?": 3066,
      "##д": 3067,
      "##ģ": 3068,
      "##Ù": 3069,
      "##ź": 3070,
      "##ï": 3071,
      "##ñ": 3072,
      "##ô": 3073,
      "##Ò": 3074,
      "##-": 3075,
      "##ì": 3076,
      "##Þ": 3077,
      "##å": 3078,
      "##ś": 3079,
      "##м": 3080,
      "##ý": 3081,
      "##ц": 3082,
      "##Å": 3083,
      "##ī": 3084,
      "##ê": 3085,
      "##Ü": 3086,
      "##(": 3087,
      "##Ÿ": 3088,
      "##ą": 3089,
      "##ő": 3090,
      "##ј": 3091,
      "##þ": 3092,
      "##ù": 3093,
      "##ÿ": 3094,
      "##β": 3095,
      "##̈": 3096,
      "##:": 3097,
      "##і": 3098,
      "##ů": 3099,
      "##σ": 3100,
      "##ω": 3101,
      "##ě": 3102,
      "##ń": 3103,
      "##ћ": 3104,
      "##.": 3105,
      "##ю": 3106,
      "##щ": 3107,
      "##û": 3108,
      "##ø": 3109,
      "##]": 3110,
      "##ė": 3111,
      "##★": 3112,
      "##】": 3113,
      "##џ": 3114,
      "##イ": 3115,
      "##レ": 3116,
      "##ン": 3117,
      "##ト": 3118,
      "##ヒ": 3119,
      "##ル": 3120,
      "##ー": 3121,
      "##ї": 3122,
      "##実": 3123,
      "##无": 3124,
      "##ά": 3125,
      "##去": 3126,
      "##)": 3127,
      "##\"": 3128,
      "##|": 3129,
      "##Ě": 3130,
      "##﻿": 3131,
      "##Ђ": 3132,
      "##С": 3133,
      "##Љ": 3134,
      "##Ů": 3135,
      "##θ": 3136,
      "##ل": 3137,
      "##ق": 3138,
      "##ص": 3139,
      "##و": 3140,
      "##ر": 3141,
      "##ϋ": 3142,
      "##": 3143,
      "##œ": 3144,
      "##;": 3145,
      "##“": 3146,
      "##س": 3147,
      "##م": 3148,
      "##语": 3149,
      "##–": 3150,
      "##्": 3151,
      "##र": 3152,
      "##द": 3153,
      "##े": 3154,
      "##श": 3155,
      "##%": 3156,
      "##": 3157,
      "##少": 3158,
      "##女": 3159,
      "##惑": 3160,
      "##星": 3161,
      "##Á": 3162,
      "##ā": 3163,
      "##子": 3164,
      "##&": 3165,
      "##年": 3166,
      "##ŕ": 3167,
      "##ű": 3168,
      "##ţ": 3169,
      "##월": 3170,
      "##É": 3171,
      "##ř": 3172,
      "##δ": 3173,
      "##φ": 3174,
      "##ύ": 3175,
      "##ľ": 3176,
      "##亚": 3177,
      "##康": 3178,
      "##+": 3179,
      "##\\": 3180,
      "##…": 3181,
      "##^": 3182,
      "##Í": 3183,
      "##ŏ": 3184,
      "##Ґ": 3185,
      "##{": 3186,
      "##Ú": 3187,
      "##י": 3188,
      "##ל": 3189,
      "##ץ": 3190,
      "##Ė": 3191,
      "##ō": 3192,
      "##γ": 3193,
      "##‑": 3194,
      "##ū": 3195,
      "##ت": 3196,
      "##ه": 3197,
      "##ğ": 3198,
      "##년": 3199,
      "##ə": 3200,
      "##И": 3201,
      "##Д": 3202,
      "##Č": 3203,
      "##َ": 3204,
      "##ْ": 3205,
      "##ج": 3206,
      "##ِ": 3207,
      "##ا": 3208,
      "##э": 3209,
      "##'": 3210,
      "##": 3211,
      "##Ó": 3212,
      "##ă": 3213,
      "##ф": 3214,
      "##ु": 3215,
      "##ण": 3216,
      "##ा": 3217,
      "##च": 3218,
      "##ल": 3219,
      "##„": 3220,
      "##म": 3221,
      "##ि": 3222,
      "##क": 3223,
      "##ĺ": 3224,
      "##µ": 3225,
      "##ъ": 3226,
      "##称": 3227,
      "##ώ": 3228,
      "##ו": 3229,
      "##ב": 3230,
      "##ר": 3231,
      "##М": 3232,
      "##Π": 3233,
      "##Ο": 3234,
      "##業": 3235,
      "##家": 3236,
      "##­": 3237,
      "##ﬂ": 3238,
      "##μ": 3239,
      "##吗": 3240,
      "##作": 3241,
      "##直": 3242,
      "##د": 3243,
      "##ی": 3244,
      "##Ê": 3245,
      "##ņ": 3246,
      "##أ": 3247,
      "##ذ": 3248,
      "##ن": 3249,
      "##ي": 3250,
      "##Â": 3251,
      "##Ñ": 3252,
      "##臧": 3253,
      "##¹": 3254,
      "##Ö": 3255,
      "##ი": 3256,
      "##İ": 3257,
      "##ش": 3258,
      "##น": 3259,
      "##☆": 3260,
      "##海": 3261,
      "##艳": 3262,
      "##舞": 3263,
      "##া": 3264,
      "##র": 3265,
      "##্": 3266,
      "##ক": 3267,
      "##ি": 3268,
      "##ন": 3269,
      "##$": 3270,
      "##½": 3271,
      "##€": 3272,
      "##宰": 3273,
      "##府": 3274,
      "##市": 3275,
      "##Æ": 3276,
      "##세": 3277,
      "##돌": 3278,
      "##@": 3279,
      "##ف": 3280,
      "##ť": 3281,
      "##ƒ": 3282,
      "##В": 3283,
      "##È": 3284,
      "##ล": 3285,
      "##ะ": 3286,
      "##ห": 3287,
      "##ั": 3288,
      "##ก": 3289,
      "##า": 3290,
      "##ร": 3291,
      "##จ": 3292,
      "##ด": 3293,
      "##โ": 3294,
      "##ค": 3295,
      "##ง": 3296,
      "##ส": 3297,
      "##้": 3298,
      "##ท": 3299,
      "##ป": 3300,
      "##อ": 3301,
      "##ใ": 3302,
      "##เ": 3303,
      "##ย": 3304,
      "##ม": 3305,
      "##鋜": 3306,
      "##山": 3307,
      "##ų": 3308,
      "##Ç": 3309,
      "##ψ": 3310,
      "##ם": 3311,
      "##ǐ": 3312,
      "##א": 3313,
      "##·": 3314,
      "##ビ": 3315,
      "##Œ": 3316,
      "##″": 3317,
      "##教": 3318,
      "##处": 3319,
      "##吧": 3320,
      "##ѕ": 3321,
      "##Я": 3322,
      "###": 3323,
      "##几": 3324,
      "##ك": 3325,
      "##ď": 3326,
      "##ศ": 3327,
      "##บ": 3328,
      "##ד": 3329,
      "##נ": 3330,
      "##ת": 3331,
      "##ק": 3332,
      "##פ": 3333,
      "##ё": 3334,
      "##Џ": 3335,
      "##Р": 3336,
      "##ў": 3337,
      "##љ": 3338,
      "##�": 3339,
      "##Ћ": 3340,
      "##所": 3341,
      "##有": 3342,
      "##东": 3343,
      "##西": 3344,
      "##后": 3345,
      "##都": 3346,
      "##会": 3347,
      "##产": 3348,
      "##生": 3349,
      "##免": 3350,
      "##疫": 3351,
      "##球": 3352,
      "##蛋": 3353,
      "##白": 3354,
      "##ế": 3355,
      "##ξ": 3356,
      "##名": 3357,
      "##遣": 3358,
      "##い": 3359,
      "##Л": 3360,
      "##む": 3361,
      "##ﬁ": 3362,
      "##和": 3363,
      "##食": 3364,
      "##=": 3365,
      "##њ": 3366,
      "##鄉": 3367,
      "##»": 3368,
      "##}": 3369,
      "##": 3370,
      "##І": 3371,
      "##Ј": 3372,
      "##Ё": 3373,
      "##À": 3374,
      "##Ў": 3375,
      "##多": 3376,
      "##Ω": 3377,
      "##ſ": 3378,
      "##貮": 3379,
      "##其": 3380,
      "##Š": 3381,
      "##‘": 3382,
      "##Ş": 3383,
      "##ṇ": 3384,
      "##Ф": 3385,
      "##』": 3386,
      "##Μ": 3387,
      "##帝": 3388,
      "##ќ": 3389,
      "##Ŀ": 3390,
      "##‌": 3391,
      "##ب": 3392,
      "##动": 3393,
      "##ļ": 3394,
      "##—": 3395,
      "##ว": 3396,
      "##ζ": 3397,
      "##ぞ": 3398,
      "##き": 3399,
      "##の": 3400,
      "##真": 3401,
      "##髄": 3402,
      "##を": 3403,
      "##極": 3404,
      "##め": 3405,
      "##た": 3406,
      "##盗": 3407,
      "##撮": 3408,
      "##マ": 3409,
      "##ニ": 3410,
      "##ア": 3411,
      "##達": 3412,
      "##が": 3413,
      "##性": 3414,
      "##プ": 3415,
      "##ラ": 3416,
      "##ベ": 3417,
      "##徹": 3418,
      "##底": 3419,
      "##的": 3420,
      "##に": 3421,
      "##暴": 3422,
      "##く": 3423,
      "##ོ": 3424,
      "##ད": 3425,
      "##Ű": 3426,
      "##ิ": 3427,
      "##่": 3428,
      "##ุ": 3429,
      "##ⁿ": 3430,
      "##換": 3431,
      "##え": 3432,
      "##る": 3433,
      "##¥": 3434,
      "##手": 3435,
      "##Î": 3436,
      "##ˈ": 3437,
      "##ŋ": 3438,
      "##「": 3439,
      "##Į": 3440,
      "##°": 3441,
      "##Ø": 3442,
      "##固": 3443,
      "##ˆ": 3444,
      "##Ï": 3445,
      "##楽": 3446,
      "##>": 3447,
      "##Ă": 3448,
      "##れ": 3449,
      "##て": 3450,
      "##ゆ": 3451,
      "##Т": 3452,
      "##新": 3453,
      "##款": 3454,
      "##한": 3455,
      "##~": 3456,
      "##ǎ": 3457,
      "##片": 3458,
      "##稱": 3459,
      "##ع": 3460,
      "##ة": 3461,
      "##坊": 3462,
      "##Õ": 3463,
      "##Û": 3464,
      "##Ž": 3465,
      "##设": 3466,
      "##ң": 3467,
      "##ғ": 3468,
      "##Ї": 3469,
      "##ถ": 3470,
      "##ู": 3471,
      "##빛": 3472,
      "##에": 3473,
      "##Ř": 3474,
      "##ო": 3475,
      "##ლ": 3476,
      "##ს": 3477,
      "##能": 3478,
      "##物": 3479,
      "##统": 3480,
      "##す": 3481,
      "##Đ": 3482,
      "##以": 3483,
      "##难": 3484,
      "##遗": 3485,
      "##珠": 3486,
      "##之": 3487,
      "##憾": 3488,
      "##空": 3489,
      "##图": 3490,
      "##±": 3491,
      "##屋": 3492,
      "##も": 3493,
      "##大": 3494,
      "##つ": 3495,
      "##ろ": 3496,
      "##げ": 3497,
      "##ま": 3498,
      "##ט": 3499,
      "##𧵮": 3500,
      "##ც": 3501,
      "##ე": 3502,
      "##მ": 3503,
      "##უ": 3504,
      "##ა": 3505,
      "##ț": 3506,
      "##水": 3507,
      "##ả": 3508,
      "##戴": 3509,
      "##Ѓ": 3510,
      "##Њ": 3511,
      "##`": 3512,
      "##’": 3513,
      "##葉": 3514,
      "##伦": 3515,
      "##理": 3516,
      "##电": 3517,
      "##影": 3518,
      "##冤": 3519,
      "##死": 3520,
      "##ừ": 3521,
      "##¬": 3522,
      "##況": 3523,
      "##载": 3524,
      "##松": 3525,
      "##岛": 3526,
      "##枫": 3527,
      "##チ": 3528,
      "##ワ": 3529,
      "##信": 3530,
      "##佑": 3531,
      "##ض": 3532,
      "##剥": 3533,
      "##Ų": 3534,
      "##غ": 3535,
      "##ط": 3536,
      "##圳": 3537,
      "##立": 3538,
      "##代": 3539,
      "##々": 3540,
      "##木": 3541,
      "##競": 3542,
      "##技": 3543,
      "##場": 3544,
      "##ɒ": 3545,
      "##ɪ": 3546,
      "##ː": 3547,
      "##Ą": 3548,
      "##持": 3549,
      "##寺": 3550,
      "##ى": 3551,
      "##ڭ": 3552,
      "##う": 3553,
      "##方": 3554,
      "##は": 3555,
      "##ี": 3556,
      "##ธ": 3557,
      "##ک": 3558,
      "##狐": 3559,
      "##ג": 3560,
      "##צ": 3561,
      "##ן": 3562,
      "##臺": 3563,
      "##湾": 3564,
      "##О": 3565,
      "##讣": 3566,
      "##报": 3567,
      "##": 3568,
      "##建": 3569,
      "##益": 3570,
      "##摩": 3571,
      "##ŷ": 3572,
      "##¦": 3573,
      "##ĝ": 3574,
      "##†": 3575,
      "##ה": 3576,
      "##³": 3577,
      "##ณ": 3578,
      "##ไ": 3579,
      "##ķ": 3580,
      "##Ż": 3581,
      "##日": 3582,
      "##志": 3583,
      "##็": 3584,
      "##ช": 3585,
      "##ข": 3586,
      "##แ": 3587,
      "##ĩ": 3588,
      "##‚": 3589,
      "##व": 3590,
      "##स": 3591,
      "##त": 3592,
      "##य": 3593,
      "##न": 3594,
      "##ら": 3595,
      "##」": 3596,
      "##狗": 3597,
      "##‬": 3598,
      "##東": 3599,
      "##区": 3600,
      "##ʀ": 3601,
      "##ɔ": 3602,
      "##用": 3603,
      "##漢": 3604,
      "##字": 3605,
      "##²": 3606,
      "##田": 3607,
      "##港": 3608,
      "##切": 3609,
      "##腹": 3610,
      "##指": 3611,
      "##誓": 3612,
      "##ע": 3613,
      "##ึ": 3614,
      "##ǔ": 3615,
      "##『": 3616,
      "##ɛ": 3617,
      "##ち": 3618,
      "##宁": 3619,
      "##辱": 3620,
      "##̍": 3621,
      "##爱": 3622,
      "##Ľ": 3623,
      "##体": 3624,
      "##力": 3625,
      "##不": 3626,
      "##支": 3627,
      "##Ќ": 3628,
      "##题": 3629,
      "##ｔ": 3630,
      "##ɑ": 3631,
      "##遝": 3632,
      "##三": 3633,
      "##桂": 3634,
      "##森": 3635,
      "##娜": 3636,
      "##А": 3637,
      "##Н": 3638,
      "##ѓ": 3639,
      "##薇": 3640,
      "##獄": 3641,
      "##乙": 3642,
      "##膚": 3643,
      "##科": 3644,
      "##ّ": 3645,
      "##国": 3646,
      "##模": 3647,
      "##套": 3648,
      "##下": 3649,
      "##ש": 3650,
      "##ვ": 3651,
      "##კ": 3652,
      "##ტ": 3653,
      "##გ": 3654,
      "##რ": 3655,
      "##口": 3656,
      "##ز": 3657,
      "##ᒥ": 3658,
      "##ᐊ": 3659,
      "##ᓕ": 3660,
      "##ᑲ": 3661,
      "##Ł": 3662,
      "##刨": 3663,
      "##纹": 3664,
      "##ん": 3665,
      "##修": 3666,
      "##丘": 3667,
      "##鋝": 3668,
      "##降": 3669,
      "##注": 3670,
      "##岭": 3671,
      "##觉": 3672,
      "##罗": 3673,
      "##是": 3674,
      "##𐍃": 3675,
      "##𐌰": 3676,
      "##𐌽": 3677,
      "##𐌼": 3678,
      "##𐌴": 3679,
      "##𐍉": 3680,
      "##𐌸": 3681,
      "##К": 3682,
      "##ʒ": 3683,
      "##吸": 3684,
      "##動": 3685,
      "##男": 3686,
      "##П": 3687,
      "##若": 3688,
      "##妻": 3689,
      "##ĕ": 3690,
      "##‰": 3691,
      "##ֳ": 3692,
      "##ụ": 3693,
      "##Ì": 3694,
      "##̃": 3695,
      "##平": 3696,
      "##泽": 3697,
      "##Ý": 3698,
      "##̀": 3699,
      "##ǒ": 3700,
      "##相": 3701,
      "##崎": 3702,
      "##ื": 3703,
      "##Ѕ": 3704,
      "##ह": 3705,
      "##प": 3706,
      "##车": 3707,
      "##老": 3708,
      "##Ū": 3709,
      "##Ő": 3710,
      "##皇": 3711,
      "##พ": 3712,
      "##ฯ": 3713,
      "##Е": 3714,
      "##‹": 3715,
      "##頭": 3716,
      "##敏": 3717,
      "##舅": 3718,
      "##公": 3719,
      "##ª": 3720,
      "##ŝ": 3721,
      "##顶": 3722,
      "##婷": 3723,
      "##五": 3724,
      "##月": 3725,
      "##天": 3726,
      "##®": 3727,
      "##十": 3728,
      "##路": 3729,
      "##寻": 3730,
      "##了": 3731,
      "##一": 3732,
      "##核": 3733,
      "##工": 3734,
      "##厂": 3735,
      "##須": 3736,
      "##賀": 3737,
      "##خ": 3738,
      "##躍": 3739,
      "##ُ": 3740,
      "##ʊ": 3741,
      "##黵": 3742,
      "##流": 3743,
      "##出": 3744,
      "##拉": 3745,
      "##Ć": 3746,
      "##ỹ": 3747,
      "##清": 3748,
      "##ș": 3749,
      "##只": 3750,
      "##者": 3751,
      "##": 3752,
      "##": 3753,
      "##מ": 3754,
      "##江": 3755,
      "##Ô": 3756,
      "##۹": 3757,
      "##۴": 3758,
      "##林": 3759,
      "##甲": 3760,
      "##ʿ": 3761,
      "##憎": 3762,
      "##ざ": 3763,
      "##ぐ": 3764,
      "##暂": 3765,
      "##術": 3766,
      "##國": 3767,
      "##ḍ": 3768,
      "##ṛ": 3769,
      "##嶼": 3770,
      "##¿": 3771,
      "##०": 3772,
      "##३": 3773,
      "##次": 3774,
      "##箱": 3775,
      "##书": 3776,
      "##北": 3777,
      "##ṃ": 3778,
      "##́": 3779,
      "##ต": 3780,
      "##ẩ": 3781,
      "##身": 3782,
      "##吊": 3783,
      "##事": 3784,
      "##서": 3785,
      "##는": 3786,
      "##♂": 3787,
      "##": 3788,
      "##容": 3789,
      "##某": 3790,
      "##位": 3791,
      "##医": 3792,
      "##师": 3793,
      "##提": 3794,
      "##他": 3795,
      "##病": 3796,
      "##患": 3797,
      "##因": 3798,
      "##为": 3799,
      "##越": 3800,
      "##运": 3801,
      "##反": 3802,
      "##而": 3803,
      "##胖": 3804,
      "##论": 3805,
      "##坛": 3806,
      "##原": 3807,
      "##宮": 3808,
      "##Α": 3809,
      "##ำ": 3810,
      "##ษ": 3811,
      "##ผ": 3812,
      "##溝": 3813,
      "##婁": 3814,
      "##¸": 3815,
      "##愛": 3816,
      "##כ": 3817,
      "##赤": 3818,
      "##色": 3819,
      "##面": 3820,
      "##银": 3821,
      "##深": 3822,
      "##灰": 3823,
      "##可": 3824,
      "##选": 3825,
      "##凄": 3826,
      "##到": 3827,
      "##≈": 3828,
      "##济": 3829,
      "##景": 3830,
      "##气": 3831,
      "##最": 3832,
      "##受": 3833,
      "##种": 3834,
      "##釉": 3835,
      "##彩": 3836,
      "##急": 3837,
      "##遽": 3838,
      "##१": 3839,
      "##系": 3840,
      "##人": 3841,
      "##入": 3842,
      "##読": 3843,
      "##み": 3844,
      "##주": 3845,
      "##京": 3846,
      "##欢": 3847,
      "##迎": 3848,
      "##你": 3849,
      "##自": 3850,
      "##治": 3851,
      "##县": 3852,
      "##Ś": 3853,
      "##ക": 3854,
      "##്": 3855,
      "##ഷ": 3856,
      "##ദ": 3857,
      "##വ": 3858,
      "##ീ": 3859,
      "##പ": 3860,
      "##Ρ": 3861,
      "##Τ": 3862,
      "##‭": 3863,
      "##島": 3864,
      "##バ": 3865,
      "##ス": 3866,
      "##セ": 3867,
      "##タ": 3868,
      "##ɜ": 3869,
      "##Ð": 3870,
      "##∀": 3871,
      "##中": 3872,
      "##墟": 3873,
      "##©": 3874,
      "##Ν": 3875,
      "##Ι": 3876,
      "##对": 3877,
      "##先": 3878,
      "##冷": 3879,
      "##硬": 3880,
      "##氷": 3881,
      "##上": 3882,
      "##だ": 3883,
      "##っ": 3884,
      "##™": 3885,
      "##画": 3886,
      "##თ": 3887,
      "##ố": 3888,
      "##朱": 3889,
      "##安": 3890,
      "##雄": 3891,
      "##ớ": 3892,
      "##角": 3893,
      "##汤": 3894,
      "##済": 3895,
      "##დ": 3896,
      "##土": 3897,
      "##瓶": 3898,
      "##仮": 3899,
      "##朝": 3900,
      "##意": 3901,
      "##寶": 3902,
      "##札": 3903,
      "##鋓": 3904,
      "##ǣ": 3905,
      "##納": 3906,
      "##郎": 3907,
      "##뀌": 3908,
      "##었": 3909,
      "##습": 3910,
      "##니": 3911,
      "##다": 3912,
      "##ǜ": 3913,
      "##仁": 3914,
      "##§": 3915,
      "##ٲ": 3916,
      "##→": 3917,
      "##Ɩ": 3918,
      "##Ɲ": 3919,
      "##Ɠ": 3920,
      "##Ƭ": 3921,
      "##Ơ": 3922,
      "##Є": 3923,
      "##Ȥ": 3924,
      "##۵": 3925,
      "##情": 3926,
      "##영": 3927,
      "##훈": 3928,
      "##许": 3929,
      "##間": 3930,
      "##损": 3931,
      "##鋖": 3932,
      "##定": 3933,
      "##席": 3934,
      "##小": 3935,
      "##龍": 3936,
      "##学": 3937,
      "##校": 3938,
      "##エ": 3939,
      "##ズ": 3940,
      "##り": 3941,
      "##ट": 3942,
      "##ी": 3943,
      "##城": 3944,
      "##确": 3945,
      "##过": 3946,
      "##检": 3947,
      "##测": 3948,
      "##应": 3949,
      "##非": 3950,
      "##鈴": 3951,
      "##约": 3952,
      "##时": 3953,
      "##旋": 3954,
      "##階": 3955,
      "##段": 3956,
      "##心": 3957,
      "##落": 3958,
      "##し": 3959,
      "##壊": 3960,
      "##ס": 3961,
      "##喜": 3962,
      "##ҙ": 3963,
      "##ә": 3964,
      "##ү": 3965,
      "##ַ": 3966,
      "##外": 3967,
      "##灾": 3968,
      "##乐": 3969,
      "##祸": 3970,
      "##洪": 3971,
      "##せ": 3972,
      "##ं": 3973,
      "##ተ": 3974,
      "##ቀ": 3975,
      "##የ": 3976,
      "##ረ": 3977,
      "##ው": 3978,
      "##取": 3979,
      "##Ň": 3980,
      "##萄": 3981,
      "##牙": 3982,
      "##♥": 3983,
      "##Ğ": 3984,
      "##な": 3985,
      "##と": 3986,
      "##駄": 3987,
      "##目": 3988,
      "##思": 3989,
      "##ব": 3990,
      "##华": 3991,
      "##民": 3992,
      "##共": 3993,
      "##♀": 3994,
      "##堆": 3995,
      "##明": 3996,
      "##部": 3997,
      "##客": 3998,
      "##马": 3999,
      "##引": 4000,
      "##參": 4001,
      "##柴": 4002,
      "##秀": 4003,
      "##吉": 4004,
      "##波": 4005,
      "##丽": 4006,
      "##士": 4007,
      "##塔": 4008,
      "##ǘ": 4009,
      "##功": 4010,
      "##პ": 4011,
      "##۰": 4012,
      "##揃": 4013,
      "##¢": 4014,
      "##ɕ": 4015,
      "##雷": 4016,
      "##漫": 4017,
      "##在": 4018,
      "##线": 4019,
      "##寨": 4020,
      "##川": 4021,
      "##藏": 4022,
      "##这": 4023,
      "##比": 4024,
      "##较": 4025,
      "##ح": 4026,
      "##疗": 4027,
      "##条": 4028,
      "##項": 4029,
      "##ダ": 4030,
      "##巨": 4031,
      "##像": 4032,
      "##ґ": 4033,
      "##ħ": 4034,
      "##Ď": 4035,
      "##ָ": 4036,
      "##ư": 4037,
      "##禅": 4038,
      "##師": 4039,
      "##啦": 4040,
      "##文": 4041,
      "##仲": 4042,
      "##解": 4043,
      "##决": 4044,
      "##没": 4045,
      "##显": 4046,
      "##示": 4047,
      "##屏": 4048,
      "##问": 4049,
      "##루": 4050,
      "##−": 4051,
      "##ẻ": 4052,
      "##ザ": 4053,
      "##​": 4054,
      "##르": 4055,
      "##누": 4056,
      "##이": 4057,
      "##ầ": 4058,
      "##濟": 4059,
      "##Ц": 4060,
      "##У": 4061,
      "##壮": 4062,
      "##族": 4063,
      "##黡": 4064,
      "##¨": 4065,
      "##ㄆ": 4066,
      "##ㄇ": 4067,
      "##ㄈ": 4068,
      "##茂": 4069,
      "##楠": 4070,
      "##鋍": 4071,
      "##ฎ": 4072,
      "##逸": 4073,
      "##璐": 4074,
      "##行": 4075,
      "##¾": 4076,
      "##こ": 4077,
      "##ެ": 4078,
      "##މ": 4079,
      "##ރ": 4080,
      "##ި": 4081,
      "##ކ": 4082,
      "##ާ": 4083,
      "##ィ": 4084,
      "##呀": 4085,
      "##ở": 4086,
      "##植": 4087,
      "##黮": 4088,
      "##ạ": 4089,
      "##务": 4090,
      "##疆": 4091,
      "##¤": 4092,
      "##ज": 4093,
      "##来": 4094,
      "##◆": 4095,
      "##ˌ": 4096,
      "##ɐ": 4097,
      "##ɾ": 4098,
      "##墩": 4099,
      "##ం": 4100,
      "##ధ": 4101,
      "##్": 4102,
      "##ర": 4103,
      "##舖": 4104,
      "##離": 4105,
      "##№": 4106,
      "##馬": 4107,
      "##県": 4108,
      "##界": 4109,
      "##逆": 4110,
      "##さ": 4111,
      "##見": 4112,
      "##ء": 4113,
      "##ญ": 4114,
      "##株": 4115,
      "##式": 4116,
      "##社": 4117,
      "##×": 4118,
      "##": 4119,
      "##": 4120,
      "##单": 4121,
      "##Ь": 4122,
      "##ḥ": 4123,
      "##ּ": 4124,
      "##ֹ": 4125,
      "##ִ": 4126,
      "##ئ": 4127,
      "##开": 4128,
      "##始": 4129,
      "##计": 4130,
      "##发": 4131,
      "##您": 4132,
      "##网": 4133,
      "##站": 4134,
      "##ṣ": 4135,
      "##į": 4136,
      "##寤": 4137,
      "##駅": 4138,
      "##ナ": 4139,
      "##テ": 4140,
      "##ッ": 4141,
      "##ド": 4142,
      "##见": 4143,
      "##鰄": 4144,
      "##本": 4145,
      "##屈": 4146,
      "##専": 4147,
      "##門": 4148,
      "##で": 4149,
      "##ổ": 4150,
      "##ŭ": 4151,
      "##メ": 4152,
      "##リ": 4153,
      "##カ": 4154,
      "##合": 4155,
      "##衆": 4156,
      "##何": 4157,
      "##分": 4158,
      "##Ë": 4159,
      "##़": 4160,
      "##ो": 4161,
      "##形": 4162,
      "##浄": 4163,
      "##瑠": 4164,
      "##璃": 4165,
      "##Й": 4166,
      "##Ń": 4167,
      "##胡": 4168,
      "##根": 4169,
      "##知": 4170,
      "##인": 4171,
      "##사": 4172,
      "##ợ": 4173,
      "##汇": 4174,
      "##通": 4175,
      "##讯": 4176,
      "##込": 4177,
      "##ɹ": 4178,
      "##黃": 4179,
      "##王": 4180,
      "##輪": 4181,
      "##法": 4182,
      "##¡": 4183,
      "##Б": 4184,
      "##届": 4185,
      "##歌": 4186,
      "##正": 4187,
      "##遭": 4188,
      "##质": 4189,
      "##疑": 4190,
      "##わ": 4191,
      "##寿": 4192,
      "##司": 4193,
      "##ু": 4194,
      "##ত": 4195,
      "##ষ": 4196,
      "##ট": 4197,
      "##私": 4198,
      "##言": 4199,
      "##识": 4200,
      "##别": 4201,
      "##舐": 4202,
      "##ֶ": 4203,
      "##ְ": 4204,
      "##查": 4205,
      "##普": 4206,
      "##及": 4207,
      "##率": 4208,
      "##谷": 4209,
      "##倍": 4210,
      "##羲": 4211,
      "##ấ": 4212,
      "##黄": 4213,
      "##德": 4214,
      "##隆": 4215,
      "##•": 4216,
      "##括": 4217,
      "##内": 4218,
      "##敦": 4219,
      "##召": 4220,
      "##记": 4221,
      "##ボ": 4222,
      "##南": 4223,
      "##茜": 4224,
      "##钱": 4225,
      "##管": 4226,
      "##得": 4227,
      "##郷": 4228,
      "##八": 4229,
      "##ֿ": 4230,
      "##佗": 4231,
      "##惯": 4232,
      "##浦": 4233,
      "##刚": 4234,
      "##布": 4235,
      "##ۇ": 4236,
      "##∙": 4237,
      "##Λ": 4238,
      "##。": 4239,
      "##ὶ": 4240,
      "##加": 4241,
      "##油": 4242,
      "##左": 4243,
      "##": 4244,
      "##菱": 4245,
      "##痴": 4246,
      "##态": 4247,
      "##亨": 4248,
      "##গ": 4249,
      "##ম": 4250,
      "##ሜ": 4251,
      "##ሪ": 4252,
      "##ካ": 4253,
      "##父": 4254,
      "##ề": 4255,
      "##泥": 4256,
      "##‟": 4257,
      "##干": 4258,
      "##臈": 4259,
      "##利": 4260,
      "##阜": 4261,
      "##庫": 4262,
      "##蒋": 4263,
      "##ח": 4264,
      "##ば": 4265,
      "##列": 4266,
      "##Ъ": 4267,
      "##ັ": 4268,
      "##ດ": 4269,
      "##ຖ": 4270,
      "##ຸ": 4271,
      "##ມ": 4272,
      "##ງ": 4273,
      "##ຄ": 4274,
      "##ນ": 4275,
      "##ơ": 4276,
      "##ắ": 4277,
      "##哈": 4278,
      "##娃": 4279,
      "##仪": 4280,
      "##ʻ": 4281,
      "##饮": 4282,
      "##义": 4283,
      "##´": 4284,
      "##ฐ": 4285,
      "##ฒ": 4286,
      "##์": 4287,
      "##门": 4288,
      "##宿": 4289,
      "##Ę": 4290,
      "##遲": 4291,
      "##ظ": 4292,
      "##舫": 4293,
      "##习": 4294,
      "##音": 4295,
      "##ủ": 4296,
      "##비": 4297,
      "##엠": 4298,
      "##층": 4299,
      "##대": 4300,
      "##법": 4301,
      "##당": 4302,
      "##飞": 4303,
      "##舁": 4304,
      "##委": 4305,
      "##员": 4306,
      "##ؤ": 4307,
      "##셀": 4308,
      "##로": 4309,
      "##나": 4310,
      "##қ": 4311,
      "##സ": 4312,
      "##応": 4313,
      "##ภ": 4314,
      "##閣": 4315,
      "##¯": 4316,
      "##陈": 4317,
      "##铭": 4318,
      "##政": 4319,
      "##呼": 4320,
      "##鰊": 4321,
      "##ũ": 4322,
      "##￼": 4323,
      "##ϊ": 4324,
      "##ぢ": 4325,
      "##黒": 4326,
      "##限": 4327,
      "##勢": 4328,
      "##엘": 4329,
      "##州": 4330,
      "##打": 4331,
      "##座": 4332,
      "##貌": 4333,
      "##实": 4334,
      "##跟": 4335,
      "##我": 4336,
      "##篇": 4337,
      "##章": 4338,
      "##减": 4339,
      "##肥": 4340,
      "##也": 4341,
      "##点": 4342,
      "##关": 4343,
      "##联": 4344,
      "##検": 4345,
      "##試": 4346,
      "##験": 4347,
      "##̇": 4348,
      "##ご": 4349,
      "##覧": 4350,
      "##表": 4351,
      "##页": 4352,
      "##程": 4353,
      "##码": 4354,
      "##头": 4355,
      "##属": 4356,
      "##于": 4357,
      "##ẽ": 4358,
      "##ġ": 4359,
      "##ロ": 4360,
      "##サ": 4361,
      "##グ": 4362,
      "##娄": 4363,
      "##ʃ": 4364,
      "##ờ": 4365,
      "##һ": 4366,
      "##ṭ": 4367,
      "##語": 4368,
      "##机": 4369,
      "##博": 4370,
      "##胞": 4371,
      "##看": 4372,
      "##需": 4373,
      "##要": 4374,
      "##挑": 4375,
      "##间": 4376,
      "##ジ": 4377,
      "##ミ": 4378,
      "##<": 4379,
      "##區": 4380,
      "##검": 4381,
      "##국": 4382,
      "##ệ": 4383,
      "##ې": 4384,
      "##希": 4385,
      "##堂": 4386,
      "##": 4387,
      "##盖": 4388,
      "##ር": 4389,
      "##ት": 4390,
      "##ራ": 4391,
      "##积": 4392,
      "##更": 4393,
      "##巧": 4394,
      "##班": 4395,
      "##›": 4396,
      "##道": 4397,
      "##陵": 4398,
      "##統": 4399,
      "##度": 4400,
      "##途": 4401,
      "##龙": 4402,
      "##送": 4403,
      "##商": 4404,
      "##臘": 4405,
      "##Х": 4406,
      "##ં": 4407,
      "##ય": 4408,
      "##ુ": 4409,
      "##ક": 4410,
      "##્": 4411,
      "##ત": 4412,
      "##Η": 4413,
      "##Κ": 4414,
      "##‎": 4415,
      "##麩": 4416,
      "##羅": 4417,
      "##書": 4418,
      "##ហ": 4419,
      "##រ": 4420,
      "##ដ": 4421,
      "##្": 4422,
      "##ឋ": 4423,
      "##۷": 4424,
      "##曌": 4425,
      "##（": 4426,
      "##か": 4427,
      "##ӳ": 4428,
      "##≥": 4429,
      "##Ε": 4430,
      "##З": 4431,
      "##黨": 4432,
      "##╚": 4433,
      "##ﾟ": 4434,
      "##梅": 4435,
      "##ĉ": 4436,
      "##창": 4437,
      "##호": 4438,
      "##伎": 4439,
      "##町": 4440,
      "##ɫ": 4441,
      "##๑": 4442,
      "##ʌ": 4443,
      "##ĸ": 4444,
      "##苑": 4445,
      "##背": 4446,
      "##آ": 4447,
      "##": 4448,
      "##台": 4449,
      "##宗": 4450,
      "##卓": 4451,
      "##钧": 4452,
      "##澄": 4453,
      "##傷": 4454,
      "##淫": 4455,
      "##二": 4456,
      "##件": 4457,
      "##特": 4458,
      "##殊": 4459,
      "##就": 4460,
      "##常": 4461,
      "##尘": 4462,
      "##螨": 4463,
      "##鈍": 4464,
      "##涩": 4465,
      "##짝": 4466,
      "##님": 4467,
      "##ộ": 4468,
      "##ṅ": 4469,
      "##訓": 4470,
      "##ồ": 4471,
      "##蔚": 4472,
      "##ॉ": 4473,
      "##ὺ": 4474,
      "##翁": 4475,
      "##金": 4476,
      "##ባ": 4477,
      "##ዋ": 4478,
      "##臓": 4479,
      "##ℓ": 4480,
      "##ฮ": 4481,
      "##莞": 4482,
      "##إ": 4483,
      "##房": 4484,
      "##폐": 4485,
      "##셜": 4486,
      "##援": 4487,
      "##交": 4488,
      "##経": 4489,
      "##参": 4490,
      "##Ы": 4491,
      "##ά": 4492,
      "##英": 4493,
      "##个": 4494,
      "##著": 4495,
      "##眩": 4496,
      "##律": 4497,
      "##光": 4498,
      "##オ": 4499,
      "##デ": 4500,
      "##군": 4501,
      "##Ж": 4502,
      "##高": 4503,
      "##品": 4504,
      "##ウ": 4505,
      "##货": 4506,
      "##۸": 4507,
      "##ሊ": 4508,
      "##ን": 4509,
      "##荣": 4510,
      "##۲": 4511,
      "##ễ": 4512,
      "##̯": 4513,
      "##ˁ": 4514,
      "##果": 4515,
      "##谢": 4516,
      "##溢": 4517,
      "##庆": 4518,
      "##火": 4519,
      "##ገ": 4520,
      "##ስ": 4521,
      "##続": 4522,
      "##已": 4523,
      "##经": 4524,
      "##现": 4525,
      "##ʼ": 4526,
      "##标": 4527,
      "##ậ": 4528,
      "##裂": 4529,
      "##♫": 4530,
      "##̤": 4531,
      "##ซ": 4532,
      "##೦": 4533,
      "##೧": 4534,
      "##嘛": 4535,
      "##起": 4536,
      "##跳": 4537,
      "##け": 4538,
      "##佰": 4539,
      "##试": 4540,
      "##ـ": 4541,
      "##危": 4542,
      "##惧": 4543,
      "##孴": 4544,
      "##고": 4545,
      "##素": 4546,
      "##贞": 4547,
      "##囧": 4548,
      "##ٌ": 4549,
      "##パ": 4550,
      "##親": 4551,
      "##フ": 4552,
      "##ェ": 4553,
      "##よ": 4554,
      "##販": 4555,
      "##売": 4556,
      "##決": 4557,
      "##প": 4558,
      "##員": 4559,
      "##會": 4560,
      "##储": 4561,
      "##量": 4562,
      "##则": 4563,
      "##好": 4564,
      "##永": 4565,
      "##桃": 4566,
      "##ฉ": 4567,
      "##阪": 4568,
      "##鹤": 4569,
      "##楼": 4570,
      "##向": 4571,
      "##群": 4572,
      "##考": 4573,
      "##虑": 4574,
      "##些": 4575,
      "##重": 4576,
      "##索": 4577,
      "##举": 4578,
      "##牌": 4579,
      "##灯": 4580,
      "##ɲ": 4581,
      "##伝": 4582,
      "##鲁": 4583,
      "##今": 4584,
      "##Ω": 4585,
      "##구": 4586,
      "##記": 4587,
      "##ュ": 4588,
      "##ケ": 4589,
      "##花": 4590,
      "##標": 4591,
      "##版": 4592,
      "##近": 4593,
      "##‍": 4594,
      "##宜": 4595,
      "##話": 4596,
      "##舩": 4597,
      "##宣": 4598,
      "##ይ": 4599,
      "##ሕ": 4600,
      "##吴": 4601,
      "##ツ": 4602,
      "##ぃ": 4603,
      "##芝": 4604,
      "##盛": 4605,
      "##藤": 4606,
      "##鰃": 4607,
      "##÷": 4608,
      "##呆": 4609,
      "##ỏ": 4610,
      "##昇": 4611,
      "##架": 4612,
      "##刑": 4613,
      "##乎": 4614,
      "##夹": 4615,
      "##Ź": 4616,
      "##ז": 4617,
      "##ΐ": 4618,
      "##ể": 4619,
      "##必": 4620,
      "##일": 4621,
      "##ბ": 4622,
      "##Ĺ": 4623,
      "##氏": 4624,
      "##ょ": 4625,
      "##ẵ": 4626,
      "##割": 4627,
      "##那": 4628,
      "##ث": 4629,
      "##ĵ": 4630,
      "##ђ": 4631,
      "##野": 4632,
      "##武": 4633,
      "##俊": 4634,
      "##ῑ": 4635,
      "##澤": 4636,
      "##─": 4637,
      "##阳": 4638,
      "##圆": 4639,
      "##甸": 4640,
      "##Ʀ": 4641,
      "##ƛ": 4642,
      "##Ƙ": 4643,
      "##鰈": 4644,
      "##伸": 4645,
      "##": 4646,
      "##刘": 4647,
      "##颖": 4648,
      "##ા": 4649,
      "##જ": 4650,
      "##挂": 4651,
      "##却": 4652,
      "##验": 4653,
      "##爪": 4654,
      "##娥": 4655,
      "##೯": 4656,
      "##೮": 4657,
      "##೩": 4658,
      "##티": 4659,
      "##드": 4660,
      "##ử": 4661,
      "##ब": 4662,
      "##答": 4663,
      "##由": 4664,
      "##迅": 4665,
      "##ｲ": 4666,
      "##，": 4667,
      "##キ": 4668,
      "##≪": 4669,
      "##Θ": 4670,
      "##Σ": 4671,
      "##队": 4672,
      "##ු": 4673,
      "##ව": 4674,
      "##ර": 4675,
      "##美": 4676,
      "##諸": 4677,
      "##ட": 4678,
      "##்": 4679,
      "##ு": 4680,
      "##当": 4681,
      "##良": 4682,
      "##照": 4683,
      "##元": 4684,
      "##報": 4685,
      "##集": 4686,
      "##倉": 4687,
      "##ฆ": 4688,
      "##氣": 4689,
      "##飼": 4690,
      "##回": 4691,
      "##乏": 4692,
      "##术": 4693,
      "##終": 4694,
      "##摂": 4695,
      "##媛": 4696,
      "##垣": 4697,
      "##航": 4698,
      "##어": 4699,
      "##承": 4700,
      "##恩": 4701,
      "##⇒": 4702,
      "##杏": 4703,
      "##里": 4704,
      "##地": 4705,
      "##址": 4706,
      "##煮": 4707,
      "##诘": 4708,
      "##ḿ": 4709,
      "##瞳": 4710,
      "##پ": 4711,
      "##潟": 4712,
      "##あ": 4713,
      "##舣": 4714,
      "##體": 4715,
      "##Ш": 4716,
      "##お": 4717,
      "##笠": 4718,
      "##振": 4719,
      "##沙": 4720,
      "##洲": 4721,
      "##优": 4722,
      "##讨": 4723,
      "##茶": 4724,
      "##성": 4725,
      "##자": 4726,
      "##健": 4727,
      "##秋": 4728,
      "##←": 4729,
      "##ホ": 4730,
      "##や": 4731,
      "##留": 4732,
      "##ნ": 4733,
      "##ხ": 4734,
      "##戸": 4735,
      "##井": 4736,
      "##莉": 4737,
      "##宝": 4738,
      "##玉": 4739,
      "##ً": 4740,
      "##游": 4741,
      "##鰀": 4742,
      "##幡": 4743,
      "##溪": 4744,
      "##筆": 4745,
      "##談": 4746,
      "##ল": 4747,
      "##余": 4748,
      "##晏": 4749,
      "##什": 4750,
      "##": 4751,
      "##儀": 4752,
      "##覺": 4753,
      "##齡": 4754,
      "##翻": 4755,
      "##译": 4756,
      "##与": 4757,
      "##成": 4758,
      "##飛": 4759,
      "##び": 4760,
      "##活": 4761,
      "##省": 4762,
      "##级": 4763,
      "##耀": 4764,
      "##施": 4765,
      "##放": 4766,
      "##庚": 4767,
      "##溜": 4768,
      "##˝": 4769,
      "##ゥ": 4770,
      "##ゲ": 4771,
      "##য": 4772,
      "##়": 4773,
      "##ো": 4774,
      "##হ": 4775,
      "##广": 4776,
      "##母": 4777,
      "##乱": 4778,
      "##费": 4779,
      "##˚": 4780,
      "##遪": 4781,
      "##！": 4782,
      "##開": 4783,
      "##設": 4784,
      "##ペ": 4785,
      "##资": 4786,
      "##料": 4787,
      "##苏": 4788,
      "##夷": 4789,
      "##熨": 4790,
      "##纸": 4791,
      "##握": 4792,
      "##住": 4793,
      "##コ": 4794,
      "##勧": 4795,
      "##": 4796,
      "##梨": 4797,
      "##酒": 4798,
      "##鱼": 4799,
      "##͡": 4800,
      "##匠": 4801,
      "##회": 4802,
      "##ृ": 4803,
      "##写": 4804,
      "##館": 4805,
      "##逃": 4806,
      "##念": 4807,
      "##資": 4808,
      "##叫": 4809,
      "##Ť": 4810,
      "##ұ": 4811,
      "##着": 4812,
      "##伯": 4813,
      "##泉": 4814,
      "##狭": 4815,
      "##爆": 4816,
      "##ム": 4817,
      "##透": 4818,
      "##销": 4819,
      "##该": 4820,
      "##达": 4821,
      "##ῆ": 4822,
      "##ṉ": 4823,
      "##ⲉ": 4824,
      "##ⲣ": 4825,
      "##ⲟ": 4826,
      "##ⲩ": 4827,
      "##四": 4828,
      "##壳": 4829,
      "##采": 4830,
      "##磨": 4831,
      "##砂": 4832,
      "##Ю": 4833,
      "##ద": 4834,
      "##ె": 4835,
      "##ౕ": 4836,
      "##శ": 4837,
      "##配": 4838,
      "##咆": 4839,
      "##哮": 4840,
      "##鋞": 4841,
      "##歩": 4842,
      "##靳": 4843,
      "##晨": 4844,
      "##全": 4845,
      "##将": 4846,
      "##毁": 4847,
      "##掉": 4848,
      "##整": 4849,
      "##互": 4850,
      "##හ": 4851,
      "##课": 4852,
      "##郑": 4853,
      "##汉": 4854,
      "##徽": 4855,
      "##镜": 4856,
      "##担": 4857,
      "##繁": 4858,
      "##۱": 4859,
      "##시": 4860,
      "##⁴": 4861,
      "##ˡ": 4862,
      "##ং": 4863,
      "##忻": 4864,
      "##防": 4865,
      "##园": 4866,
      "##味": 4867,
      "##役": 4868,
      "##足": 4869,
      "##李": 4870,
      "##锋": 4871,
      "##舍": 4872,
      "##血": 4873,
      "##痛": 4874,
      "##步": 4875,
      "##臣": 4876,
      "##从": 4877,
      "##Χ": 4878,
      "##局": 4879,
      "##ぎ": 4880,
      "##گ": 4881,
      "##↑": 4882,
      "##천": 4883,
      "##ʲ": 4884,
      "##ச": 4885,
      "##ன": 4886,
      "##ை": 4887,
      "##灣": 4888,
      "##摇": 4889,
      "##尾": 4890,
      "##भ": 4891,
      "##ʰ": 4892,
      "##遊": 4893,
      "##魔": 4894,
      "##闻": 4895,
      "##ứ": 4896,
      "##框": 4897,
      "##थ": 4898,
      "##亞": 4899,
      "##際": 4900,
      "##實": 4901,
      "##维": 4902,
      "##吾": 4903,
      "##尔": 4904,
      "##视": 4905,
      "##曝": 4906,
      "##竞": 4907,
      "##ጨ": 4908,
      "##ሻ": 4909,
      "##场": 4910,
      "##巻": 4911,
      "##ṳ": 4912,
      "##̆": 4913,
      "##Э": 4914,
      "##녀": 4915,
      "##經": 4916,
      "##鋒": 4917,
      "##奘": 4918,
      "##ड": 4919,
      "##ग": 4920,
      "##ढ": 4921,
      "##择": 4922,
      "##望": 4923,
      "##板": 4924,
      "##渲": 4925,
      "##染": 4926,
      "##错": 4927,
      "##Ẳ": 4928,
      "##૦": 4929,
      "##૧": 4930,
      "##献": 4931,
      "##ク": 4932,
      "##ブ": 4933,
      "##۶": 4934,
      "##ぶ": 4935,
      "##焼": 4936,
      "##雅": 4937,
      "##弁": 4938,
      "##玲": 4939,
      "##鹈": 4940,
      "##呑": 4941,
      "##づ": 4942,
      "##凶": 4943,
      "##雪": 4944,
      "##Φ": 4945,
      "##萧": 4946,
      "##洒": 4947,
      "##徒": 4948,
      "##然": 4949,
      "##彻": 4950,
      "##鴻": 4951,
      "##【": 4952,
      "##止": 4953,
      "##ฏ": 4954,
      "##䟩": 4955,
      "##ೆ": 4956,
      "##ೖ": 4957,
      "##¶": 4958,
      "##ׁ": 4959,
      "##ֲ": 4960,
      "##ǝ": 4961,
      "##拼": 4962,
      "##云": 4963,
      "##ฝ": 4964,
      "##ハ": 4965,
      "##Ҳ": 4966,
      "##ҳ": 4967,
      "##ỳ": 4968,
      "##淹": 4969,
      "##ህ": 4970,
      "##证": 4971,
      "##屿": 4972,
      "##颐": 4973,
      "##搅": 4974,
      "##收": 4975,
      "##听": 4976,
      "##况": 4977,
      "##賢": 4978,
      "##ฟ": 4979,
      "##製": 4980,
      "##际": 4981,
      "##右": 4982,
      "##腕": 4983,
      "##ŵ": 4984,
      "##贤": 4985,
      "##唸": 4986,
      "##ர": 4987,
      "##ம": 4988,
      "##神": 4989,
      "##崩": 4990,
      "##": 4991,
      "##说": 4992,
      "##创": 4993,
      "##脱": 4994,
      "##罪": 4995,
      "##広": 4996,
      "##迷": 4997,
      "##९": 4998,
      "##५": 4999,
      "##ҡ": 5000,
      "##革": 5001,
      "##化": 5002,
      "##柱": 5003,
      "##気": 5004,
      "##街": 5005,
      "##ټ": 5006,
      "##慢": 5007,
      "##ね": 5008,
      "##": 5009,
      "##ọ": 5010,
      "##・": 5011,
      "##庁": 5012,
      "##畿": 5013,
      "##控": 5014,
      "##键": 5015,
      "##转": 5016,
      "##移": 5017,
      "##耳": 5018,
      "##˜": 5019,
      "##咬": 5020,
      "##紧": 5021,
      "##第": 5022,
      "##超": 5023,
      "##적": 5024,
      "##嵥": 5025,
      "##勿": 5026,
      "##臂": 5027,
      "##挡": 5028,
      "##羽": 5029,
      "##奸": 5030,
      "##恢": 5031,
      "##復": 5032,
      "##器": 5033,
      "##告": 5034,
      "##華": 5035,
      "##ự": 5036,
      "##久": 5037,
      "##殿": 5038,
      "##Ꮊ": 5039,
      "##Ꭲ": 5040,
      "##雲": 5041,
      "##۞": 5042,
      "##۩": 5043,
      "##ዓ": 5044,
      "##ፈ": 5045,
      "##ጽ": 5046,
      "##材": 5047,
      "##崔": 5048,
      "##へ": 5049,
      "##Δ": 5050,
      "##別": 5051,
      "##鋑": 5052,
      "##મ": 5053,
      "##ે": 5054,
      "##ર": 5055,
      "##િ": 5056,
      "##ۆ": 5057,
      "##独": 5058,
      "##育": 5059,
      "##故": 5060,
      "##": 5061,
      "##寸": 5062,
      "##๊": 5063,
      "##想": 5064,
      "##赶": 5065,
      "##静": 5066,
      "##怡": 5067,
      "##豆": 5068,
      "##ঙ": 5069,
      "##►": 5070,
      "##势": 5071,
      "##米": 5072,
      "##御": 5073,
      "##河": 5074,
      "##ἰ": 5075,
      "##坐": 5076,
      "##Щ": 5077,
      "##黷": 5078,
      "##徳": 5079,
      "##シ": 5080,
      "##체": 5081,
      "##스": 5082,
      "##터": 5083,
      "##翠": 5084,
      "##衣": 5085,
      "##킨": 5086,
      "##۳": 5087,
      "##ど": 5088,
      "##ヌ": 5089,
      "##踌": 5090,
      "##躇": 5091,
      "##ๆ": 5092,
      "##": 5093,
      "##前": 5094,
      "##跋": 5095,
      "##扈": 5096,
      "##夕": 5097,
      "##节": 5098,
      "##样": 5099,
      "##观": 5100,
      "##很": 5101,
      "##赞": 5102,
      "##同": 5103,
      "##綺": 5104,
      "##麗": 5105,
      "##埔": 5106,
      "##除": 5107,
      "##依": 5108,
      "##话": 5109,
      "##辑": 5110,
      "##丸": 5111,
      "##映": 5112,
      "##೬": 5113,
      "##೫": 5114,
      "##ோ": 5115,
      "##ய": 5116,
      "##ப": 5117,
      "##த": 5118,
      "##ூ": 5119,
      "##ञ": 5120,
      "##君": 5121,
      "##儉": 5122,
      "##礱": 5123,
      "##ክ": 5124,
      "##ቶ": 5125,
      "##በ": 5126,
      "##风": 5127,
      "##℃": 5128,
      "##号": 5129,
      "##圏": 5130,
      "##": 5131,
      "##蔓": 5132,
      "##友": 5133,
      "##ῦ": 5134,
      "##抜": 5135,
      "##找": 5136,
      "##널": 5137,
      "##辛": 5138,
      "##票": 5139,
      "##否": 5140,
      "##ই": 5141,
      "##ል": 5142,
      "##̶": 5143,
      "##鲞": 5144,
      "##数": 5145,
      "##幹": 5146,
      "##線": 5147,
      "##瞎": 5148,
      "##搞": 5149,
      "##შ": 5150,
      "##則": 5151,
      "##ネ": 5152,
      "##莹": 5153,
      "##√": 5154,
      "##ڠ": 5155,
      "##ڬ": 5156,
      "##߮": 5157,
      "##千": 5158,
      "##長": 5159,
      "##周": 5160,
      "##末": 5161,
      "##○": 5162,
      "##ಶ": 5163,
      "##್": 5164,
      "##ವ": 5165,
      "##ರ": 5166,
      "##ಯ": 5167,
      "##ಾ": 5168,
      "##鰎": 5169,
      "##ḫ": 5170,
      "##Ч": 5171,
      "##锈": 5172,
      "##钢": 5173,
      "##団": 5174,
      "##帯": 5175,
      "##電": 5176,
      "##ˇ": 5177,
      "##지": 5178,
      "##막": 5179,
      "##으": 5180,
      "##砕": 5181,
      "##じ": 5182,
      "##ੰ": 5183,
      "##ਡ": 5184,
      "##ੀ": 5185,
      "##ਗ": 5186,
      "##ੜ": 5187,
      "##੍": 5188,
      "##ਹ": 5189,
      "##顗": 5190,
      "##證": 5191,
      "##便": 5192,
      "##ữ": 5193,
      "##치": 5194,
      "##ぷ": 5195,
      "##秉": 5196,
      "##官": 5197,
      "##娱": 5198,
      "##≤": 5199,
      "##吹": 5200,
      "##屄": 5201,
      "##ৰ": 5202,
      "##ฤ": 5203,
      "##竹": 5204,
      "##凉": 5205,
      "##申": 5206,
      "##轮": 5207,
      "##册": 5208,
      "##純": 5209,
      "##ዲ": 5210,
      "##ു": 5211,
      "##en": 5212,
      "##er": 5213,
      "##ch": 5214,
      "##ie": 5215,
      "##in": 5216,
      "##nd": 5217,
      "##ei": 5218,
      "##st": 5219,
      "##ng": 5220,
      "die": 5221,
      "##ich": 5222,
      "##on": 5223,
      "##es": 5224,
      "##ung": 5225,
      "der": 5226,
      "##sch": 5227,
      "##te": 5228,
      "und": 5229,
      "##ti": 5230,
      "ein": 5231,
      "##or": 5232,
      "##ll": 5233,
      "##ten": 5234,
      "##ar": 5235,
      "##as": 5236,
      "##an": 5237,
      "##it": 5238,
      "##ur": 5239,
      "##em": 5240,
      "##us": 5241,
      "##hr": 5242,
      "##al": 5243,
      "in": 5244,
      "##gen": 5245,
      "##ge": 5246,
      "##den": 5247,
      "##ir": 5248,
      "##ter": 5249,
      "##ra": 5250,
      "zu": 5251,
      "##lich": 5252,
      "##uf": 5253,
      "##el": 5254,
      "##ür": 5255,
      "##et": 5256,
      "##ein": 5257,
      "##at": 5258,
      "##mm": 5259,
      "das": 5260,
      "##eit": 5261,
      "##is": 5262,
      "den": 5263,
      "##ber": 5264,
      "##isch": 5265,
      "von": 5266,
      "##ier": 5267,
      "##ro": 5268,
      "##der": 5269,
      "##icht": 5270,
      "wir": 5271,
      "##tion": 5272,
      "##ben": 5273,
      "er": 5274,
      "un": 5275,
      "ist": 5276,
      "##eh": 5277,
      "##de": 5278,
      "auf": 5279,
      "für": 5280,
      "##ol": 5281,
      "##ach": 5282,
      "##sen": 5283,
      "##uch": 5284,
      "ver": 5285,
      "##am": 5286,
      "mit": 5287,
      "##ig": 5288,
      "##and": 5289,
      "##ck": 5290,
      "Ver": 5291,
      "##re": 5292,
      "des": 5293,
      "##se": 5294,
      "##nt": 5295,
      "be": 5296,
      "##ser": 5297,
      "##nder": 5298,
      "##ungen": 5299,
      "so": 5300,
      "ge": 5301,
      "##ut": 5302,
      "##nen": 5303,
      "Die": 5304,
      "##ft": 5305,
      "##eich": 5306,
      "##si": 5307,
      "eine": 5308,
      "##ent": 5309,
      "##ell": 5310,
      "im": 5311,
      "Sie": 5312,
      "nicht": 5313,
      "wer": 5314,
      "##il": 5315,
      "In": 5316,
      "##ind": 5317,
      "##op": 5318,
      "##sp": 5319,
      "##ischen": 5320,
      "sich": 5321,
      "##un": 5322,
      "##omm": 5323,
      "##kt": 5324,
      "##ff": 5325,
      "werden": 5326,
      "an": 5327,
      "##le": 5328,
      "##ah": 5329,
      "dem": 5330,
      "St": 5331,
      "##la": 5332,
      "dass": 5333,
      "##ls": 5334,
      "##om": 5335,
      "##um": 5336,
      "aus": 5337,
      "##ation": 5338,
      "Re": 5339,
      "##ahr": 5340,
      "es": 5341,
      "über": 5342,
      "##und": 5343,
      "##ri": 5344,
      "##ehr": 5345,
      "##eu": 5346,
      "auch": 5347,
      "##ien": 5348,
      "da": 5349,
      "##sten": 5350,
      "##urop": 5351,
      "##rä": 5352,
      "##etz": 5353,
      "Un": 5354,
      "Sch": 5355,
      "##be": 5356,
      "##ann": 5357,
      "um": 5358,
      "##men": 5359,
      "##och": 5360,
      "##ungs": 5361,
      "ha": 5362,
      "sind": 5363,
      "##lle": 5364,
      "##rei": 5365,
      "##scha": 5366,
      "##tig": 5367,
      "vor": 5368,
      "wird": 5369,
      "Be": 5370,
      "##esch": 5371,
      "##wei": 5372,
      "als": 5373,
      "sch": 5374,
      "Pro": 5375,
      "##hal": 5376,
      "##ön": 5377,
      "##ang": 5378,
      "An": 5379,
      "##ver": 5380,
      "bei": 5381,
      "wie": 5382,
      "Er": 5383,
      "Ein": 5384,
      "##iel": 5385,
      "##gt": 5386,
      "##lie": 5387,
      "##ort": 5388,
      "##ern": 5389,
      "##end": 5390,
      "oder": 5391,
      "ich": 5392,
      "hat": 5393,
      "sein": 5394,
      "##au": 5395,
      "##eil": 5396,
      "##schaft": 5397,
      "Aus": 5398,
      "Europ": 5399,
      "##ät": 5400,
      "##igen": 5401,
      "dies": 5402,
      "zur": 5403,
      "##urch": 5404,
      "##zu": 5405,
      "##he": 5406,
      "##tern": 5407,
      "Mit": 5408,
      "##aus": 5409,
      "##err": 5410,
      "sie": 5411,
      "Ber": 5412,
      "haben": 5413,
      "##tel": 5414,
      "##enn": 5415,
      "##ing": 5416,
      "##lichen": 5417,
      "##stell": 5418,
      "ent": 5419,
      "einer": 5420,
      "ihr": 5421,
      "##ische": 5422,
      "##sion": 5423,
      "kön": 5424,
      "Ar": 5425,
      "##tet": 5426,
      "##llen": 5427,
      "##00": 5428,
      "##ion": 5429,
      "##ab": 5430,
      "##imm": 5431,
      "Wir": 5432,
      "##for": 5433,
      "##rü": 5434,
      "unser": 5435,
      "##ot": 5436,
      "##ag": 5437,
      "##fü": 5438,
      "##ed": 5439,
      "##aten": 5440,
      "##ul": 5441,
      "##schen": 5442,
      "##ik": 5443,
      "##ick": 5444,
      "##cht": 5445,
      "##os": 5446,
      "##zen": 5447,
      "nach": 5448,
      "##eiten": 5449,
      "##heit": 5450,
      "unter": 5451,
      "einen": 5452,
      "Das": 5453,
      "##keit": 5454,
      "st": 5455,
      "##iti": 5456,
      "##är": 5457,
      "Fra": 5458,
      "Komm": 5459,
      "##elt": 5460,
      "##uss": 5461,
      "##eb": 5462,
      "Par": 5463,
      "durch": 5464,
      "##ste": 5465,
      "##ne": 5466,
      "##ad": 5467,
      "Ich": 5468,
      "##tiv": 5469,
      "##wer": 5470,
      "wur": 5471,
      "##ru": 5472,
      "können": 5473,
      "##liche": 5474,
      "##oh": 5475,
      "##anz": 5476,
      "##est": 5477,
      "Jahr": 5478,
      "dar": 5479,
      "Herr": 5480,
      "Kommis": 5481,
      "Vor": 5482,
      "##ommen": 5483,
      "Ab": 5484,
      "Sp": 5485,
      "mö": 5486,
      "##ant": 5487,
      "##all": 5488,
      "zum": 5489,
      "Ent": 5490,
      "##rie": 5491,
      "einem": 5492,
      "##ör": 5493,
      "##bl": 5494,
      "##ner": 5495,
      "##beit": 5496,
      "##ken": 5497,
      "##ger": 5498,
      "##ieren": 5499,
      "##uß": 5500,
      "##chte": 5501,
      "Europä": 5502,
      "##ehen": 5503,
      "##eine": 5504,
      "##pf": 5505,
      "##iert": 5506,
      "all": 5507,
      "uns": 5508,
      "##ktion": 5509,
      "kann": 5510,
      "##chen": 5511,
      "diese": 5512,
      "##üs": 5513,
      "nur": 5514,
      "##ist": 5515,
      "ander": 5516,
      "##bar": 5517,
      "Auf": 5518,
      "##oliti": 5519,
      "##glich": 5520,
      "Ihr": 5521,
      "Der": 5522,
      "ab": 5523,
      "##hen": 5524,
      "##ige": 5525,
      "##eiter": 5526,
      "Ho": 5527,
      "##ffen": 5528,
      "##ahl": 5529,
      "##eg": 5530,
      "##amm": 5531,
      "##lä": 5532,
      "##ok": 5533,
      "##räsi": 5534,
      "war": 5535,
      "##reich": 5536,
      "##räsiden": 5537,
      "##auf": 5538,
      "dieser": 5539,
      "Kommission": 5540,
      "Kon": 5541,
      "##ehmen": 5542,
      "##nis": 5543,
      "##sta": 5544,
      "Es": 5545,
      "neu": 5546,
      "##che": 5547,
      "##ähr": 5548,
      "Ma": 5549,
      "##bt": 5550,
      "##ierung": 5551,
      "ber": 5552,
      "##og": 5553,
      "##fen": 5554,
      "daß": 5555,
      "##ers": 5556,
      "##ück": 5557,
      "sp": 5558,
      "##rit": 5559,
      "noch": 5560,
      "##zi": 5561,
      "##üt": 5562,
      "ang": 5563,
      "##rund": 5564,
      "am": 5565,
      "##ech": 5566,
      "##ität": 5567,
      "##eren": 5568,
      "##räsident": 5569,
      "##alen": 5570,
      "##utz": 5571,
      "200": 5572,
      "wurde": 5573,
      "##emein": 5574,
      "##ic": 5575,
      "##rag": 5576,
      "##lam": 5577,
      "ste": 5578,
      "##ran": 5579,
      "mehr": 5580,
      "soll": 5581,
      "##lei": 5582,
      "##oll": 5583,
      "aber": 5584,
      "##glie": 5585,
      "Um": 5586,
      "##ess": 5587,
      "##wick": 5588,
      "##du": 5589,
      "müs": 5590,
      "##ug": 5591,
      "wenn": 5592,
      "##tigen": 5593,
      "de": 5594,
      "##änd": 5595,
      "Ge": 5596,
      "##stimm": 5597,
      "##form": 5598,
      "##ert": 5599,
      "##leich": 5600,
      "##ndern": 5601,
      "sehr": 5602,
      "##assen": 5603,
      "müssen": 5604,
      "man": 5605,
      "##ze": 5606,
      "##pp": 5607,
      "zw": 5608,
      "Mitglie": 5609,
      "##äh": 5610,
      "##nah": 5611,
      "##lament": 5612,
      "##ün": 5613,
      "Präsident": 5614,
      "##ek": 5615,
      "##ord": 5616,
      "##ill": 5617,
      "sow": 5618,
      "##etzt": 5619,
      "##ak": 5620,
      "bis": 5621,
      "bes": 5622,
      "##ma": 5623,
      "##fahr": 5624,
      "##lung": 5625,
      "##ammen": 5626,
      "Parlament": 5627,
      "##ges": 5628,
      "##iz": 5629,
      "##ob": 5630,
      "##führ": 5631,
      "ges": 5632,
      "##ale": 5633,
      "##me": 5634,
      "##lin": 5635,
      "##roß": 5636,
      "##usammen": 5637,
      "hin": 5638,
      "##tschaft": 5639,
      "diesem": 5640,
      "Reg": 5641,
      "Men": 5642,
      "Union": 5643,
      "gegen": 5644,
      "weiter": 5645,
      "Ko": 5646,
      "##ichtig": 5647,
      "##geb": 5648,
      "was": 5649,
      "##atz": 5650,
      "Arbeit": 5651,
      "gen": 5652,
      "##sam": 5653,
      "##wend": 5654,
      "##ass": 5655,
      "Europäischen": 5656,
      "Unter": 5657,
      "##hä": 5658,
      "##fol": 5659,
      "##lt": 5660,
      "##acht": 5661,
      "##ekt": 5662,
      "##mit": 5663,
      "alle": 5664,
      "gew": 5665,
      "So": 5666,
      "##hnen": 5667,
      "##age": 5668,
      "##eben": 5669,
      "##unden": 5670,
      "##schie": 5671,
      "##ht": 5672,
      "19": 5673,
      "##ließ": 5674,
      "bet": 5675,
      "##ust": 5676,
      "Mitglied": 5677,
      "##gra": 5678,
      "##yst": 5679,
      "kon": 5680,
      "##her": 5681,
      "##vor": 5682,
      "##omp": 5683,
      "##alt": 5684,
      "möchte": 5685,
      "##ationen": 5686,
      "##land": 5687,
      "##sche": 5688,
      "re": 5689,
      "Ges": 5690,
      "kl": 5691,
      "##halt": 5692,
      "Zeit": 5693,
      "##ystem": 5694,
      "Rat": 5695,
      "##art": 5696,
      "##rin": 5697,
      "Hotel": 5698,
      "Über": 5699,
      "##onder": 5700,
      "##ühr": 5701,
      "##..": 5702,
      "##halten": 5703,
      "hier": 5704,
      "eines": 5705,
      "##ap": 5706,
      "##kommen": 5707,
      "For": 5708,
      "##ren": 5709,
      "##uropä": 5710,
      "EU": 5711,
      "##ibt": 5712,
      "je": 5713,
      "geh": 5714,
      "vom": 5715,
      "##tige": 5716,
      "##stüt": 5717,
      "##nung": 5718,
      "##mal": 5719,
      "groß": 5720,
      "##ast": 5721,
      "Frau": 5722,
      "##ha": 5723,
      "##zie": 5724,
      "ihre": 5725,
      "##über": 5726,
      "##fer": 5727,
      "Menschen": 5728,
      "##inden": 5729,
      "lie": 5730,
      "her": 5731,
      "sowie": 5732,
      "Bericht": 5733,
      "##äch": 5734,
      "##gel": 5735,
      "europä": 5736,
      "##bes": 5737,
      "##igkeit": 5738,
      "zwei": 5739,
      "dieses": 5740,
      "##egen": 5741,
      "##icher": 5742,
      "et": 5743,
      "Mar": 5744,
      "##ub": 5745,
      "##olitik": 5746,
      "jed": 5747,
      "Land": 5748,
      "Bei": 5749,
      "##iv": 5750,
      "gibt": 5751,
      "##erk": 5752,
      "wo": 5753,
      "##ho": 5754,
      "gel": 5755,
      "##qu": 5756,
      "Vert": 5757,
      "best": 5758,
      "##halb": 5759,
      "##pt": 5760,
      "##mmer": 5761,
      "##blem": 5762,
      "Zu": 5763,
      "##ohl": 5764,
      "##ften": 5765,
      "##ild": 5766,
      "##iele": 5767,
      "Entwick": 5768,
      "viel": 5769,
      "Im": 5770,
      "##staaten": 5771,
      "##ati": 5772,
      "zwischen": 5773,
      "##wir": 5774,
      "Ch": 5775,
      "##inder": 5776,
      "Nach": 5777,
      "##öglich": 5778,
      "##ständ": 5779,
      "##ragen": 5780,
      "##forder": 5781,
      "##ank": 5782,
      "Grund": 5783,
      "##di": 5784,
      "muss": 5785,
      "beg": 5786,
      "##bst": 5787,
      "##amit": 5788,
      "##andel": 5789,
      "##los": 5790,
      "##ere": 5791,
      "unsere": 5792,
      "pro": 5793,
      "##ss": 5794,
      "De": 5795,
      "keine": 5796,
      "Or": 5797,
      "##war": 5798,
      "bereit": 5799,
      "##kl": 5800,
      "##gramm": 5801,
      "##ate": 5802,
      "##id": 5803,
      "bie": 5804,
      "##teil": 5805,
      "##pl": 5806,
      "##agen": 5807,
      "Ihnen": 5808,
      "ausge": 5809,
      "##eschä": 5810,
      "##sicht": 5811,
      "Recht": 5812,
      "##eute": 5813,
      "##rauch": 5814,
      "##ativ": 5815,
      "##achen": 5816,
      "Haus": 5817,
      "Lä": 5818,
      "Mitgliedstaaten": 5819,
      "##ett": 5820,
      "##bei": 5821,
      "##setz": 5822,
      "##stand": 5823,
      "the": 5824,
      "##dem": 5825,
      "anderen": 5826,
      "Produ": 5827,
      "mein": 5828,
      "##ellen": 5829,
      "##pro": 5830,
      "##zeu": 5831,
      "Europa": 5832,
      "Ang": 5833,
      "##stat": 5834,
      "Zusammen": 5835,
      "##our": 5836,
      "##ternehmen": 5837,
      "##rö": 5838,
      "##gang": 5839,
      "##itu": 5840,
      "##entr": 5841,
      "bef": 5842,
      "##eist": 5843,
      "##geben": 5844,
      "Fl": 5845,
      "##keiten": 5846,
      "Problem": 5847,
      "##issen": 5848,
      "Stra": 5849,
      "##ischer": 5850,
      "...": 5851,
      "immer": 5852,
      "##weise": 5853,
      "Ste": 5854,
      "##ußer": 5855,
      "##fe": 5856,
      "Wenn": 5857,
      "##ler": 5858,
      "##inanz": 5859,
      "##schließ": 5860,
      "##stellen": 5861,
      "Welt": 5862,
      "##unkt": 5863,
      "##adt": 5864,
      "##lo": 5865,
      "##iger": 5866,
      "##elbst": 5867,
      "##immer": 5868,
      "##len": 5869,
      "dann": 5870,
      "##gung": 5871,
      "##kte": 5872,
      "##eid": 5873,
      "Vorsch": 5874,
      "Bereich": 5875,
      "Bür": 5876,
      "Inform": 5877,
      "##amen": 5878,
      "##mpf": 5879,
      "ins": 5880,
      "##li": 5881,
      "##chten": 5882,
      "##ov": 5883,
      "##gie": 5884,
      "diesen": 5885,
      "wieder": 5886,
      "##nahmen": 5887,
      "damit": 5888,
      "Verb": 5889,
      "##gend": 5890,
      "Her": 5891,
      "##ritt": 5892,
      "einz": 5893,
      "##enden": 5894,
      "##ffent": 5895,
      "gesch": 5896,
      "wurden": 5897,
      "ganz": 5898,
      "##hem": 5899,
      "##ce": 5900,
      "##ös": 5901,
      "##stellt": 5902,
      "##gesch": 5903,
      "eigen": 5904,
      "##ternation": 5905,
      "##ding": 5906,
      "##arbeit": 5907,
      "##od": 5908,
      "##zung": 5909,
      "Dies": 5910,
      "##icherheit": 5911,
      "##ard": 5912,
      "Diese": 5913,
      "##zeich": 5914,
      "##zei": 5915,
      "##innen": 5916,
      "##lag": 5917,
      "neue": 5918,
      "Geb": 5919,
      "##rechen": 5920,
      "wichtig": 5921,
      "Qu": 5922,
      "##hne": 5923,
      "kein": 5924,
      "##per": 5925,
      "##schieden": 5926,
      "20": 5927,
      "##ga": 5928,
      "unserer": 5929,
      "##ats": 5930,
      "##sel": 5931,
      "##gan": 5932,
      "##tur": 5933,
      "##wort": 5934,
      "Ihre": 5935,
      "##richt": 5936,
      "##ia": 5937,
      "##echn": 5938,
      "##zeit": 5939,
      "sondern": 5940,
      "habe": 5941,
      "Maß": 5942,
      "##olog": 5943,
      "##emeinsam": 5944,
      "##fahren": 5945,
      "politi": 5946,
      "##ßen": 5947,
      "seine": 5948,
      "##nde": 5949,
      "Sta": 5950,
      "jedoch": 5951,
      "Bet": 5952,
      "Europäische": 5953,
      "##erson": 5954,
      "##alis": 5955,
      "##satz": 5956,
      "##elle": 5957,
      "##äng": 5958,
      "##zt": 5959,
      "Al": 5960,
      "##tik": 5961,
      "etw": 5962,
      "##mittel": 5963,
      "ger": 5964,
      "wür": 5965,
      "##luss": 5966,
      "wen": 5967,
      "heute": 5968,
      "##ow": 5969,
      "##sk": 5970,
      "##ruck": 5971,
      "Inst": 5972,
      "##fach": 5973,
      "ob": 5974,
      "Unternehmen": 5975,
      "##erung": 5976,
      "and": 5977,
      "##lagen": 5978,
      "Ro": 5979,
      "gleich": 5980,
      "##min": 5981,
      "Was": 5982,
      "##mer": 5983,
      "##lau": 5984,
      "##röß": 5985,
      "##für": 5986,
      "##such": 5987,
      "##essen": 5988,
      "Kolle": 5989,
      "##erv": 5990,
      "##tionen": 5991,
      "##att": 5992,
      "Änder": 5993,
      "##uten": 5994,
      "Teil": 5995,
      "Pl": 5996,
      "Wie": 5997,
      "bereits": 5998,
      "##ont": 5999,
      "##kehr": 6000,
      "##hn": 6001,
      "##ster": 6002,
      "##okra": 6003,
      "Entwicklung": 6004,
      "##licher": 6005,
      "##reichen": 6006,
      "ex": 6007,
      "mich": 6008,
      "##eite": 6009,
      "##dern": 6010,
      "Daten": 6011,
      "wel": 6012,
      "sollte": 6013,
      "##fall": 6014,
      "##lage": 6015,
      "##alität": 6016,
      "unterstüt": 6017,
      "ho": 6018,
      "führ": 6019,
      "##ktiv": 6020,
      "ihrer": 6021,
      "##ke": 6022,
      "ohne": 6023,
      "Frage": 6024,
      "europäischen": 6025,
      "selbst": 6026,
      "##nisse": 6027,
      "neuen": 6028,
      "Leben": 6029,
      "Jahren": 6030,
      "verb": 6031,
      "Richt": 6032,
      "##mus": 6033,
      "##eld": 6034,
      "andere": 6035,
      "##stellung": 6036,
      "Inter": 6037,
      "##net": 6038,
      "##indet": 6039,
      "lang": 6040,
      ").": 6041,
      "denn": 6042,
      "internation": 6043,
      "Sicherheit": 6044,
      "Te": 6045,
      "Min": 6046,
      "##ierte": 6047,
      "fest": 6048,
      "##orden": 6049,
      "Se": 6050,
      "##io": 6051,
      "Kont": 6052,
      "Bürger": 6053,
      "System": 6054,
      "denen": 6055,
      "sollten": 6056,
      "##alten": 6057,
      "Programm": 6058,
      "Li": 6059,
      "gemeinsam": 6060,
      "for": 6061,
      "finden": 6062,
      "Bes": 6063,
      "möglich": 6064,
      "##oren": 6065,
      "##atur": 6066,
      "##inn": 6067,
      "verschieden": 6068,
      "Des": 6069,
      "##nte": 6070,
      "##rupp": 6071,
      "##eht": 6072,
      "##nahme": 6073,
      "##cken": 6074,
      "Tag": 6075,
      "##ährend": 6076,
      "##ondere": 6077,
      "Stadt": 6078,
      "Hin": 6079,
      "##ktur": 6080,
      "sol": 6081,
      "##esse": 6082,
      "##zahl": 6083,
      "Wirtschaft": 6084,
      "##osi": 6085,
      "bietet": 6086,
      "##ichte": 6087,
      "##arb": 6088,
      "##ffe": 6089,
      "Mittel": 6090,
      "##unft": 6091,
      "dazu": 6092,
      "Part": 6093,
      "##ünf": 6094,
      "##unktion": 6095,
      "##isk": 6096,
      "##tieren": 6097,
      "##ierten": 6098,
      "entsp": 6099,
      "liegt": 6100,
      "of": 6101,
      "weil": 6102,
      "machen": 6103,
      "allen": 6104,
      "Möglich": 6105,
      "aller": 6106,
      "##im": 6107,
      "Person": 6108,
      "viele": 6109,
      "##ienst": 6110,
      "##ahmen": 6111,
      "ind": 6112,
      "bek": 6113,
      "##ade": 6114,
      "##äß": 6115,
      "gem": 6116,
      "US": 6117,
      "##welt": 6118,
      "letz": 6119,
      "##hand": 6120,
      "Web": 6121,
      "##we": 6122,
      "##eiden": 6123,
      "seiner": 6124,
      "##under": 6125,
      "##ial": 6126,
      "##sar": 6127,
      "##eise": 6128,
      "darauf": 6129,
      "##igung": 6130,
      "Stand": 6131,
      "Ex": 6132,
      "##wert": 6133,
      "##ite": 6134,
      "jetzt": 6135,
      "ben": 6136,
      "Gen": 6137,
      "beh": 6138,
      "ar": 6139,
      "größ": 6140,
      "##aher": 6141,
      "##mar": 6142,
      "##wor": 6143,
      "##umen": 6144,
      "sicher": 6145,
      "##hin": 6146,
      "##iss": 6147,
      "##aupt": 6148,
      "Them": 6149,
      "Rahmen": 6150,
      "Ger": 6151,
      "##reis": 6152,
      "einge": 6153,
      "),": 6154,
      "Maßnahmen": 6155,
      "##ice": 6156,
      "##ganis": 6157,
      "##eicht": 6158,
      "voll": 6159,
      "gef": 6160,
      "geb": 6161,
      "##llt": 6162,
      "##grund": 6163,
      "##äre": 6164,
      "Mo": 6165,
      "Lage": 6166,
      "##ringen": 6167,
      "geht": 6168,
      "Informationen": 6169,
      "##ultur": 6170,
      "wirk": 6171,
      "##atür": 6172,
      "##ud": 6173,
      "Finanz": 6174,
      "##zug": 6175,
      "##ay": 6176,
      "Ant": 6177,
      "einfach": 6178,
      "schon": 6179,
      "Verein": 6180,
      "Mein": 6181,
      "Gemein": 6182,
      "##oten": 6183,
      "eben": 6184,
      "##zial": 6185,
      "##ionen": 6186,
      "##fl": 6187,
      "Zimmer": 6188,
      "##annt": 6189,
      "##lossen": 6190,
      "##reten": 6191,
      "gut": 6192,
      "dafür": 6193,
      "einige": 6194,
      "##leist": 6195,
      "##kunft": 6196,
      "to": 6197,
      "Am": 6198,
      "##ungsant": 6199,
      "##spiel": 6200,
      "Aussch": 6201,
      "##tiert": 6202,
      "Kl": 6203,
      "Herrn": 6204,
      "##esen": 6205,
      "##häng": 6206,
      "##iet": 6207,
      "Fall": 6208,
      "##eln": 6209,
      "##lichkeit": 6210,
      "##nehmen": 6211,
      "##ine": 6212,
      "##affen": 6213,
      "10": 6214,
      "##ute": 6215,
      "zurück": 6216,
      "##otwend": 6217,
      "##folg": 6218,
      "Ind": 6219,
      "##hält": 6220,
      "Kommissar": 6221,
      "##heiten": 6222,
      "##bau": 6223,
      "##ris": 6224,
      "##tischen": 6225,
      "Bl": 6226,
      "allem": 6227,
      "##itz": 6228,
      "ihren": 6229,
      "Eur": 6230,
      "##öl": 6231,
      "Ziel": 6232,
      "##üh": 6233,
      "##ks": 6234,
      "Jahre": 6235,
      "##ven": 6236,
      "Gew": 6237,
      "Man": 6238,
      "##ement": 6239,
      "##äten": 6240,
      "##besser": 6241,
      "##klär": 6242,
      "deut": 6243,
      "199": 6244,
      "Da": 6245,
      "##ichten": 6246,
      "mo": 6247,
      "nun": 6248,
      "meine": 6249,
      "zusammen": 6250,
      "dir": 6251,
      "##ac": 6252,
      "##scheid": 6253,
      "Für": 6254,
      "bin": 6255,
      "##än": 6256,
      "##besondere": 6257,
      "mir": 6258,
      "##uer": 6259,
      "besonder": 6260,
      "besch": 6261,
      "##punkt": 6262,
      "##lungen": 6263,
      "##äl": 6264,
      "Eine": 6265,
      "Aut": 6266,
      "##ts": 6267,
      "##aler": 6268,
      "##so": 6269,
      "wollen": 6270,
      "##führt": 6271,
      "unseren": 6272,
      "Ha": 6273,
      "##antwort": 6274,
      "Ener": 6275,
      "##aren": 6276,
      "verfü": 6277,
      "##ond": 6278,
      "##reu": 6279,
      "##ruktur": 6280,
      "Mon": 6281,
      "würde": 6282,
      "Gesch": 6283,
      "##ogen": 6284,
      "##setzung": 6285,
      "##fte": 6286,
      "Proj": 6287,
      "##eiß": 6288,
      "##spro": 6289,
      "##aum": 6290,
      "seit": 6291,
      "##recht": 6292,
      "Parlaments": 6293,
      "##fang": 6294,
      "Bild": 6295,
      "##riv": 6296,
      "##ichter": 6297,
      "ko": 6298,
      "##yp": 6299,
      "während": 6300,
      "Länder": 6301,
      "stehen": 6302,
      "##licht": 6303,
      "Lös": 6304,
      "etwas": 6305,
      "sagen": 6306,
      "##rem": 6307,
      "wissen": 6308,
      "Vorschlag": 6309,
      "Bar": 6310,
      "##anken": 6311,
      "##legen": 6312,
      "Und": 6313,
      "##stimmung": 6314,
      "Me": 6315,
      "Rechts": 6316,
      "Form": 6317,
      "##sto": 6318,
      "##itte": 6319,
      "doch": 6320,
      "##lang": 6321,
      "##ordnung": 6322,
      "##ekte": 6323,
      "Geschä": 6324,
      "All": 6325,
      "Dem": 6326,
      "##ark": 6327,
      "##werb": 6328,
      "Fraktion": 6329,
      "Kinder": 6330,
      "Unterstüt": 6331,
      "ange": 6332,
      "##gew": 6333,
      "##ende": 6334,
      "or": 6335,
      "##deut": 6336,
      "##linie": 6337,
      "##zw": 6338,
      "bestimm": 6339,
      "##äm": 6340,
      "##ahn": 6341,
      "drei": 6342,
      "##arten": 6343,
      "insbesondere": 6344,
      "Durch": 6345,
      "erm": 6346,
      "Bo": 6347,
      "ersten": 6348,
      "fol": 6349,
      "##rache": 6350,
      "Politik": 6351,
      "verw": 6352,
      "nie": 6353,
      "##ations": 6354,
      "Unser": 6355,
      "##änder": 6356,
      "##schaften": 6357,
      "Komp": 6358,
      "schn": 6359,
      "##fft": 6360,
      "kommen": 6361,
      "erhalten": 6362,
      "Haushalt": 6363,
      "Namen": 6364,
      "komm": 6365,
      "##zü": 6366,
      "##atürlich": 6367,
      "##fra": 6368,
      "Frei": 6369,
      "##rank": 6370,
      "##räge": 6371,
      "außer": 6372,
      "##assung": 6373,
      "##amil": 6374,
      "##timm": 6375,
      "Beh": 6376,
      "get": 6377,
      "öffent": 6378,
      "einmal": 6379,
      "Verfü": 6380,
      "##ätig": 6381,
      "##agt": 6382,
      "##ele": 6383,
      "Markt": 6384,
      "##fri": 6385,
      "##lungs": 6386,
      "Mill": 6387,
      "Ur": 6388,
      "waren": 6389,
      "Umwelt": 6390,
      "##utzen": 6391,
      "##ätz": 6392,
      "Wer": 6393,
      "The": 6394,
      "bew": 6395,
      "##ilfe": 6396,
      "Arbeits": 6397,
      "wirtschaft": 6398,
      "Unterstützung": 6399,
      "##raum": 6400,
      "##falls": 6401,
      "##ellschaft": 6402,
      "##itäten": 6403,
      "beim": 6404,
      "##ment": 6405,
      "Zug": 6406,
      "spe": 6407,
      "Mus": 6408,
      "##nten": 6409,
      "##ftig": 6410,
      "Zusammenarbeit": 6411,
      "nation": 6412,
      "also": 6413,
      "letzten": 6414,
      "##einen": 6415,
      "al": 6416,
      "Art": 6417,
      "##vers": 6418,
      "##tels": 6419,
      "##ache": 6420,
      "##ron": 6421,
      "Energie": 6422,
      "Ländern": 6423,
      "bede": 6424,
      "Dienst": 6425,
      "vert": 6426,
      "Gemeinschaft": 6427,
      "lassen": 6428,
      "##gehen": 6429,
      "Vertrag": 6430,
      "##akt": 6431,
      "##ander": 6432,
      "Lin": 6433,
      "##ustrie": 6434,
      "##örder": 6435,
      "Spiel": 6436,
      "##ründ": 6437,
      "Tran": 6438,
      "##ina": 6439,
      "Kunden": 6440,
      "geben": 6441,
      "##sw": 6442,
      "Änderungsant": 6443,
      "##altung": 6444,
      "Flug": 6445,
      "Intern": 6446,
      "##neh": 6447,
      "##hol": 6448,
      "##stehen": 6449,
      "la": 6450,
      "entwick": 6451,
      "Deut": 6452,
      "##ismus": 6453,
      "##ian": 6454,
      "##rak": 6455,
      "##etzen": 6456,
      "besser": 6457,
      "##orgen": 6458,
      "##uft": 6459,
      "##ald": 6460,
      "besteht": 6461,
      "##isten": 6462,
      "##führung": 6463,
      "##elegen": 6464,
      "Euro": 6465,
      "sehen": 6466,
      "##ohn": 6467,
      "##ou": 6468,
      "##uchen": 6469,
      "##rom": 6470,
      "Handel": 6471,
      "##ware": 6472,
      "##raft": 6473,
      "Haupt": 6474,
      "##xt": 6475,
      "##ign": 6476,
      "##andelt": 6477,
      "##gangen": 6478,
      "##wendung": 6479,
      "Regierung": 6480,
      "Als": 6481,
      "15": 6482,
      "##von": 6483,
      "##gabe": 6484,
      "Ad": 6485,
      "##ktu": 6486,
      "##kon": 6487,
      "##gar": 6488,
      "##ative": 6489,
      "##schied": 6490,
      "Besch": 6491,
      "Fragen": 6492,
      "steht": 6493,
      "##druck": 6494,
      "##iell": 6495,
      "tun": 6496,
      "seinen": 6497,
      "##urz": 6498,
      "##tisch": 6499,
      "##ichts": 6500,
      "##lex": 6501,
      "##zieh": 6502,
      "komp": 6503,
      "inter": 6504,
      "inner": 6505,
      "##spl": 6506,
      "##ies": 6507,
      "Beit": 6508,
      "statt": 6509,
      "##kten": 6510,
      "##mo": 6511,
      "##trag": 6512,
      "##sf": 6513,
      "##rech": 6514,
      "wäre": 6515,
      "##stra": 6516,
      "##ettbe": 6517,
      "Seite": 6518,
      "##ätze": 6519,
      "dabei": 6520,
      "Proz": 6521,
      "##ichterstat": 6522,
      "Kollegen": 6523,
      "wich": 6524,
      "recht": 6525,
      "##fiz": 6526,
      "##rieb": 6527,
      "Rei": 6528,
      "gest": 6529,
      "##gleich": 6530,
      "##wirtschaft": 6531,
      "hö": 6532,
      "Geschäft": 6533,
      "Schw": 6534,
      "##markt": 6535,
      "##eisten": 6536,
      "##ack": 6537,
      "##rän": 6538,
      "##igt": 6539,
      "gehör": 6540,
      "##rechte": 6541,
      "du": 6542,
      "##reund": 6543,
      "##bereich": 6544,
      "##reffen": 6545,
      "12": 6546,
      "Techn": 6547,
      "per": 6548,
      "##blick": 6549,
      "##eile": 6550,
      "erforder": 6551,
      "en": 6552,
      "muß": 6553,
      "##ruch": 6554,
      "##arte": 6555,
      "##fort": 6556,
      "worden": 6557,
      "Hand": 6558,
      "##ument": 6559,
      "erst": 6560,
      "##az": 6561,
      "Bedeut": 6562,
      "##undheit": 6563,
      "zei": 6564,
      "##eien": 6565,
      "##entrum": 6566,
      "Dar": 6567,
      "##racht": 6568,
      "bed": 6569,
      "##dingungen": 6570,
      "großen": 6571,
      "##are": 6572,
      "deren": 6573,
      "##ölk": 6574,
      "Entscheid": 6575,
      "große": 6576,
      "18": 6577,
      "welche": 6578,
      "##teg": 6579,
      "Eben": 6580,
      "Verfügung": 6581,
      "##obil": 6582,
      "sozi": 6583,
      "qu": 6584,
      "Bedeutung": 6585,
      "Ben": 6586,
      "Ergeb": 6587,
      "schw": 6588,
      "##ettbewerb": 6589,
      "##ib": 6590,
      "Schutz": 6591,
      "Internet": 6592,
      "##ielen": 6593,
      "##äd": 6594,
      "##ater": 6595,
      "Hier": 6596,
      "Möglichkeit": 6597,
      "blei": 6598,
      "jeder": 6599,
      "##ium": 6600,
      "##kauf": 6601,
      "##asse": 6602,
      "Staaten": 6603,
      "##tische": 6604,
      "##rüh": 6605,
      "##feren": 6606,
      "Vol": 6607,
      "Berichterstat": 6608,
      "Aber": 6609,
      "Co": 6610,
      "Lebens": 6611,
      "##ücks": 6612,
      "Auch": 6613,
      "##vest": 6614,
      "zahl": 6615,
      "offen": 6616,
      "##hang": 6617,
      "##res": 6618,
      "##ünst": 6619,
      "ung": 6620,
      "##amt": 6621,
      "201": 6622,
      "##hö": 6623,
      "Fol": 6624,
      "Fahr": 6625,
      "##abil": 6626,
      "Zahl": 6627,
      "Beg": 6628,
      "##bild": 6629,
      "notwend": 6630,
      "##gestellt": 6631,
      "##wirk": 6632,
      "hervor": 6633,
      "Ne": 6634,
      "##ierungs": 6635,
      "##politik": 6636,
      "At": 6637,
      "entfer": 6638,
      "##ER": 6639,
      "bieten": 6640,
      "##ve": 6641,
      "##laub": 6642,
      "Lie": 6643,
      "Thema": 6644,
      "Kam": 6645,
      "##schutz": 6646,
      "davon": 6647,
      "Bed": 6648,
      "##iels": 6649,
      "Zukunft": 6650,
      "##aut": 6651,
      "##rise": 6652,
      "00": 6653,
      "is": 6654,
      "darüber": 6655,
      "glau": 6656,
      "entsch": 6657,
      "##ämpf": 6658,
      "##rot": 6659,
      "Weg": 6660,
      "##ens": 6661,
      "##glichen": 6662,
      "Gä": 6663,
      "##ffiz": 6664,
      "Probleme": 6665,
      "##ielt": 6666,
      "gegenüber": 6667,
      "Frauen": 6668,
      "##zuf": 6669,
      "Serv": 6670,
      "##rift": 6671,
      "##urant": 6672,
      "stellen": 6673,
      "daher": 6674,
      "##unter": 6675,
      "schnell": 6676,
      "alles": 6677,
      "##tikel": 6678,
      "will": 6679,
      "##rat": 6680,
      "##rieden": 6681,
      "Gegen": 6682,
      "-,": 6683,
      "##gesetzt": 6684,
      "eigenen": 6685,
      "brauch": 6686,
      "Weise": 6687,
      "Famil": 6688,
      "##weg": 6689,
      "##zep": 6690,
      "##legt": 6691,
      "sowohl": 6692,
      "Seiten": 6693,
      "Beispiel": 6694,
      "politischen": 6695,
      "##ritte": 6696,
      "##anischen": 6697,
      "El": 6698,
      "##inde": 6699,
      "befindet": 6700,
      "weitere": 6701,
      "##igkeiten": 6702,
      "näch": 6703,
      "Qualität": 6704,
      "com": 6705,
      "teil": 6706,
      "Wahl": 6707,
      "könnte": 6708,
      "Ende": 6709,
      "Tra": 6710,
      "Gl": 6711,
      "Ausschuss": 6712,
      "Res": 6713,
      "##ide": 6714,
      "erreichen": 6715,
      "Ihrer": 6716,
      "##chn": 6717,
      "##neten": 6718,
      "Su": 6719,
      "natürlich": 6720,
      "##weiter": 6721,
      "meiner": 6722,
      "##hof": 6723,
      "hatte": 6724,
      "##gemein": 6725,
      "unterstützen": 6726,
      "wirklich": 6727,
      "##ufen": 6728,
      "Sol": 6729,
      "besonders": 6730,
      "Mehr": 6731,
      "##zeug": 6732,
      "##beh": 6733,
      "##geord": 6734,
      "##eschäftig": 6735,
      "##riften": 6736,
      "Forsch": 6737,
      "##ister": 6738,
      "Med": 6739,
      "aufge": 6740,
      "##anzen": 6741,
      "ihnen": 6742,
      "##ße": 6743,
      "Richtlinie": 6744,
      "gesam": 6745,
      "##ubl": 6746,
      "frei": 6747,
      "Grupp": 6748,
      "Situ": 6749,
      "Deb": 6750,
      "verschiedenen": 6751,
      "##schein": 6752,
      "##tem": 6753,
      "Berichterstatter": 6754,
      "##rieben": 6755,
      "Region": 6756,
      "Funktion": 6757,
      "##genden": 6758,
      "##werk": 6759,
      "##weisen": 6760,
      "##ider": 6761,
      "Po": 6762,
      "hoch": 6763,
      "innerhalb": 6764,
      "30": 6765,
      "Dat": 6766,
      "##rück": 6767,
      "entfernt": 6768,
      "dort": 6769,
      "Le": 6770,
      "Di": 6771,
      "##achten": 6772,
      "##hm": 6773,
      "##bung": 6774,
      "##ans": 6775,
      "##gaben": 6776,
      "vielen": 6777,
      "##org": 6778,
      "##tive": 6779,
      "##rifft": 6780,
      "Ob": 6781,
      "##weit": 6782,
      "Deutsch": 6783,
      "##reise": 6784,
      "weit": 6785,
      "Rolle": 6786,
      "Wasser": 6787,
      "umf": 6788,
      "genau": 6789,
      "##alien": 6790,
      "##ersön": 6791,
      "zwar": 6792,
      "aktu": 6793,
      "Au": 6794,
      "di": 6795,
      "Artikel": 6796,
      "##ichtet": 6797,
      "##indung": 6798,
      "##dings": 6799,
      "welt": 6800,
      "##vo": 6801,
      "##zeitig": 6802,
      "internationalen": 6803,
      "reg": 6804,
      "##igten": 6805,
      "##wäh": 6806,
      "Zwei": 6807,
      "##sst": 6808,
      "##staurant": 6809,
      "##üd": 6810,
      "Nutz": 6811,
      "##ip": 6812,
      "ern": 6813,
      "bel": 6814,
      "techn": 6815,
      "möchten": 6816,
      "##zip": 6817,
      "Fort": 6818,
      "Gra": 6819,
      "Disk": 6820,
      "USA": 6821,
      "Woch": 6822,
      "Verbrauch": 6823,
      "Ser": 6824,
      "Rück": 6825,
      "##ftware": 6826,
      "##sprache": 6827,
      "##stens": 6828,
      "##one": 6829,
      "##genommen": 6830,
      "führen": 6831,
      "Ihren": 6832,
      "##reifen": 6833,
      "##ive": 6834,
      "Wettbewerb": 6835,
      "##eim": 6836,
      "##aff": 6837,
      "dür": 6838,
      "hinaus": 6839,
      "##els": 6840,
      "Uhr": 6841,
      "direkt": 6842,
      "Sk": 6843,
      "wes": 6844,
      "##urg": 6845,
      "##rach": 6846,
      "##system": 6847,
      "##wär": 6848,
      "Demokra": 6849,
      "##äu": 6850,
      "##av": 6851,
      "##fern": 6852,
      "##ilt": 6853,
      "gewähr": 6854,
      "##man": 6855,
      "##spolitik": 6856,
      "##ucht": 6857,
      "##ären": 6858,
      "Terr": 6859,
      "Alle": 6860,
      "##cen": 6861,
      "##ärk": 6862,
      "Ap": 6863,
      "europäische": 6864,
      "##ktionen": 6865,
      "000": 6866,
      "klar": 6867,
      "##mäß": 6868,
      "##haus": 6869,
      "##tegie": 6870,
      "erste": 6871,
      "##sichtlich": 6872,
      "Ph": 6873,
      "##zimmer": 6874,
      "##eig": 6875,
      "##opp": 6876,
      "##ux": 6877,
      "Restaurant": 6878,
      "Gesundheit": 6879,
      "on": 6880,
      "verl": 6881,
      "##tie": 6882,
      "##merk": 6883,
      "eng": 6884,
      "##achst": 6885,
      "##ring": 6886,
      "erg": 6887,
      "Partner": 6888,
      "Meinung": 6889,
      "##prä": 6890,
      "##ph": 6891,
      "Regel": 6892,
      "##ase": 6893,
      "Kultur": 6894,
      "anges": 6895,
      "##uter": 6896,
      "##atte": 6897,
      "Abgeord": 6898,
      "einzel": 6899,
      "Fir": 6900,
      "##voll": 6901,
      "##wohl": 6902,
      "##cher": 6903,
      "Gleich": 6904,
      "Preis": 6905,
      "##nit": 6906,
      "Gesetz": 6907,
      "Fest": 6908,
      "Hilfe": 6909,
      "erreich": 6910,
      "Geschäfts": 6911,
      "##ußen": 6912,
      "Kli": 6913,
      "##rau": 6914,
      "##ologie": 6915,
      "begrü": 6916,
      "##onen": 6917,
      "Zusammenhang": 6918,
      "hät": 6919,
      "Personen": 6920,
      "##beiten": 6921,
      "##zogen": 6922,
      "##EN": 6923,
      "##ativen": 6924,
      "Lösung": 6925,
      "##agement": 6926,
      "Wor": 6927,
      "##erien": 6928,
      "##ax": 6929,
      "##urs": 6930,
      "Situation": 6931,
      "beiden": 6932,
      "##fassung": 6933,
      "gar": 6934,
      "unserem": 6935,
      "Kontro": 6936,
      "11": 6937,
      "##inen": 6938,
      "finanz": 6939,
      "kommt": 6940,
      "Neu": 6941,
      "##ym": 6942,
      "##asst": 6943,
      "gl": 6944,
      "Entschließ": 6945,
      "2009": 6946,
      "##riff": 6947,
      "##usätz": 6948,
      "Pol": 6949,
      "entsprechen": 6950,
      "##läge": 6951,
      "##ierungen": 6952,
      "##achstum": 6953,
      "##weis": 6954,
      "Hotels": 6955,
      "Verantwort": 6956,
      "##ome": 6957,
      "##alisierung": 6958,
      "bestehen": 6959,
      "##reit": 6960,
      "##als": 6961,
      "Natur": 6962,
      "##ieten": 6963,
      "Projekt": 6964,
      "##tier": 6965,
      "Dieses": 6966,
      "Groß": 6967,
      "##unde": 6968,
      "##bet": 6969,
      "tra": 6970,
      "##liches": 6971,
      "angen": 6972,
      "##ore": 6973,
      "##prü": 6974,
      "Kü": 6975,
      "##ächst": 6976,
      "##ferenz": 6977,
      "16": 6978,
      "Schluss": 6979,
      "Dienstleist": 6980,
      "empf": 6981,
      "##co": 6982,
      "Eng": 6983,
      "##baren": 6984,
      "Produkte": 6985,
      "##ity": 6986,
      "Sa": 6987,
      "Op": 6988,
      "##wand": 6989,
      "bringen": 6990,
      "bzw": 6991,
      "stellt": 6992,
      "##roffen": 6993,
      "##dition": 6994,
      "Met": 6995,
      "etwa": 6996,
      "verbesser": 6997,
      "Software": 6998,
      "Präsidentin": 6999,
      "Kosten": 7000,
      "]]": 7001,
      "Institu": 7002,
      "Ort": 7003,
      "Deutschland": 7004,
      "##vorsch": 7005,
      "Gäste": 7006,
      "##tigt": 7007,
      "daran": 7008,
      "##annten": 7009,
      "[[": 7010,
      "wahr": 7011,
      "weniger": 7012,
      "##reiben": 7013,
      "versuch": 7014,
      "##leg": 7015,
      "##forderungen": 7016,
      "##ct": 7017,
      "Deshalb": 7018,
      "gilt": 7019,
      "##ämlich": 7020,
      "##line": 7021,
      "##frage": 7022,
      "##aden": 7023,
      "jeden": 7024,
      "gesagt": 7025,
      "##reiche": 7026,
      "##uh": 7027,
      "##arbei": 7028,
      "nämlich": 7029,
      "##uld": 7030,
      "indem": 7031,
      "bitte": 7032,
      "kosten": 7033,
      "gute": 7034,
      "ja": 7035,
      "Gren": 7036,
      "Rates": 7037,
      "##abhäng": 7038,
      "Verfahren": 7039,
      "##hunder": 7040,
      "persön": 7041,
      "Mal": 7042,
      "##gegen": 7043,
      "##ress": 7044,
      "##ritten": 7045,
      "Erfahr": 7046,
      "Geld": 7047,
      "##setzen": 7048,
      "sogar": 7049,
      "Europas": 7050,
      "verm": 7051,
      "entscheiden": 7052,
      "Millionen": 7053,
      "##äuf": 7054,
      "##eits": 7055,
      "##iesen": 7056,
      "##sol": 7057,
      "##unst": 7058,
      "kurz": 7059,
      "##sver": 7060,
      "nehmen": 7061,
      "##lüs": 7062,
      "Zugang": 7063,
      "##ielleicht": 7064,
      "##wendet": 7065,
      "gerade": 7066,
      "##völk": 7067,
      "##ünd": 7068,
      "Fil": 7069,
      "##ote": 7070,
      "abge": 7071,
      "##osition": 7072,
      "Bus": 7073,
      "##rotz": 7074,
      "##angen": 7075,
      "Punkt": 7076,
      "erfolg": 7077,
      "##oc": 7078,
      "Tür": 7079,
      "##ächlich": 7080,
      "##erik": 7081,
      "##stimmt": 7082,
      "Weiter": 7083,
      "Invest": 7084,
      "##staat": 7085,
      "##anst": 7086,
      "unver": 7087,
      "##rachten": 7088,
      "aut": 7089,
      "erwar": 7090,
      "Eigen": 7091,
      "ak": 7092,
      "Entwicklungs": 7093,
      "##elegenheit": 7094,
      "##ember": 7095,
      "##icken": 7096,
      "stimm": 7097,
      "politische": 7098,
      "ihn": 7099,
      "le": 7100,
      "ir": 7101,
      "##rigen": 7102,
      "Früh": 7103,
      "ebenfalls": 7104,
      "Klima": 7105,
      "##ckt": 7106,
      "##auer": 7107,
      "Tats": 7108,
      "##ennen": 7109,
      "Organis": 7110,
      "##fä": 7111,
      "meisten": 7112,
      "se": 7113,
      "unterschied": 7114,
      "##onnen": 7115,
      "##zustellen": 7116,
      "Dank": 7117,
      "versch": 7118,
      "Verhand": 7119,
      "hoh": 7120,
      "Kap": 7121,
      "ihm": 7122,
      "##yn": 7123,
      "Unsere": 7124,
      "Ebene": 7125,
      "##arm": 7126,
      "gemacht": 7127,
      "Dieser": 7128,
      "##sprü": 7129,
      "Service": 7130,
      "seinem": 7131,
      "Bezug": 7132,
      "dessen": 7133,
      "Leist": 7134,
      "##arbeiten": 7135,
      "Transp": 7136,
      "25": 7137,
      "##onds": 7138,
      "##sionen": 7139,
      "17": 7140,
      "##talien": 7141,
      "##utet": 7142,
      "verbunden": 7143,
      "Angeb": 7144,
      "##istor": 7145,
      "Jahres": 7146,
      "darf": 7147,
      "gehen": 7148,
      "##stadt": 7149,
      "Aussprache": 7150,
      "##isches": 7151,
      "Verw": 7152,
      "##amp": 7153,
      "Du": 7154,
      "Verkehr": 7155,
      "Produktion": 7156,
      "unterstützt": 7157,
      "Initi": 7158,
      "Rechte": 7159,
      "Bel": 7160,
      "wesent": 7161,
      "verst": 7162,
      "##teilung": 7163,
      "14": 7164,
      "##ure": 7165,
      "Sozial": 7166,
      "##verkehr": 7167,
      "Vers": 7168,
      "Pal": 7169,
      "##euer": 7170,
      "##nete": 7171,
      "##ko": 7172,
      "moder": 7173,
      "nah": 7174,
      "##tlich": 7175,
      "##ette": 7176,
      "##ys": 7177,
      "Sti": 7178,
      "##gebung": 7179,
      "darin": 7180,
      "##itzen": 7181,
      "##prochen": 7182,
      "Abstimmung": 7183,
      "Gesellschaft": 7184,
      "##omati": 7185,
      "##burg": 7186,
      "##ka": 7187,
      "##eder": 7188,
      "##site": 7189,
      "Bau": 7190,
      "##fin": 7191,
      "##ühren": 7192,
      "öffentlichen": 7193,
      "erz": 7194,
      "glaube": 7195,
      "Nicht": 7196,
      "anzu": 7197,
      "Netz": 7198,
      "Mär": 7199,
      "Hö": 7200,
      "##leben": 7201,
      "##nov": 7202,
      "dürfen": 7203,
      "Abkommen": 7204,
      "einigen": 7205,
      "##ogra": 7206,
      "Benutz": 7207,
      "##ret": 7208,
      "nichts": 7209,
      "gern": 7210,
      "Pf": 7211,
      "Meer": 7212,
      "schaffen": 7213,
      "Industrie": 7214,
      "Jahrhunder": 7215,
      "Beschäftig": 7216,
      "##ator": 7217,
      "Buch": 7218,
      "##ähigkeit": 7219,
      "end": 7220,
      "Verbraucher": 7221,
      "sollen": 7222,
      "nationalen": 7223,
      "op": 7224,
      "Wissen": 7225,
      "##schließlich": 7226,
      "##nehmer": 7227,
      "##ähe": 7228,
      "San": 7229,
      "ihrem": 7230,
      "brauchen": 7231,
      "Tour": 7232,
      "##alte": 7233,
      "##iere": 7234,
      "keinen": 7235,
      "##bare": 7236,
      "##tis": 7237,
      "##unkte": 7238,
      "##ame": 7239,
      "##wahl": 7240,
      "posi": 7241,
      "handelt": 7242,
      "spezie": 7243,
      "##allen": 7244,
      "##iff": 7245,
      "100": 7246,
      "##ance": 7247,
      "Kolleg": 7248,
      "##lekt": 7249,
      "zusätz": 7250,
      "Gebiet": 7251,
      "We": 7252,
      "Strategie": 7253,
      "##gor": 7254,
      "##spiels": 7255,
      "bekannt": 7256,
      "Bas": 7257,
      "Dok": 7258,
      "##zus": 7259,
      "##iges": 7260,
      "##eint": 7261,
      "##immt": 7262,
      "Werk": 7263,
      "##ziehen": 7264,
      "Frank": 7265,
      "##möglich": 7266,
      "##eider": 7267,
      "##ain": 7268,
      "##utzt": 7269,
      "weiterhin": 7270,
      "##red": 7271,
      "at": 7272,
      "##äter": 7273,
      "##ott": 7274,
      "La": 7275,
      "2010": 7276,
      "schließ": 7277,
      "##ition": 7278,
      "betrifft": 7279,
      "##rieg": 7280,
      "Fortsch": 7281,
      "Website": 7282,
      "##durch": 7283,
      "aktiv": 7284,
      "schwer": 7285,
      "sei": 7286,
      "verh": 7287,
      "50": 7288,
      "Produkt": 7289,
      "##ari": 7290,
      "fr": 7291,
      "Raum": 7292,
      "13": 7293,
      "##ail": 7294,
      "umfassen": 7295,
      "leben": 7296,
      "Fischer": 7297,
      "heraus": 7298,
      "Bem": 7299,
      "##spruch": 7300,
      "Instr": 7301,
      "##ählen": 7302,
      "erklär": 7303,
      "wenig": 7304,
      "bedeutet": 7305,
      "##tim": 7306,
      "##zeichnet": 7307,
      "Gener": 7308,
      "priv": 7309,
      "##por": 7310,
      "deutlich": 7311,
      "##spielsweise": 7312,
      "benö": 7313,
      "##reg": 7314,
      "deshalb": 7315,
      "macht": 7316,
      "Mail": 7317,
      "Bezieh": 7318,
      "solche": 7319,
      "Absch": 7320,
      "##drück": 7321,
      "th": 7322,
      "##rop": 7323,
      "##ilit": 7324,
      "besten": 7325,
      "Besuch": 7326,
      "Standard": 7327,
      "Fot": 7328,
      "Is": 7329,
      "##gem": 7330,
      "##erst": 7331,
      "unbe": 7332,
      "aufgrund": 7333,
      "##AN": 7334,
      "##wach": 7335,
      "einger": 7336,
      "##mals": 7337,
      "##gelegt": 7338,
      "##liegen": 7339,
      "inst": 7340,
      "##bel": 7341,
      "##anten": 7342,
      "##ublik": 7343,
      "Ide": 7344,
      "würden": 7345,
      "Ergebnis": 7346,
      "##öff": 7347,
      "##züglich": 7348,
      "interess": 7349,
      "klein": 7350,
      "wichtige": 7351,
      "Menschenrechte": 7352,
      "kont": 7353,
      "Comp": 7354,
      "##scht": 7355,
      "##eten": 7356,
      "grund": 7357,
      "Bevölk": 7358,
      "oft": 7359,
      "##ichtigen": 7360,
      "Förder": 7361,
      "##eichen": 7362,
      "Ju": 7363,
      "Demokratie": 7364,
      "##zept": 7365,
      "Gol": 7366,
      "Feh": 7367,
      "##örden": 7368,
      "##zlich": 7369,
      "##rinzip": 7370,
      "Umsetzung": 7371,
      "Port": 7372,
      "##frei": 7373,
      "##sehen": 7374,
      "hel": 7375,
      "Sh": 7376,
      "##ital": 7377,
      "Verbesser": 7378,
      "Richtung": 7379,
      "Wert": 7380,
      "Ansicht": 7381,
      "##stück": 7382,
      "Von": 7383,
      "Asp": 7384,
      "2008": 7385,
      "##ool": 7386,
      "Insel": 7387,
      "##maß": 7388,
      "findet": 7389,
      "nächsten": 7390,
      "Anwendung": 7391,
      "Kunst": 7392,
      "lä": 7393,
      "##geschlagen": 7394,
      "Struktur": 7395,
      "Empf": 7396,
      "schön": 7397,
      "Park": 7398,
      "##reiten": 7399,
      "##ingen": 7400,
      "##cke": 7401,
      "Prozess": 7402,
      "Per": 7403,
      "##haltung": 7404,
      "nutzen": 7405,
      "Wachstum": 7406,
      "Kat": 7407,
      "##atten": 7408,
      "Herren": 7409,
      "Außen": 7410,
      "konk": 7411,
      "Nähe": 7412,
      "Haushalts": 7413,
      "##jen": 7414,
      "##vent": 7415,
      "##umente": 7416,
      "Musik": 7417,
      "prä": 7418,
      "##frist": 7419,
      "Rep": 7420,
      "##gäng": 7421,
      "##ürd": 7422,
      "fort": 7423,
      "Druck": 7424,
      "allerdings": 7425,
      "##ffizien": 7426,
      "Spe": 7427,
      "##bend": 7428,
      "##tragen": 7429,
      "Ziele": 7430,
      "Luft": 7431,
      "Bedingungen": 7432,
      "par": 7433,
      "Verantwortung": 7434,
      "Entscheidung": 7435,
      "##öffent": 7436,
      "beispielsweise": 7437,
      "vier": 7438,
      "##sor": 7439,
      "##richtung": 7440,
      "üb": 7441,
      "Fern": 7442,
      "Th": 7443,
      "ne": 7444,
      "##verständ": 7445,
      "##wirkungen": 7446,
      "zie": 7447,
      "gemeinsamen": 7448,
      "##ienen": 7449,
      "hoffe": 7450,
      "##standen": 7451,
      "Aktiv": 7452,
      "Einz": 7453,
      "Tages": 7454,
      "##lauf": 7455,
      "##emen": 7456,
      "gegeben": 7457,
      "##äum": 7458,
      "notwendig": 7459,
      "Viel": 7460,
      "##resse": 7461,
      "histor": 7462,
      "##merksam": 7463,
      "##zer": 7464,
      "##folgt": 7465,
      "jewei": 7466,
      "Uni": 7467,
      "Vorschläge": 7468,
      "##ock": 7469,
      "##platz": 7470,
      "##able": 7471,
      "glob": 7472,
      "##aussch": 7473,
      "demokra": 7474,
      "Selbst": 7475,
      "Erweiter": 7476,
      "inform": 7477,
      "vielleicht": 7478,
      "zentr": 7479,
      "Wieder": 7480,
      "Grundlage": 7481,
      "gehört": 7482,
      "sozialen": 7483,
      "Interesse": 7484,
      "ide": 7485,
      "kleinen": 7486,
      "Reihe": 7487,
      "Erfolg": 7488,
      "##linien": 7489,
      "prof": 7490,
      "arbeiten": 7491,
      "##iten": 7492,
      "##llig": 7493,
      "Einsatz": 7494,
      "##grupp": 7495,
      "##ül": 7496,
      "Den": 7497,
      "dank": 7498,
      "##handel": 7499,
      "##tra": 7500,
      "##produ": 7501,
      "Frieden": 7502,
      "verwendet": 7503,
      "Wort": 7504,
      "enthalten": 7505,
      "##pflicht": 7506,
      "Geschichte": 7507,
      "sprechen": 7508,
      "Pri": 7509,
      "Ihrem": 7510,
      "ermöglich": 7511,
      "##oom": 7512,
      "Text": 7513,
      "##ategor": 7514,
      "bevor": 7515,
      "##kämpf": 7516,
      "Schul": 7517,
      "Daher": 7518,
      "Möglichkeiten": 7519,
      "##arf": 7520,
      "Plan": 7521,
      "Version": 7522,
      "erreicht": 7523,
      "##ehm": 7524,
      "Br": 7525,
      "##llung": 7526,
      "##eitung": 7527,
      "Außer": 7528,
      "##assi": 7529,
      "Heraus": 7530,
      "con": 7531,
      "Institutionen": 7532,
      "halten": 7533,
      "Prä": 7534,
      "##struktur": 7535,
      "##omfort": 7536,
      "##arbeitung": 7537,
      "berücks": 7538,
      "##fik": 7539,
      "werde": 7540,
      "Kön": 7541,
      "Debatte": 7542,
      "##CH": 7543,
      "##scher": 7544,
      "Russ": 7545,
      "China": 7546,
      "Vort": 7547,
      "Erklär": 7548,
      "##ekten": 7549,
      "##gern": 7550,
      "##inst": 7551,
      "erfü": 7552,
      "##ätzen": 7553,
      "##ue": 7554,
      "24": 7555,
      "Damen": 7556,
      "Forschung": 7557,
      "Ta": 7558,
      "##stimmungen": 7559,
      "heiß": 7560,
      "##fung": 7561,
      "bleiben": 7562,
      "wohl": 7563,
      "Arbeitspl": 7564,
      "Bil": 7565,
      "Blick": 7566,
      "##ivi": 7567,
      "kompl": 7568,
      "übern": 7569,
      "##stellungen": 7570,
      "##bo": 7571,
      "##bildung": 7572,
      "Hoch": 7573,
      "##läss": 7574,
      "##abilität": 7575,
      "##lassen": 7576,
      "##aß": 7577,
      "##zeigt": 7578,
      "Gi": 7579,
      "##IN": 7580,
      "höch": 7581,
      "Grü": 7582,
      "Zentrum": 7583,
      "##ith": 7584,
      "verschiedene": 7585,
      "könnten": 7586,
      "Hinblick": 7587,
      "##arbeiter": 7588,
      "App": 7589,
      "##folgen": 7590,
      "vorgeschlagen": 7591,
      "##inge": 7592,
      "funktion": 7593,
      "##ali": 7594,
      "##sent": 7595,
      "UN": 7596,
      "Mitglieder": 7597,
      "Nation": 7598,
      "fünf": 7599,
      "schwier": 7600,
      "Dienstleistungen": 7601,
      "jen": 7602,
      "pl": 7603,
      "weiß": 7604,
      "##terial": 7605,
      "Inte": 7606,
      "Kraft": 7607,
      "##mitt": 7608,
      "Platz": 7609,
      "Minuten": 7610,
      "Pak": 7611,
      "gemeinsame": 7612,
      "Diskus": 7613,
      "New": 7614,
      "##cc": 7615,
      "##istischen": 7616,
      "2007": 7617,
      "##gesehen": 7618,
      "Ag": 7619,
      "km": 7620,
      "Sport": 7621,
      "verfügt": 7622,
      "weltweit": 7623,
      "tran": 7624,
      "##unik": 7625,
      "##elten": 7626,
      "Priv": 7627,
      "Änderungsantrag": 7628,
      "##annte": 7629,
      "Mode": 7630,
      "##sbe": 7631,
      "ermöglicht": 7632,
      "##statt": 7633,
      "schrift": 7634,
      "On": 7635,
      "##ungsver": 7636,
      "Auswirkungen": 7637,
      "##usst": 7638,
      "##alb": 7639,
      "\",": 7640,
      "##mitteln": 7641,
      "##ingt": 7642,
      "##ktor": 7643,
      "Regionen": 7644,
      "##stattet": 7645,
      "##treten": 7646,
      "##onst": 7647,
      "lange": 7648,
      "Doch": 7649,
      "##port": 7650,
      "tats": 7651,
      "vollständ": 7652,
      "gelten": 7653,
      "Abgeordneten": 7654,
      "##tiven": 7655,
      "##jenigen": 7656,
      "##ektor": 7657,
      "allgemein": 7658,
      "Dial": 7659,
      "hatten": 7660,
      "##ult": 7661,
      "Tatsache": 7662,
      "wirtschaftlichen": 7663,
      "zeigt": 7664,
      "Voraus": 7665,
      "Ausdruck": 7666,
      "Interessen": 7667,
      "Süd": 7668,
      "bisher": 7669,
      "Verhandlungen": 7670,
      "erforderlich": 7671,
      "Stimm": 7672,
      "##up": 7673,
      "führt": 7674,
      "bem": 7675,
      "Gar": 7676,
      "##ösen": 7677,
      "##ehn": 7678,
      "##rimin": 7679,
      "##nitt": 7680,
      "2000": 7681,
      "Familien": 7682,
      "Landes": 7683,
      "##verb": 7684,
      "Schritt": 7685,
      "gesamten": 7686,
      "##ino": 7687,
      "Wirk": 7688,
      "##echsel": 7689,
      "##ividu": 7690,
      "Seit": 7691,
      "danken": 7692,
      "##ly": 7693,
      "##eigen": 7694,
      "##ight": 7695,
      "Staats": 7696,
      "Währ": 7697,
      "##ünschen": 7698,
      "ebenso": 7699,
      "fast": 7700,
      "angeb": 7701,
      "Binnen": 7702,
      "gleichzeitig": 7703,
      "Wind": 7704,
      "Pla": 7705,
      "Liste": 7706,
      "darum": 7707,
      "einzelnen": 7708,
      "Nie": 7709,
      "Em": 7710,
      "ch": 7711,
      "später": 7712,
      "Kolleginnen": 7713,
      "##anische": 7714,
      "Prof": 7715,
      "##ören": 7716,
      "##öglichen": 7717,
      "##urf": 7718,
      "##dr": 7719,
      "##andeln": 7720,
      "entwickelt": 7721,
      "Führ": 7722,
      "##räsidenten": 7723,
      "##teilt": 7724,
      "Gruppe": 7725,
      "Steuer": 7726,
      "##met": 7727,
      "Türk": 7728,
      "stärk": 7729,
      "Fä": 7730,
      "Ris": 7731,
      "##ings": 7732,
      "denke": 7733,
      "angenommen": 7734,
      "Sicherheits": 7735,
      "##barkeit": 7736,
      "Einzel": 7737,
      "Antwort": 7738,
      "##ländern": 7739,
      "Änderungsanträge": 7740,
      "Außerdem": 7741,
      "##ost": 7742,
      "##laden": 7743,
      "##auber": 7744,
      "verein": 7745,
      "Univers": 7746,
      "Jun": 7747,
      "äußer": 7748,
      "einzu": 7749,
      "Chr": 7750,
      "disk": 7751,
      "Bereichen": 7752,
      "##ession": 7753,
      "##arität": 7754,
      "##tigkeit": 7755,
      "##kämpfung": 7756,
      "Bevölkerung": 7757,
      "##inter": 7758,
      "War": 7759,
      "internationale": 7760,
      "##TO": 7761,
      "jedem": 7762,
      "Wirtschafts": 7763,
      "Gründ": 7764,
      "erwäh": 7765,
      "Cl": 7766,
      "Webs": 7767,
      "Verordnung": 7768,
      "res": 7769,
      "hätte": 7770,
      "##arbeitet": 7771,
      "##ante": 7772,
      "Denn": 7773,
      "liegen": 7774,
      "befinden": 7775,
      "Vereinigten": 7776,
      "Con": 7777,
      "Beziehungen": 7778,
      "##inner": 7779,
      "Russland": 7780,
      "Betrieb": 7781,
      "Zum": 7782,
      "konnte": 7783,
      "Nord": 7784,
      "##ügen": 7785,
      "setzen": 7786,
      "##abel": 7787,
      "##itionen": 7788,
      "Internation": 7789,
      "##ief": 7790,
      "En": 7791,
      "##edig": 7792,
      "##iellen": 7793,
      "##ießen": 7794,
      "##zun": 7795,
      "ersch": 7796,
      "##air": 7797,
      "Erweiterung": 7798,
      "neben": 7799,
      "##ES": 7800,
      "Vide": 7801,
      "Ung": 7802,
      "erhö": 7803,
      "##nissen": 7804,
      "weiteren": 7805,
      "Verbindung": 7806,
      "bedeuten": 7807,
      "##steller": 7808,
      "##ches": 7809,
      "folgen": 7810,
      "##renz": 7811,
      "##own": 7812,
      "Dialog": 7813,
      "##programm": 7814,
      "Terror": 7815,
      "##folge": 7816,
      "heißt": 7817,
      "##aly": 7818,
      "Angebot": 7819,
      "21": 7820,
      "##omb": 7821,
      "##länder": 7822,
      "Fuß": 7823,
      "##ose": 7824,
      "eff": 7825,
      "Wohn": 7826,
      "Themen": 7827,
      "Risik": 7828,
      "Entschließung": 7829,
      "##zentrum": 7830,
      "Beitrag": 7831,
      "Förderung": 7832,
      "##ordin": 7833,
      "richtig": 7834,
      "Türkei": 7835,
      "##fon": 7836,
      "erhe": 7837,
      "hinter": 7838,
      "jede": 7839,
      "gra": 7840,
      "##fel": 7841,
      "##na": 7842,
      "Aufgabe": 7843,
      "Krise": 7844,
      "##alter": 7845,
      "Team": 7846,
      "helfen": 7847,
      "Char": 7848,
      "Verpflicht": 7849,
      "##ennt": 7850,
      "vers": 7851,
      "vö": 7852,
      "##etten": 7853,
      "Volk": 7854,
      "##rang": 7855,
      "##richtungen": 7856,
      "##affung": 7857,
      "Kampf": 7858,
      "Kontrolle": 7859,
      "Geh": 7860,
      "##ichtigt": 7861,
      "##formen": 7862,
      "##bahn": 7863,
      "Kop": 7864,
      "##tigung": 7865,
      "##sitz": 7866,
      "Stu": 7867,
      "gegenwär": 7868,
      "kleine": 7869,
      "##jahr": 7870,
      "stark": 7871,
      "##ober": 7872,
      "##tember": 7873,
      "beit": 7874,
      "angem": 7875,
      "##ommer": 7876,
      "Schlussel": 7877,
      "rund": 7878,
      "Reise": 7879,
      "rel": 7880,
      "zun": 7881,
      "wichtigen": 7882,
      "gestellt": 7883,
      "prak": 7884,
      "##halte": 7885,
      "##anzös": 7886,
      "meinen": 7887,
      "##ix": 7888,
      "unseres": 7889,
      "Ausschusses": 7890,
      "##ution": 7891,
      "##anien": 7892,
      "##enthalt": 7893,
      "##tens": 7894,
      "Bahn": 7895,
      "\".": 7896,
      "##haft": 7897,
      "erf": 7898,
      "Beitritt": 7899,
      "Arch": 7900,
      "auszu": 7901,
      "Mitarbeiter": 7902,
      "##flä": 7903,
      "star": 7904,
      "Bef": 7905,
      "Prot": 7906,
      "##öst": 7907,
      "##reter": 7908,
      "##denken": 7909,
      "##enten": 7910,
      "gestimmt": 7911,
      "Sub": 7912,
      "jedes": 7913,
      "##orn": 7914,
      "##echs": 7915,
      "##asser": 7916,
      "##zunehmen": 7917,
      "Staat": 7918,
      "stra": 7919,
      "gab": 7920,
      "ur": 7921,
      "Macht": 7922,
      "##worten": 7923,
      "##teilen": 7924,
      "##geh": 7925,
      "Behörden": 7926,
      "Rom": 7927,
      "wegen": 7928,
      "bleibt": 7929,
      "2006": 7930,
      "region": 7931,
      "##ums": 7932,
      "Kar": 7933,
      "Kir": 7934,
      "organis": 7935,
      "##zess": 7936,
      "bekommen": 7937,
      "Strand": 7938,
      "##riffen": 7939,
      "Nutzung": 7940,
      "##rachen": 7941,
      "bas": 7942,
      "##aufen": 7943,
      "automati": 7944,
      "freu": 7945,
      "##eller": 7946,
      "spezi": 7947,
      "##ilitär": 7948,
      "##fragen": 7949,
      "##ange": 7950,
      "##ca": 7951,
      "gro": 7952,
      "Frankreich": 7953,
      "##stoff": 7954,
      "##abon": 7955,
      "Information": 7956,
      "Nor": 7957,
      "nahe": 7958,
      "##hafen": 7959,
      "##pflich": 7960,
      "unabhäng": 7961,
      "##nehm": 7962,
      "Augen": 7963,
      "##zentr": 7964,
      "kultur": 7965,
      "Lösungen": 7966,
      "##vention": 7967,
      "verhinder": 7968,
      "Jan": 7969,
      "Hol": 7970,
      "Notwend": 7971,
      "##des": 7972,
      "Je": 7973,
      "##rägt": 7974,
      "##obei": 7975,
      "amerik": 7976,
      "verantwort": 7977,
      "Damit": 7978,
      "Liss": 7979,
      "Anst": 7980,
      "##terne": 7981,
      "##ennung": 7982,
      "Urlaub": 7983,
      "wunder": 7984,
      "lok": 7985,
      "##alle": 7986,
      "##gration": 7987,
      "##fahrt": 7988,
      "wichtigsten": 7989,
      "Ru": 7990,
      "Lissabon": 7991,
      "akzep": 7992,
      "Wochen": 7993,
      "gerne": 7994,
      "Konf": 7995,
      "##igar": 7996,
      "Forder": 7997,
      "Bitte": 7998,
      "abzu": 7999,
      "##zeugen": 8000,
      "##roll": 8001,
      "##erreich": 8002,
      "Stunden": 8003,
      "Veranst": 8004,
      "##jähr": 8005,
      "mehrere": 8006,
      "##geführt": 8007,
      "##ssystem": 8008,
      "##andlung": 8009,
      "hinsichtlich": 8010,
      "##fäl": 8011,
      "wobei": 8012,
      "Juni": 8013,
      "Amer": 8014,
      "gelegen": 8015,
      "Verbesserung": 8016,
      "##erweise": 8017,
      "##spräsident": 8018,
      "Design": 8019,
      "nachhal": 8020,
      "##nern": 8021,
      "Auswahl": 8022,
      "##tegr": 8023,
      "Gu": 8024,
      "Berlin": 8025,
      "##sy": 8026,
      "Gast": 8027,
      "##ehlen": 8028,
      "Nacht": 8029,
      "##ielle": 8030,
      "ganzen": 8031,
      "Ka": 8032,
      "Aktion": 8033,
      "ganze": 8034,
      "##gesamt": 8035,
      "Best": 8036,
      "Benutzer": 8037,
      "Binnenmarkt": 8038,
      "sag": 8039,
      "##ivil": 8040,
      "Zur": 8041,
      "enthält": 8042,
      "##rauen": 8043,
      "##ändert": 8044,
      "ermöglichen": 8045,
      "herr": 8046,
      "Kor": 8047,
      "bil": 8048,
      "##inne": 8049,
      "##ilf": 8050,
      "Tex": 8051,
      "Fischerei": 8052,
      "gere": 8053,
      "Air": 8054,
      "Vis": 8055,
      "Anfang": 8056,
      "Dir": 8057,
      "Such": 8058,
      "198": 8059,
      "geeig": 8060,
      "##feld": 8061,
      "##AR": 8062,
      "trotz": 8063,
      "Nov": 8064,
      "##rechend": 8065,
      "##schließend": 8066,
      "Schaffung": 8067,
      "vo": 8068,
      "Reform": 8069,
      "Verl": 8070,
      "Konferenz": 8071,
      "Fach": 8072,
      "Schwei": 8073,
      "zeigen": 8074,
      "derzeit": 8075,
      "för": 8076,
      "Gewalt": 8077,
      "Go": 8078,
      "Gelegenheit": 8079,
      "##isierung": 8080,
      "irgend": 8081,
      "##ringt": 8082,
      "Sal": 8083,
      "tradition": 8084,
      "##par": 8085,
      "Zust": 8086,
      "mus": 8087,
      "erlau": 8088,
      "##hl": 8089,
      "##bringen": 8090,
      "##wurf": 8091,
      "Zw": 8092,
      "##rar": 8093,
      "##künf": 8094,
      "##oper": 8095,
      "##berg": 8096,
      "Far": 8097,
      "überw": 8098,
      "##kennen": 8099,
      "Krieg": 8100,
      "Ferien": 8101,
      "##häre": 8102,
      "Aufenthalt": 8103,
      "garan": 8104,
      "##ausch": 8105,
      "Italien": 8106,
      "##tete": 8107,
      "##ützen": 8108,
      "völlig": 8109,
      "heu": 8110,
      "##deu": 8111,
      "Fre": 8112,
      "Integration": 8113,
      "##akter": 8114,
      "Ergebnisse": 8115,
      "##th": 8116,
      "Liefer": 8117,
      "with": 8118,
      "Ak": 8119,
      "Verwendung": 8120,
      "spielen": 8121,
      "vergangen": 8122,
      "ruh": 8123,
      "##vorschriften": 8124,
      "##ager": 8125,
      "##wertungen": 8126,
      "##stelle": 8127,
      "Tage": 8128,
      "##mut": 8129,
      "Darüber": 8130,
      "Jugend": 8131,
      "##änger": 8132,
      "tä": 8133,
      "Notwendigkeit": 8134,
      "##ätigkeit": 8135,
      "23": 8136,
      "Landwirtschaft": 8137,
      "##ienste": 8138,
      "##geschlossen": 8139,
      "Bal": 8140,
      "Anzahl": 8141,
      "Prior": 8142,
      "Pra": 8143,
      "40": 8144,
      "verbessern": 8145,
      "Kern": 8146,
      "##ness": 8147,
      "##ählt": 8148,
      "##sa": 8149,
      "integr": 8150,
      "lässt": 8151,
      "Woche": 8152,
      "##annen": 8153,
      "Herzen": 8154,
      "individu": 8155,
      "##za": 8156,
      "soziale": 8157,
      "He": 8158,
      "Schl": 8159,
      "Fehler": 8160,
      "##sprechen": 8161,
      "##üng": 8162,
      "gefähr": 8163,
      "Rad": 8164,
      "verwenden": 8165,
      "guten": 8166,
      "eigene": 8167,
      "##führen": 8168,
      "Ti": 8169,
      "##fordert": 8170,
      "Sit": 8171,
      "Ter": 8172,
      "##here": 8173,
      "König": 8174,
      "##ernen": 8175,
      "großer": 8176,
      "##klus": 8177,
      "##itution": 8178,
      "Zwe": 8179,
      "verfügen": 8180,
      "Zeitpunkt": 8181,
      "geschlossen": 8182,
      "Wein": 8183,
      "gesp": 8184,
      "Les": 8185,
      "häuf": 8186,
      "##tliche": 8187,
      "##reisen": 8188,
      "##uz": 8189,
      "##örper": 8190,
      "##ourcen": 8191,
      "Lauf": 8192,
      "fre": 8193,
      "##sei": 8194,
      "##mäßig": 8195,
      "Familie": 8196,
      "##aar": 8197,
      "Gipf": 8198,
      "##sphäre": 8199,
      "##handen": 8200,
      "##ON": 8201,
      "Beschäftigung": 8202,
      "verfüg": 8203,
      "ca": 8204,
      "Stud": 8205,
      "22": 8206,
      "##ona": 8207,
      "meinem": 8208,
      "Mai": 8209,
      "Überein": 8210,
      "##duz": 8211,
      "künf": 8212,
      "##ana": 8213,
      "belie": 8214,
      "Änderungen": 8215,
      "Volks": 8216,
      "zunächst": 8217,
      "Wahr": 8218,
      "##verständlich": 8219,
      "disku": 8220,
      "##sprogramm": 8221,
      "##einander": 8222,
      "gesamte": 8223,
      "##sterreich": 8224,
      "gehören": 8225,
      "##reibung": 8226,
      "##serv": 8227,
      "angemessen": 8228,
      "Nieder": 8229,
      "Regierungen": 8230,
      "##mb": 8231,
      "ständ": 8232,
      "##gelt": 8233,
      "Hinter": 8234,
      "##ales": 8235,
      "hotel": 8236,
      "Erfahrung": 8237,
      "gleichen": 8238,
      "tatsächlich": 8239,
      "regel": 8240,
      "fördern": 8241,
      "##rael": 8242,
      "##minister": 8243,
      "##stru": 8244,
      "Sep": 8245,
      "##ediglich": 8246,
      "##eilen": 8247,
      "##ration": 8248,
      "vorhanden": 8249,
      "wider": 8250,
      "##leisten": 8251,
      "##schinen": 8252,
      "##ry": 8253,
      "##IS": 8254,
      "Neben": 8255,
      "sorgen": 8256,
      "Mehrheit": 8257,
      "Einführung": 8258,
      "nor": 8259,
      "men": 8260,
      "##erseits": 8261,
      "Sc": 8262,
      "Während": 8263,
      "Umgebung": 8264,
      "##tiger": 8265,
      "##ows": 8266,
      "eindeu": 8267,
      "Imm": 8268,
      "geführt": 8269,
      "Test": 8270,
      "2005": 8271,
      "##sb": 8272,
      "schriftlich": 8273,
      "Jul": 8274,
      "##gn": 8275,
      "absol": 8276,
      "Minister": 8277,
      "##ichtige": 8278,
      "veröffent": 8279,
      "Stellung": 8280,
      "##artment": 8281,
      "##zeugt": 8282,
      "##nden": 8283,
      "##bedingungen": 8284,
      "##ied": 8285,
      "Dab": 8286,
      "ernst": 8287,
      "##hil": 8288,
      "Bi": 8289,
      "Online": 8290,
      "##eisen": 8291,
      "##techn": 8292,
      "##ausschuss": 8293,
      "##ula": 8294,
      "##pfer": 8295,
      "##itor": 8296,
      "Kommunik": 8297,
      "##ßt": 8298,
      "##okoll": 8299,
      "größten": 8300,
      "Vereinbar": 8301,
      "äußerst": 8302,
      "Dabei": 8303,
      "##hilfe": 8304,
      "Öffent": 8305,
      "Datei": 8306,
      "verstehen": 8307,
      "Bank": 8308,
      "##orf": 8309,
      "##äst": 8310,
      "Berg": 8311,
      "verstär": 8312,
      "Position": 8313,
      "##lüssel": 8314,
      "##oppel": 8315,
      "##AS": 8316,
      "##schau": 8317,
      "Folgen": 8318,
      "Pe": 8319,
      "##quen": 8320,
      "##stimmen": 8321,
      "##richten": 8322,
      "##ürf": 8323,
      "elekt": 8324,
      "##ühm": 8325,
      "Stabilität": 8326,
      "##urt": 8327,
      "Initiative": 8328,
      "Gesamt": 8329,
      "leicht": 8330,
      "Aktivitäten": 8331,
      "somit": 8332,
      "gewährleisten": 8333,
      "lediglich": 8334,
      "hohen": 8335,
      "##undes": 8336,
      "Tele": 8337,
      "Sprache": 8338,
      "Server": 8339,
      "Material": 8340,
      "Freund": 8341,
      "Mobil": 8342,
      "##unsch": 8343,
      "##äte": 8344,
      "verpflich": 8345,
      "##öhn": 8346,
      "Kn": 8347,
      "Höhe": 8348,
      "##maßnahmen": 8349,
      "schle": 8350,
      "gebracht": 8351,
      "tragen": 8352,
      "##itten": 8353,
      "wirtschaftliche": 8354,
      "beteil": 8355,
      "##spart": 8356,
      "##reng": 8357,
      "Anwend": 8358,
      "##istische": 8359,
      "Gemeinsam": 8360,
      "obwohl": 8361,
      "erfolgreich": 8362,
      "##use": 8363,
      "Fr": 8364,
      "anderer": 8365,
      "##äude": 8366,
      "Computer": 8367,
      "Bekämpfung": 8368,
      "Einw": 8369,
      "Sicht": 8370,
      "hervorragen": 8371,
      "Ober": 8372,
      "vern": 8373,
      "Diskussion": 8374,
      "Standpunkt": 8375,
      "##hung": 8376,
      "Del": 8377,
      "Programme": 8378,
      "Komprom": 8379,
      "einschließlich": 8380,
      "Präsidentschaft": 8381,
      "##iar": 8382,
      "##armon": 8383,
      "bestimmte": 8384,
      "Jahrhundert": 8385,
      "Metho": 8386,
      "ähn": 8387,
      "##ular": 8388,
      "Freiheit": 8389,
      "Medien": 8390,
      "Kommissarin": 8391,
      "Flughafen": 8392,
      "Erachten": 8393,
      "##uren": 8394,
      "Sor": 8395,
      "bein": 8396,
      "Car": 8397,
      "##echan": 8398,
      "Erachtens": 8399,
      "Einf": 8400,
      "meines": 8401,
      "2004": 8402,
      "September": 8403,
      "ausgestattet": 8404,
      "##gessen": 8405,
      "Gruppen": 8406,
      "Dinge": 8407,
      "Dez": 8408,
      "##ule": 8409,
      "##vol": 8410,
      "zweite": 8411,
      "Abend": 8412,
      "##etter": 8413,
      "##til": 8414,
      "Dokument": 8415,
      "bestimmten": 8416,
      "##uar": 8417,
      "zahlreiche": 8418,
      "Innov": 8419,
      "Kontakt": 8420,
      "Bro": 8421,
      "##cl": 8422,
      "Inhalt": 8423,
      "stattf": 8424,
      "vorgesehen": 8425,
      "Bestimmungen": 8426,
      "##schw": 8427,
      "##rien": 8428,
      "Ress": 8429,
      "entwickeln": 8430,
      "Basis": 8431,
      "französ": 8432,
      "##bie": 8433,
      "##vis": 8434,
      "##industrie": 8435,
      "Muse": 8436,
      "Tr": 8437,
      "Fortschritte": 8438,
      "##zeuge": 8439,
      "##wertung": 8440,
      "##altungs": 8441,
      "##lose": 8442,
      "##ission": 8443,
      "neuer": 8444,
      "##gliche": 8445,
      "su": 8446,
      "##sektor": 8447,
      "##iew": 8448,
      "##buch": 8449,
      "Handels": 8450,
      "Son": 8451,
      "##daten": 8452,
      "erhält": 8453,
      "##sprüng": 8454,
      "##chter": 8455,
      "Kan": 8456,
      "Bad": 8457,
      "##ombin": 8458,
      "##gelung": 8459,
      "##haupt": 8460,
      "del": 8461,
      "scheint": 8462,
      "allein": 8463,
      "Dezember": 8464,
      "entde": 8465,
      "Punkte": 8466,
      "##cker": 8467,
      "##schließen": 8468,
      "Tat": 8469,
      "room": 8470,
      "##hältnis": 8471,
      "sagte": 8472,
      "Film": 8473,
      "Zentr": 8474,
      "##redit": 8475,
      "woll": 8476,
      "wirksam": 8477,
      "Preise": 8478,
      "##oment": 8479,
      "Erklärung": 8480,
      "##achsen": 8481,
      "außerdem": 8482,
      "Mark": 8483,
      "versuchen": 8484,
      "##xis": 8485,
      "Eis": 8486,
      "erster": 8487,
      "gemäß": 8488,
      "Okt": 8489,
      "##kennt": 8490,
      "Tod": 8491,
      "Bew": 8492,
      "Stelle": 8493,
      "solchen": 8494,
      "##20": 8495,
      "##text": 8496,
      "##lexib": 8497,
      "bri": 8498,
      "betroffen": 8499,
      "dadurch": 8500,
      "##kraft": 8501,
      "##rägen": 8502,
      "##elegenheiten": 8503,
      "Technologie": 8504,
      "##ons": 8505,
      "unge": 8506,
      "##legung": 8507,
      "zweiten": 8508,
      "Vorschriften": 8509,
      "insgesamt": 8510,
      "2003": 8511,
      "##geber": 8512,
      "##ets": 8513,
      "Nur": 8514,
      "Aust": 8515,
      "Prü": 8516,
      "frü": 8517,
      "hohe": 8518,
      "##mehr": 8519,
      "Informations": 8520,
      "alten": 8521,
      "Gefahr": 8522,
      "##tensi": 8523,
      "Aufmerksam": 8524,
      "Bildung": 8525,
      "Solid": 8526,
      "##volle": 8527,
      "Sommer": 8528,
      "##asch": 8529,
      "einzige": 8530,
      "##denti": 8531,
      "min": 8532,
      "Pass": 8533,
      "##eitet": 8534,
      "##ld": 8535,
      "##ränk": 8536,
      "Alt": 8537,
      "Install": 8538,
      "erheb": 8539,
      "aufgenommen": 8540,
      "##bank": 8541,
      "##ategorien": 8542,
      "EUR": 8543,
      "Wi": 8544,
      "Personal": 8545,
      "##ahren": 8546,
      "##eister": 8547,
      "##wegen": 8548,
      "Entscheidungen": 8549,
      "##ungsf": 8550,
      "##lichkeiten": 8551,
      "Lehr": 8552,
      "vergangenen": 8553,
      "##anlage": 8554,
      "##unternehmen": 8555,
      "##schluss": 8556,
      "Log": 8557,
      "##zuführen": 8558,
      "Aufmerksamkeit": 8559,
      "schließlich": 8560,
      "Anforderungen": 8561,
      "##arenz": 8562,
      "Brü": 8563,
      "##önen": 8564,
      "##stag": 8565,
      "##möglichkeiten": 8566,
      "kri": 8567,
      "Wohl": 8568,
      "März": 8569,
      "Amerik": 8570,
      "West": 8571,
      "##bewertungen": 8572,
      "Küche": 8573,
      "##ieg": 8574,
      "Kri": 8575,
      "Frühstück": 8576,
      "##enk": 8577,
      ".)": 8578,
      "##räfte": 8579,
      "Stre": 8580,
      "##ähl": 8581,
      "jeweil": 8582,
      "##utter": 8583,
      "einzigar": 8584,
      "##gesellschaft": 8585,
      "##altet": 8586,
      "Prinzip": 8587,
      "##istr": 8588,
      "forder": 8589,
      "Auto": 8590,
      "##ologien": 8591,
      "vorge": 8592,
      "genießen": 8593,
      "leg": 8594,
      "Ansatz": 8595,
      "##que": 8596,
      "lin": 8597,
      "Präsidenten": 8598,
      "##abkommen": 8599,
      "jüng": 8600,
      "##uman": 8601,
      "vertreten": 8602,
      "##angel": 8603,
      "Bilder": 8604,
      "Gest": 8605,
      "Protokoll": 8606,
      "Stat": 8607,
      "##länd": 8608,
      "Projekte": 8609,
      "##ried": 8610,
      "effek": 8611,
      "konzentr": 8612,
      "Agen": 8613,
      "##ood": 8614,
      "keiner": 8615,
      "Host": 8616,
      "grundlegen": 8617,
      "Grenzen": 8618,
      "##AT": 8619,
      "erfahren": 8620,
      "Städ": 8621,
      "##indest": 8622,
      "med": 8623,
      "Berichts": 8624,
      "##ehnt": 8625,
      "##neut": 8626,
      "Anfrage": 8627,
      "morgen": 8628,
      "Bereiche": 8629,
      "##je": 8630,
      "Gästebewertungen": 8631,
      "Instrument": 8632,
      "Transparenz": 8633,
      "erk": 8634,
      "##utt": 8635,
      "See": 8636,
      "Oktober": 8637,
      "##alisiert": 8638,
      "Öffentlichkeit": 8639,
      "##ierter": 8640,
      "##ins": 8641,
      "##get": 8642,
      "##astrop": 8643,
      "##gesetz": 8644,
      "Tem": 8645,
      "##riterien": 8646,
      "##pen": 8647,
      "Arbeitnehmer": 8648,
      "Auftrag": 8649,
      "häufig": 8650,
      "Ratspräsident": 8651,
      "Mont": 8652,
      "jähr": 8653,
      "##nungen": 8654,
      "##izi": 8655,
      "eigentlich": 8656,
      "leisten": 8657,
      "##stände": 8658,
      "##falt": 8659,
      "ändern": 8660,
      "erwarten": 8661,
      "Tagesordnung": 8662,
      "serv": 8663,
      "##trem": 8664,
      "leider": 8665,
      "##freund": 8666,
      "Konz": 8667,
      "##ühungen": 8668,
      "eingesetzt": 8669,
      "##isse": 8670,
      "Republik": 8671,
      "Wider": 8672,
      "Red": 8673,
      "ad": 8674,
      "2001": 8675,
      "konnten": 8676,
      "Januar": 8677,
      "##lös": 8678,
      "TV": 8679,
      "Investitionen": 8680,
      "aufzu": 8681,
      "##aben": 8682,
      "Untersuch": 8683,
      "##ände": 8684,
      "##sprozess": 8685,
      "reich": 8686,
      "Ged": 8687,
      "Nationen": 8688,
      "##bien": 8689,
      "##geln": 8690,
      "wenige": 8691,
      "##rad": 8692,
      "Regeln": 8693,
      "defin": 8694,
      "Sektor": 8695,
      "##dienst": 8696,
      "Liber": 8697,
      "Empfeh": 8698,
      "##ull": 8699,
      "##plan": 8700,
      "genommen": 8701,
      "Dr": 8702,
      "Spanien": 8703,
      "geworden": 8704,
      "##einer": 8705,
      "Vertreter": 8706,
      "Privat": 8707,
      "Cas": 8708,
      "##ril": 8709,
      "kor": 8710,
      "National": 8711,
      "Vertrags": 8712,
      "durchgeführt": 8713,
      "Innen": 8714,
      "##ützt": 8715,
      "##int": 8716,
      "##iete": 8717,
      "##tien": 8718,
      "##50": 8719,
      "##öffnet": 8720,
      "##anden": 8721,
      "Kre": 8722,
      "Straßen": 8723,
      "unmittel": 8724,
      "berühm": 8725,
      "Bundes": 8726,
      "##läng": 8727,
      "##forderung": 8728,
      "betreffen": 8729,
      "Ir": 8730,
      "##icherung": 8731,
      "Linie": 8732,
      "verlang": 8733,
      "AG": 8734,
      "Verkehrs": 8735,
      "Schwier": 8736,
      "benötigen": 8737,
      "Meine": 8738,
      "Aller": 8739,
      "gering": 8740,
      "Firma": 8741,
      "##anc": 8742,
      "europäischer": 8743,
      "zunehmen": 8744,
      "Sinne": 8745,
      "##gien": 8746,
      "To": 8747,
      "suchen": 8748,
      "##kan": 8749,
      "Veränder": 8750,
      "##ält": 8751,
      "##gren": 8752,
      "##sätze": 8753,
      "ihres": 8754,
      "Gründen": 8755,
      "angesichts": 8756,
      "##gerung": 8757,
      "el": 8758,
      "aktuellen": 8759,
      "verd": 8760,
      "he": 8761,
      "Juli": 8762,
      "Nr": 8763,
      "##etzung": 8764,
      "##tierung": 8765,
      "##drücklich": 8766,
      "##üge": 8767,
      "treffen": 8768,
      "wichtiger": 8769,
      "##stung": 8770,
      "Kennt": 8771,
      "freund": 8772,
      "##IT": 8773,
      "##ründet": 8774,
      "kannst": 8775,
      "kennen": 8776,
      "##zusetzen": 8777,
      "weder": 8778,
      "##ierenden": 8779,
      "Solidarität": 8780,
      "beein": 8781,
      "Glob": 8782,
      "bezüglich": 8783,
      "Agrar": 8784,
      "ursprüng": 8785,
      "##ieht": 8786,
      "##wicklung": 8787,
      "##illa": 8788,
      "##dio": 8789,
      "##zeichnung": 8790,
      "Zun": 8791,
      "II": 8792,
      "gefunden": 8793,
      "Auffassung": 8794,
      "gek": 8795,
      "##unge": 8796,
      "geschaffen": 8797,
      "##ction": 8798,
      "Kur": 8799,
      "erneut": 8800,
      "Analy": 8801,
      "##low": 8802,
      "##stellten": 8803,
      "Mot": 8804,
      "Schließ": 8805,
      "halte": 8806,
      "##teten": 8807,
      "sonst": 8808,
      "Rede": 8809,
      "End": 8810,
      "##mann": 8811,
      "##mosphäre": 8812,
      "##reig": 8813,
      "Aufgaben": 8814,
      "Sitz": 8815,
      "60": 8816,
      "##ulti": 8817,
      "Anw": 8818,
      "Sache": 8819,
      "Menschenrecht": 8820,
      "sofort": 8821,
      "##ört": 8822,
      "##dam": 8823,
      "##AD": 8824,
      "##ammlung": 8825,
      "Ereig": 8826,
      "##mbH": 8827,
      "Änderung": 8828,
      "##wortern": 8829,
      "by": 8830,
      "##izin": 8831,
      "Organisation": 8832,
      "Bürgern": 8833,
      "wissenschaft": 8834,
      "vorzu": 8835,
      "Ressourcen": 8836,
      "übrigen": 8837,
      "Bedürf": 8838,
      "hinzu": 8839,
      "Et": 8840,
      "Heute": 8841,
      "eher": 8842,
      "##part": 8843,
      "überprü": 8844,
      "diejenigen": 8845,
      "sta": 8846,
      "2002": 8847,
      "##achtung": 8848,
      "##les": 8849,
      "begrüße": 8850,
      "##ograf": 8851,
      "sieht": 8852,
      "Beteil": 8853,
      "##OM": 8854,
      "Armut": 8855,
      "##rib": 8856,
      "##omen": 8857,
      "Tur": 8858,
      "GmbH": 8859,
      "##ile": 8860,
      "bringt": 8861,
      "##losen": 8862,
      "öffentliche": 8863,
      "Tab": 8864,
      "##mö": 8865,
      "vergessen": 8866,
      "Gemeinschafts": 8867,
      "kur": 8868,
      "wiederhol": 8869,
      "##würd": 8870,
      "##cel": 8871,
      "entsprechenden": 8872,
      "ziehen": 8873,
      "##rich": 8874,
      "beitragen": 8875,
      "“,": 8876,
      "##schlag": 8877,
      "geg": 8878,
      "##stre": 8879,
      "##ada": 8880,
      "belieb": 8881,
      "Afri": 8882,
      "##ace": 8883,
      "Nachbar": 8884,
      "Sitzung": 8885,
      "Ist": 8886,
      "Prozent": 8887,
      "##lleg": 8888,
      "Windows": 8889,
      "install": 8890,
      "Bemühungen": 8891,
      "red": 8892,
      "Lo": 8893,
      "Fällen": 8894,
      "Dritt": 8895,
      "Rech": 8896,
      "entsprechend": 8897,
      "Schlusselwortern": 8898,
      "Verf": 8899,
      "mitt": 8900,
      "##scheinlich": 8901,
      "Golf": 8902,
      "Unternehmens": 8903,
      "Behandlung": 8904,
      "##bil": 8905,
      "##komm": 8906,
      "langfrist": 8907,
      "Koh": 8908,
      "Wunsch": 8909,
      "##ünstler": 8910,
      "##aktion": 8911,
      "Gott": 8912,
      "Beruf": 8913,
      "##alismus": 8914,
      "EN": 8915,
      "##igur": 8916,
      "##ork": 8917,
      "Versuch": 8918,
      "##setzt": 8919,
      "##etail": 8920,
      "zeit": 8921,
      "Monaten": 8922,
      "##unk": 8923,
      "sozial": 8924,
      "##svor": 8925,
      "''": 8926,
      "Gel": 8927,
      "##gewiesen": 8928,
      "##son": 8929,
      "verhindern": 8930,
      "##fter": 8931,
      "##frastruktur": 8932,
      "ausgezeich": 8933,
      "##hafte": 8934,
      "##amb": 8935,
      "Pap": 8936,
      "Rel": 8937,
      "getan": 8938,
      "Bot": 8939,
      "Schla": 8940,
      "##af": 8941,
      "##iveau": 8942,
      "Ander": 8943,
      "Modell": 8944,
      "Mag": 8945,
      "Völk": 8946,
      "genannten": 8947,
      "Dateien": 8948,
      "##OR": 8949,
      "Zus": 8950,
      "behandelt": 8951,
      "##schlagen": 8952,
      "##kur": 8953,
      "Erw": 8954,
      "hätten": 8955,
      "vorher": 8956,
      "27": 8957,
      "Folge": 8958,
      "197": 8959,
      "Tagen": 8960,
      "Koordin": 8961,
      "November": 8962,
      "##ummer": 8963,
      "##ünsche": 8964,
      "##besch": 8965,
      "it": 8966,
      "sel": 8967,
      "##ologischen": 8968,
      "erfolgt": 8969,
      "Bürgerinnen": 8970,
      "Milliar": 8971,
      "nimmt": 8972,
      "##vel": 8973,
      "##era": 8974,
      "Finanzierung": 8975,
      "Garten": 8976,
      "anderem": 8977,
      "##tt": 8978,
      "beant": 8979,
      "##lück": 8980,
      "##dat": 8981,
      "Management": 8982,
      "Gebäude": 8983,
      "Vergangen": 8984,
      "drin": 8985,
      "##ssi": 8986,
      "begrüßen": 8987,
      "Home": 8988,
      "##zeiten": 8989,
      "##ament": 8990,
      "##iken": 8991,
      "##greifen": 8992,
      "Post": 8993,
      "##leb": 8994,
      "##stet": 8995,
      "##oben": 8996,
      "besondere": 8997,
      "Atmosphäre": 8998,
      "##ime": 8999,
      "versucht": 9000,
      "##ellschaften": 9001,
      "Wissenschaft": 9002,
      "Minder": 9003,
      "##ehe": 9004,
      "Spieler": 9005,
      "##lass": 9006,
      "Vertrauen": 9007,
      "April": 9008,
      "##bauen": 9009,
      "Restaurants": 9010,
      "fal": 9011,
      "##IP": 9012,
      "Werte": 9013,
      "Bra": 9014,
      "gewesen": 9015,
      "erklärt": 9016,
      "Verteid": 9017,
      "Natürlich": 9018,
      "paar": 9019,
      "Erfahrungen": 9020,
      "Doppel": 9021,
      "typ": 9022,
      "Beginn": 9023,
      "IT": 9024,
      "##eiz": 9025,
      "optim": 9026,
      "etc": 9027,
      "mensch": 9028,
      "Rechtsvorschriften": 9029,
      "##ender": 9030,
      "Verfassung": 9031,
      "beste": 9032,
      "sechs": 9033,
      "Män": 9034,
      "zehn": 9035,
      "##reib": 9036,
      "überhaupt": 9037,
      "Kredit": 9038,
      "Steu": 9039,
      "##schung": 9040,
      "very": 9041,
      "warum": 9042,
      "erfüllen": 9043,
      "##bol": 9044,
      "##innern": 9045,
      "offiz": 9046,
      "##angeb": 9047,
      "usw": 9048,
      "##auen": 9049,
      "modern": 9050,
      "##spe": 9051,
      "##räum": 9052,
      "günst": 9053,
      "##uk": 9054,
      "unterb": 9055,
      "ehem": 9056,
      "500": 9057,
      "Dis": 9058,
      "Terrorismus": 9059,
      "##ütz": 9060,
      "Waren": 9061,
      "fordern": 9062,
      "berücksichtigt": 9063,
      "Ost": 9064,
      "##losigkeit": 9065,
      "zahlreichen": 9066,
      "Praxis": 9067,
      "ph": 9068,
      "Ol": 9069,
      "größer": 9070,
      "Transport": 9071,
      "Firmen": 9072,
      "##anen": 9073,
      "säm": 9074,
      "Lassen": 9075,
      "Vergangenheit": 9076,
      "##splan": 9077,
      "Aspekte": 9078,
      "##tets": 9079,
      "##ynam": 9080,
      "gerecht": 9081,
      "##haben": 9082,
      "Bü": 9083,
      "Exper": 9084,
      "welches": 9085,
      "richtige": 9086,
      "Vergleich": 9087,
      "##EL": 9088,
      "##stein": 9089,
      "schützen": 9090,
      "Aug": 9091,
      "##ww": 9092,
      "stimmen": 9093,
      "Gerichts": 9094,
      "Telefon": 9095,
      "##wasser": 9096,
      "##orgung": 9097,
      "##wie": 9098,
      "größte": 9099,
      "Mann": 9100,
      "wünschen": 9101,
      "staat": 9102,
      "##AP": 9103,
      "##OS": 9104,
      "##mär": 9105,
      "einheit": 9106,
      "##iden": 9107,
      "Sonder": 9108,
      "##altungen": 9109,
      "strateg": 9110,
      "##tiges": 9111,
      "uner": 9112,
      "##othe": 9113,
      "arbei": 9114,
      "Partei": 9115,
      "##...": 9116,
      "verz": 9117,
      "##ffizienz": 9118,
      "zumindest": 9119,
      "jeweiligen": 9120,
      "Winter": 9121,
      "##verfahren": 9122,
      "historischen": 9123,
      "##iness": 9124,
      "äl": 9125,
      "Paris": 9126,
      "perf": 9127,
      "Zivil": 9128,
      "getroffen": 9129,
      "verpflichtet": 9130,
      "Fisch": 9131,
      "##tiver": 9132,
      "wählen": 9133,
      "Sym": 9134,
      "te": 9135,
      "Bestand": 9136,
      "Zweitens": 9137,
      "Mil": 9138,
      "##rid": 9139,
      "are": 9140,
      "Adresse": 9141,
      "##ränkt": 9142,
      "stets": 9143,
      "##sfähigkeit": 9144,
      "##dung": 9145,
      "Opfer": 9146,
      "Parteien": 9147,
      "seines": 9148,
      "außerhalb": 9149,
      "Viele": 9150,
      "www": 9151,
      "##gruppe": 9152,
      "Schritte": 9153,
      "##ontro": 9154,
      "Systems": 9155,
      "Inf": 9156,
      "form": 9157,
      "modernen": 9158,
      "Agentur": 9159,
      "spezif": 9160,
      "##fonds": 9161,
      "##tert": 9162,
      "##gangs": 9163,
      "Fe": 9164,
      "##zur": 9165,
      "zuständ": 9166,
      "gemein": 9167,
      "neues": 9168,
      "##gehend": 9169,
      "##umenten": 9170,
      "beginnen": 9171,
      "eingeb": 9172,
      "Leit": 9173,
      "befür": 9174,
      "##vollen": 9175,
      "Sterne": 9176,
      "##nungs": 9177,
      "CD": 9178,
      "Rot": 9179,
      "kam": 9180,
      "vollständig": 9181,
      "verantwortlich": 9182,
      "Video": 9183,
      "##dingt": 9184,
      "Berichterstatterin": 9185,
      "technischen": 9186,
      "speziell": 9187,
      "Spezial": 9188,
      "##igin": 9189,
      "Angelegenheiten": 9190,
      "verkauf": 9191,
      "Voll": 9192,
      "Angelegenheit": 9193,
      "Erd": 9194,
      "folgt": 9195,
      "bald": 9196,
      "##ownlo": 9197,
      "##fläche": 9198,
      "80": 9199,
      "##bezogen": 9200,
      "##orgt": 9201,
      "Versch": 9202,
      "verab": 9203,
      "genug": 9204,
      "##barer": 9205,
      "heutigen": 9206,
      "##ano": 9207,
      "Verwaltung": 9208,
      "##sitzen": 9209,
      "Schlüssel": 9210,
      "Dazu": 9211,
      "Wel": 9212,
      "Pan": 9213,
      "##likt": 9214,
      "##rah": 9215,
      "##erkennung": 9216,
      "persönlichen": 9217,
      "##AL": 9218,
      "Schwierigkeiten": 9219,
      "verk": 9220,
      "Mod": 9221,
      "##ci": 9222,
      "##rete": 9223,
      "Herausforderungen": 9224,
      "früh": 9225,
      "kür": 9226,
      "prü": 9227,
      "we": 9228,
      "##gebiet": 9229,
      "##emente": 9230,
      "Schwer": 9231,
      "Reserv": 9232,
      "Krank": 9233,
      "ehr": 9234,
      "stärker": 9235,
      "Zeichen": 9236,
      "Apartment": 9237,
      "Gesprä": 9238,
      "not": 9239,
      "Klein": 9240,
      "##seh": 9241,
      "Lux": 9242,
      "##uff": 9243,
      "1999": 9244,
      "##ath": 9245,
      "deutschen": 9246,
      "##akte": 9247,
      "bessere": 9248,
      "Archite": 9249,
      "And": 9250,
      "Annahme": 9251,
      "##werte": 9252,
      "Berat": 9253,
      "ausschließlich": 9254,
      "innov": 9255,
      "Allerdings": 9256,
      "Beweg": 9257,
      "erlaubt": 9258,
      "Karte": 9259,
      "Stellen": 9260,
      "folgenden": 9261,
      "Einrichtung": 9262,
      "##gruppen": 9263,
      "ren": 9264,
      "##by": 9265,
      "##ämpfen": 9266,
      "Christ": 9267,
      "Hinsicht": 9268,
      "italien": 9269,
      "Einige": 9270,
      "##meer": 9271,
      "Dann": 9272,
      "Ed": 9273,
      "##konom": 9274,
      "from": 9275,
      "##sport": 9276,
      "automatisch": 9277,
      "privaten": 9278,
      "erwartet": 9279,
      "Jap": 9280,
      "Nun": 9281,
      "##istan": 9282,
      "##ierende": 9283,
      "Regierungs": 9284,
      "erinnern": 9285,
      "Eigent": 9286,
      "##vert": 9287,
      "Sign": 9288,
      "##ama": 9289,
      "##hoben": 9290,
      "##bieten": 9291,
      "no": 9292,
      "verurs": 9293,
      "##itieren": 9294,
      "Ihres": 9295,
      "mal": 9296,
      "illeg": 9297,
      "allgemeinen": 9298,
      "zukünf": 9299,
      "Unterk": 9300,
      "übernehmen": 9301,
      "Doll": 9302,
      "##zut": 9303,
      "##tritt": 9304,
      "##indungen": 9305,
      "Sy": 9306,
      "##anach": 9307,
      "Mitte": 9308,
      "##ffnung": 9309,
      "##eistet": 9310,
      "Club": 9311,
      "gesetz": 9312,
      "ehemal": 9313,
      "Arbeitsplätze": 9314,
      "##rengungen": 9315,
      "Acht": 9316,
      "Soll": 9317,
      "Tier": 9318,
      "##jekt": 9319,
      "##uhr": 9320,
      "##gerungen": 9321,
      "Österreich": 9322,
      "Ord": 9323,
      "##hilfen": 9324,
      "##ors": 9325,
      "entgegen": 9326,
      "erweiter": 9327,
      "gesehen": 9328,
      "Sehen": 9329,
      "Israel": 9330,
      "unten": 9331,
      "präsen": 9332,
      "Trans": 9333,
      "Gro": 9334,
      "Vi": 9335,
      "Produkten": 9336,
      "Kos": 9337,
      "Schiff": 9338,
      "natür": 9339,
      "Milliarden": 9340,
      "ausger": 9341,
      "Antrag": 9342,
      "##heben": 9343,
      "Bis": 9344,
      "darstellt": 9345,
      "##uell": 9346,
      "Fer": 9347,
      "##fizierung": 9348,
      "Verkauf": 9349,
      "##etzungen": 9350,
      "Organisationen": 9351,
      "Forschungs": 9352,
      "Get": 9353,
      "beide": 9354,
      "Obwohl": 9355,
      "Up": 9356,
      "zudem": 9357,
      "Kommunikation": 9358,
      "you": 9359,
      "person": 9360,
      "##ärken": 9361,
      "196": 9362,
      "setzt": 9363,
      "##ssen": 9364,
      "##zeugung": 9365,
      "bitten": 9366,
      "##rug": 9367,
      "##ufe": 9368,
      "##ördert": 9369,
      "endlich": 9370,
      "Konzept": 9371,
      "länd": 9372,
      "Trotz": 9373,
      "dringend": 9374,
      "Heim": 9375,
      "eindeutig": 9376,
      "angeboten": 9377,
      "bestimmt": 9378,
      "Erstens": 9379,
      "Bade": 9380,
      "##liegenden": 9381,
      "##innt": 9382,
      "Gesundheits": 9383,
      "letzte": 9384,
      "Verhalten": 9385,
      "Gem": 9386,
      "Ausschuß": 9387,
      "##ildet": 9388,
      "Einsch": 9389,
      "Verpflichtungen": 9390,
      "Einfluss": 9391,
      "Leute": 9392,
      "##arn": 9393,
      "Falls": 9394,
      "##frieden": 9395,
      "stand": 9396,
      "##zeichen": 9397,
      "voraus": 9398,
      "##uellen": 9399,
      "Gipfel": 9400,
      "deine": 9401,
      "##sser": 9402,
      "##weder": 9403,
      "##ica": 9404,
      "untern": 9405,
      "##zeichnen": 9406,
      "Grie": 9407,
      "##yer": 9408,
      "##lock": 9409,
      "Kons": 9410,
      "Wei": 9411,
      "##bür": 9412,
      "##stoffe": 9413,
      "##setzungen": 9414,
      "que": 9415,
      "bemü": 9416,
      "##organis": 9417,
      "Cor": 9418,
      "Überwach": 9419,
      "Hä": 9420,
      "Falle": 9421,
      "Kriterien": 9422,
      "##tere": 9423,
      "##ologische": 9424,
      "Wann": 9425,
      "ausreich": 9426,
      "##kra": 9427,
      "Herz": 9428,
      "##kosten": 9429,
      "dra": 9430,
      "##immern": 9431,
      "Tätigkeit": 9432,
      "produz": 9433,
      "##dest": 9434,
      "##endet": 9435,
      "##ständen": 9436,
      "Anstrengungen": 9437,
      "Zustimmung": 9438,
      "##ox": 9439,
      "größere": 9440,
      "Detail": 9441,
      "##iens": 9442,
      "jem": 9443,
      "genannt": 9444,
      "##andid": 9445,
      "Ins": 9446,
      "##ash": 9447,
      "##mand": 9448,
      "01": 9449,
      "kaum": 9450,
      "Systeme": 9451,
      "benutzt": 9452,
      "Sü": 9453,
      "##ärkung": 9454,
      "Anerkennung": 9455,
      "##ire": 9456,
      "##ots": 9457,
      "Hause": 9458,
      "Charakter": 9459,
      "##ppen": 9460,
      "minde": 9461,
      "umfang": 9462,
      "Termin": 9463,
      "Eind": 9464,
      "##lan": 9465,
      "##ison": 9466,
      "Licht": 9467,
      "PC": 9468,
      "Don": 9469,
      "##reite": 9470,
      "Dollar": 9471,
      "Sw": 9472,
      "##lichung": 9473,
      "zusätzliche": 9474,
      "militär": 9475,
      "26": 9476,
      "Dro": 9477,
      "beschlossen": 9478,
      "profession": 9479,
      "##ftung": 9480,
      "politisch": 9481,
      "bilden": 9482,
      "Vereinbarung": 9483,
      "oben": 9484,
      "unbedingt": 9485,
      "Völker": 9486,
      "mag": 9487,
      "genutzt": 9488,
      "Waffen": 9489,
      "Leg": 9490,
      "hei": 9491,
      "##preis": 9492,
      "##züg": 9493,
      "komfort": 9494,
      "##fühl": 9495,
      "Dom": 9496,
      "##schreiten": 9497,
      "bezahl": 9498,
      "##leitet": 9499,
      "Funktionen": 9500,
      "Site": 9501,
      "Nachfol": 9502,
      "Kauf": 9503,
      "##gül": 9504,
      "Mitgliedstaat": 9505,
      "Nutzen": 9506,
      "Idee": 9507,
      "##oph": 9508,
      "entspricht": 9509,
      "Wahlen": 9510,
      "eingehen": 9511,
      "##arch": 9512,
      "##amerik": 9513,
      "reag": 9514,
      "##fälle": 9515,
      "##alk": 9516,
      "Boden": 9517,
      "max": 9518,
      "überzeugt": 9519,
      "Tre": 9520,
      "intensi": 9521,
      "land": 9522,
      "##achtet": 9523,
      "##zenz": 9524,
      "elektron": 9525,
      "##fangen": 9526,
      "Entschließungsant": 9527,
      "Zwischen": 9528,
      "##ulieren": 9529,
      "Altern": 9530,
      "selbstverständlich": 9531,
      "vorgelegt": 9532,
      "moderne": 9533,
      "entschieden": 9534,
      "##ja": 9535,
      "erkennen": 9536,
      "##zeigen": 9537,
      "Besonder": 9538,
      "entstehen": 9539,
      "gesetzt": 9540,
      "##arischen": 9541,
      "##ise": 9542,
      "##wind": 9543,
      "##ehrte": 9544,
      "neg": 9545,
      "##ohnung": 9546,
      "exist": 9547,
      "sen": 9548,
      "grü": 9549,
      "sinn": 9550,
      "Irak": 9551,
      "##sätz": 9552,
      "Ausbildung": 9553,
      "##atik": 9554,
      "Durchführung": 9555,
      "28": 9556,
      "##roso": 9557,
      "mindestens": 9558,
      "##legten": 9559,
      "bl": 9560,
      "berücksichtigen": 9561,
      "Pati": 9562,
      "Ausgaben": 9563,
      "##aner": 9564,
      "Elekt": 9565,
      "zufrieden": 9566,
      "Lond": 9567,
      "wesentlich": 9568,
      "##wenden": 9569,
      "unterschiedlichen": 9570,
      "##reiber": 9571,
      "Osten": 9572,
      "mittel": 9573,
      "demokratischen": 9574,
      "##ball": 9575,
      "##will": 9576,
      "##spunkt": 9577,
      "##user": 9578,
      "Richtlinien": 9579,
      "Inhalte": 9580,
      "##wachsen": 9581,
      "Hintergrund": 9582,
      "Netzwerk": 9583,
      "300": 9584,
      "Konflikt": 9585,
      "effizien": 9586,
      "Infrastruktur": 9587,
      "##ungsk": 9588,
      "##itzt": 9589,
      "##page": 9590,
      "Sto": 9591,
      "##anlagen": 9592,
      "angegeben": 9593,
      "Holz": 9594,
      "##aup": 9595,
      "##räger": 9596,
      "Mitteilung": 9597,
      "Flü": 9598,
      "##haften": 9599,
      "rest": 9600,
      "reduz": 9601,
      "Alter": 9602,
      "bewusst": 9603,
      "dam": 9604,
      "##igte": 9605,
      "##stattung": 9606,
      "gezeigt": 9607,
      "Abschluss": 9608,
      "Währung": 9609,
      "Nah": 9610,
      "herunter": 9611,
      "Alb": 9612,
      "##wirken": 9613,
      "Immobil": 9614,
      "Dist": 9615,
      "Sprachen": 9616,
      "danke": 9617,
      "..": 9618,
      "verfügbar": 9619,
      "abhäng": 9620,
      "nachdem": 9621,
      "mehreren": 9622,
      "extrem": 9623,
      "Anspruch": 9624,
      "legen": 9625,
      "Banken": 9626,
      "Vorteile": 9627,
      "hochwer": 9628,
      "Kooper": 9629,
      "enor": 9630,
      "Öl": 9631,
      "##lern": 9632,
      "hinweisen": 9633,
      "entsprechende": 9634,
      "##fähr": 9635,
      "Technologien": 9636,
      "nationale": 9637,
      "nö": 9638,
      "Körper": 9639,
      "Anp": 9640,
      "Mün": 9641,
      "glauben": 9642,
      "Besucher": 9643,
      "do": 9644,
      "Mensch": 9645,
      "##gest": 9646,
      "Stil": 9647,
      "##alit": 9648,
      "anerk": 9649,
      "##artige": 9650,
      "IS": 9651,
      "##bew": 9652,
      "##fallen": 9653,
      "Bud": 9654,
      "##out": 9655,
      "Lebensmittel": 9656,
      "##bert": 9657,
      "human": 9658,
      "globalen": 9659,
      "Reformen": 9660,
      "aktuelle": 9661,
      "gesprochen": 9662,
      "dig": 9663,
      "Schaden": 9664,
      "online": 9665,
      "##ängt": 9666,
      "##tischer": 9667,
      "##politi": 9668,
      "Anti": 9669,
      "kontroll": 9670,
      "erwähnt": 9671,
      "wert": 9672,
      "##In": 9673,
      "##zeption": 9674,
      "Kritik": 9675,
      "Start": 9676,
      "August": 9677,
      "##afft": 9678,
      "##oking": 9679,
      "##spar": 9680,
      "Nahr": 9681,
      "##quem": 9682,
      "Engagement": 9683,
      "Organ": 9684,
      "##röße": 9685,
      "angesprochen": 9686,
      "wachsen": 9687,
      "Mitt": 9688,
      "besonderen": 9689,
      "##pft": 9690,
      "akzeptieren": 9691,
      "Griechen": 9692,
      "Partnerschaft": 9693,
      "wahrscheinlich": 9694,
      "euch": 9695,
      "Kompromiss": 9696,
      "##ript": 9697,
      "Feb": 9698,
      "Schlaf": 9699,
      "sicherzustellen": 9700,
      "##achte": 9701,
      "##ai": 9702,
      "##minist": 9703,
      "##tlichen": 9704,
      "ergreifen": 9705,
      "##swürd": 9706,
      "Band": 9707,
      "##karte": 9708,
      "##mack": 9709,
      "##zieht": 9710,
      "##ownload": 9711,
      "Sonnen": 9712,
      "benutzen": 9713,
      "##alls": 9714,
      "Komfort": 9715,
      "Zeitraum": 9716,
      "Ern": 9717,
      "##ritann": 9718,
      "##ziehung": 9719,
      "Ven": 9720,
      "##SE": 9721,
      "loc": 9722,
      "##bed": 9723,
      "Mor": 9724,
      "##wandel": 9725,
      "Fran": 9726,
      "Vorber": 9727,
      "fe": 9728,
      "##ites": 9729,
      "##ink": 9730,
      "derzei": 9731,
      "Entsch": 9732,
      "##ancen": 9733,
      "schl": 9734,
      "##IC": 9735,
      "##iß": 9736,
      "Einkauf": 9737,
      "Paket": 9738,
      "##reibt": 9739,
      "Mittelmeer": 9740,
      "bestehenden": 9741,
      "siehe": 9742,
      "##rachtet": 9743,
      "##unkten": 9744,
      "eingerichtet": 9745,
      "geeignet": 9746,
      "Schließlich": 9747,
      "##sichten": 9748,
      "Fakt": 9749,
      "##swert": 9750,
      "##mel": 9751,
      "##ices": 9752,
      "erzielt": 9753,
      "##führer": 9754,
      "feh": 9755,
      "##stechn": 9756,
      "##sse": 9757,
      "möglicherweise": 9758,
      "Zunächst": 9759,
      "##tic": 9760,
      "Bemerk": 9761,
      "##rig": 9762,
      "freien": 9763,
      "Haltung": 9764,
      "Zudem": 9765,
      "##han": 9766,
      "Suche": 9767,
      "Mio": 9768,
      "Anwendungen": 9769,
      "##ograph": 9770,
      "90": 9771,
      "amerikanischen": 9772,
      "Straße": 9773,
      "Ja": 9774,
      "##pack": 9775,
      "##ischem": 9776,
      "##letzt": 9777,
      "Wettbewerbsfähigkeit": 9778,
      "##issionen": 9779,
      "festgelegt": 9780,
      "31": 9781,
      "Will": 9782,
      "Einrichtungen": 9783,
      "##ichtigung": 9784,
      "Kind": 9785,
      "##ara": 9786,
      "Homepage": 9787,
      "Kenntnis": 9788,
      "##izei": 9789,
      "freuen": 9790,
      "##schiede": 9791,
      "prüfen": 9792,
      "finanziellen": 9793,
      "jene": 9794,
      "##sicherheit": 9795,
      "##ppe": 9796,
      "notwendigen": 9797,
      "umgesetzt": 9798,
      "Fortschritt": 9799,
      "London": 9800,
      "##ption": 9801,
      "##iertel": 9802,
      "wundersch": 9803,
      "Zweck": 9804,
      "zuletzt": 9805,
      "as": 9806,
      "Tel": 9807,
      "hoffen": 9808,
      "lösen": 9809,
      "##werten": 9810,
      "##irm": 9811,
      "Sil": 9812,
      "pass": 9813,
      "##aktiv": 9814,
      "Oper": 9815,
      "anderes": 9816,
      "geändert": 9817,
      "pol": 9818,
      "##werke": 9819,
      "##mitglie": 9820,
      "süd": 9821,
      "Aufnahme": 9822,
      "dienen": 9823,
      "Unterkategorien": 9824,
      "Super": 9825,
      "erfüllt": 9826,
      "##öpf": 9827,
      "##spiele": 9828,
      "co": 9829,
      "##tierte": 9830,
      "##fre": 9831,
      "positiv": 9832,
      "##unt": 9833,
      "Rechn": 9834,
      "gener": 9835,
      "##seite": 9836,
      "Chance": 9837,
      "Monate": 9838,
      "##tierten": 9839,
      "Barcel": 9840,
      "##po": 9841,
      "Speich": 9842,
      "leich": 9843,
      "##RO": 9844,
      "Jed": 9845,
      "schwierig": 9846,
      "##uropa": 9847,
      "Mich": 9848,
      "My": 9849,
      "füh": 9850,
      "##ünsch": 9851,
      "Ass": 9852,
      "##ulierung": 9853,
      "Just": 9854,
      "beziehen": 9855,
      "##zent": 9856,
      "Business": 9857,
      "##rik": 9858,
      "##ohlen": 9859,
      "anders": 9860,
      "Arten": 9861,
      "Ausgang": 9862,
      "##how": 9863,
      "Meter": 9864,
      "##lands": 9865,
      "vermeiden": 9866,
      "##rahmen": 9867,
      "##leiten": 9868,
      "##ruar": 9869,
      "Dienste": 9870,
      "##igh": 9871,
      "Kindern": 9872,
      "gleiche": 9873,
      "##britann": 9874,
      "Comm": 9875,
      "fahren": 9876,
      "darunter": 9877,
      "##see": 9878,
      "##sh": 9879,
      "Engl": 9880,
      "Phil": 9881,
      "lesen": 9882,
      "##flug": 9883,
      "Vielfalt": 9884,
      "“.": 9885,
      "Universität": 9886,
      "##vin": 9887,
      "Februar": 9888,
      "braucht": 9889,
      "Gut": 9890,
      "Wege": 9891,
      "Tro": 9892,
      "verbessert": 9893,
      "##aust": 9894,
      "Freu": 9895,
      "Identi": 9896,
      "chin": 9897,
      "lo": 9898,
      "näh": 9899,
      "##ohner": 9900,
      "##if": 9901,
      "##enter": 9902,
      "Mad": 9903,
      "##haber": 9904,
      "jederzeit": 9905,
      "west": 9906,
      "Che": 9907,
      "##ards": 9908,
      "Fri": 9909,
      "##weiten": 9910,
      "ged": 9911,
      "Stimme": 9912,
      "vereinbar": 9913,
      "lau": 9914,
      "Grundsatz": 9915,
      "Do": 9916,
      "Tsch": 9917,
      "technische": 9918,
      "Camp": 9919,
      "stattfinden": 9920,
      "##oss": 9921,
      "erschein": 9922,
      "Kong": 9923,
      "Tor": 9924,
      "##spoliti": 9925,
      "sicherlich": 9926,
      "##gegeben": 9927,
      "Verwaltungs": 9928,
      "Frem": 9929,
      "entweder": 9930,
      "##ET": 9931,
      "comp": 9932,
      "jeweils": 9933,
      "Well": 9934,
      "länger": 9935,
      "Dritten": 9936,
      "##ilität": 9937,
      "##zone": 9938,
      "Verhältnis": 9939,
      "##itein": 9940,
      "##beg": 9941,
      "##leisch": 9942,
      "Rand": 9943,
      "##fachen": 9944,
      "Moment": 9945,
      "Ther": 9946,
      "Schn": 9947,
      "ständig": 9948,
      "Schweiz": 9949,
      "##bad": 9950,
      "##una": 9951,
      "Menge": 9952,
      "Arbeiten": 9953,
      "Fonds": 9954,
      "##wanderung": 9955,
      "##eta": 9956,
      "Titel": 9957,
      "##schine": 9958,
      "gemüt": 9959,
      "70": 9960,
      "##pe": 9961,
      "Zer": 9962,
      "Webseite": 9963,
      "Technik": 9964,
      "##ehnen": 9965,
      "Kapital": 9966,
      "##ähig": 9967,
      "Großbritann": 9968,
      "##ón": 9969,
      "Leistungen": 9970,
      "Fen": 9971,
      "##meld": 9972,
      "unterst": 9973,
      "Forderung": 9974,
      "teilweise": 9975,
      "chines": 9976,
      "erzielen": 9977,
      "##ars": 9978,
      "woh": 9979,
      "angezeigt": 9980,
      "##systeme": 9981,
      "Risiko": 9982,
      "##ini": 9983,
      "Instrumente": 9984,
      "Sam": 9985,
      "gelangen": 9986,
      "Vereinten": 9987,
      "ausgew": 9988,
      "##atist": 9989,
      "##ary": 9990,
      "Iran": 9991,
      "bestätig": 9992,
      "Regelung": 9993,
      "Maschinen": 9994,
      "##bruch": 9995,
      "Entwurf": 9996,
      "nieder": 9997,
      "erhöhen": 9998,
      "empfehlen": 9999,
      "übernachten": 10000,
      "Analyse": 10001,
      "##chmal": 10002,
      "Schön": 10003,
      "Hafen": 10004,
      "Berichte": 10005,
      "ergän": 10006,
      "##laus": 10007,
      "institution": 10008,
      "Initiativen": 10009,
      "Abschließend": 10010,
      "Verz": 10011,
      "##ovo": 10012,
      "ausdrücklich": 10013,
      "Arg": 10014,
      "##ester": 10015,
      "Status": 10016,
      "##ssel": 10017,
      "Sand": 10018,
      "Bereit": 10019,
      "besuchen": 10020,
      "##eils": 10021,
      "##atoren": 10022,
      "Klimawandel": 10023,
      "Eff": 10024,
      "##leistung": 10025,
      "Heil": 10026,
      "wären": 10027,
      "Vorgehen": 10028,
      "welcher": 10029,
      "gekommen": 10030,
      "##ake": 10031,
      "li": 10032,
      "öff": 10033,
      "##atisch": 10034,
      "Japan": 10035,
      "##räume": 10036,
      "Teile": 10037,
      "that": 10038,
      "##ish": 10039,
      "##plätze": 10040,
      "sagt": 10041,
      "wollte": 10042,
      "stimme": 10043,
      "##gemeine": 10044,
      "komplex": 10045,
      "Ganz": 10046,
      "##rachte": 10047,
      "##demokra": 10048,
      "##artement": 10049,
      "Besitz": 10050,
      "##heim": 10051,
      "##service": 10052,
      "##verkehrs": 10053,
      "Sinn": 10054,
      "betonen": 10055,
      "##ID": 10056,
      "##licherweise": 10057,
      "kommenden": 10058,
      "Abgeordnete": 10059,
      "##luß": 10060,
      "Not": 10061,
      "Tradition": 10062,
      "Hy": 10063,
      "Vo": 10064,
      "Innovation": 10065,
      "Unabhäng": 10066,
      "absolut": 10067,
      "Herstellung": 10068,
      "Jetzt": 10069,
      "ging": 10070,
      "erstellt": 10071,
      "Leistung": 10072,
      "Autom": 10073,
[...]
