{
  "version": "1.0",
  "truncation": null,
  "padding": null,
  "added_tokens": [
    {
      "id": 0,
      "content": "[PAD]",
      "single_word": false,
      "lstrip": false,
      "rstrip": false,
      "normalized": false,
      "special": true
    },
    {
      "id": 1,
      "content": "[UNK]",
      "single_word": false,
      "lstrip": false,
      "rstrip": false,
      "normalized": false,
      "special": true
    },
    {
      "id": 2,
      "content": "[BOS]",
      "single_word": false,
      "lstrip": false,
      "rstrip": false,
      "normalized": false,
      "special": true
    },
    {
      "id": 3,
      "content": "[EOS]",
      "single_word": false,
      "lstrip": false,
      "rstrip": false,
      "normalized": false,
      "special": true
    }
  ],
  "normalizer": null,
  "pre_tokenizer": {
    "type": "Whitespace"
  },
  "post_processor": null,
  "decoder": null,
  "model": {
    "type": "WordPiece",
    "unk_token": "[UNK]",
    "continuing_subword_prefix": "##",
    "max_input_chars_per_word": 100,
    "vocab": {
      "[PAD]": 0,
      "[UNK]": 1,
      "[BOS]": 2,
      "[EOS]": 3,
      "!": 4,
      "\"": 5,
      "#": 6,
      "$": 7,
      "%": 8,
      "&": 9,
      "'": 10,
      "(": 11,
      ")": 12,
      "*": 13,
      "+": 14,
      ",": 15,
      "-": 16,
      ".": 17,
      "/": 18,
      "0": 19,
      "1": 20,
      "2": 21,
      "3": 22,
      "4": 23,
      "5": 24,
      "6": 25,
      "7": 26,
      "8": 27,
      "9": 28,
      ":": 29,
      ";": 30,
      "<": 31,
      "=": 32,
      ">": 33,
      "?": 34,
      "@": 35,
      "A": 36,
      "B": 37,
      "C": 38,
      "D": 39,
      "E": 40,
      "F": 41,
      "G": 42,
      "H": 43,
      "I": 44,
      "J": 45,
      "K": 46,
      "L": 47,
      "M": 48,
      "N": 49,
      "O": 50,
      "P": 51,
      "Q": 52,
      "R": 53,
      "S": 54,
      "T": 55,
      "U": 56,
      "V": 57,
      "W": 58,
      "X": 59,
      "Y": 60,
      "Z": 61,
      "[": 62,
      "\\": 63,
      "]": 64,
      "^": 65,
      "_": 66,
      "`": 67,
      "a": 68,
      "b": 69,
      "c": 70,
      "d": 71,
      "e": 72,
      "f": 73,
      "g": 74,
      "h": 75,
      "i": 76,
      "j": 77,
      "k": 78,
      "l": 79,
      "m": 80,
      "n": 81,
      "o": 82,
      "p": 83,
      "q": 84,
      "r": 85,
      "s": 86,
      "t": 87,
      "u": 88,
      "v": 89,
      "w": 90,
      "x": 91,
      "y": 92,
      "z": 93,
      "{": 94,
      "|": 95,
      "}": 96,
      "~": 97,
      "": 98,
      "": 99,
      "": 100,
      "": 101,
      "": 102,
      "": 103,
      "": 104,
      "": 105,
      "": 106,
      "": 107,
      "": 108,
      "": 109,
      "": 110,
      "": 111,
      "": 112,
      "": 113,
      "": 114,
      "": 115,
      "": 116,
      "": 117,
      "": 118,
      "": 119,
      "": 120,
      "": 121,
      "": 122,
      "¡": 123,
      "¢": 124,
      "£": 125,
      "¤": 126,
      "¥": 127,
      "¦": 128,
      "§": 129,
      "¨": 130,
      "©": 131,
      "ª": 132,
      "«": 133,
      "¬": 134,
      "­": 135,
      "®": 136,
      "¯": 137,
      "°": 138,
      "±": 139,
      "²": 140,
      "³": 141,
      "´": 142,
      "µ": 143,
      "¶": 144,
      "·": 145,
      "¸": 146,
      "¹": 147,
      "º": 148,
      "»": 149,
      "¼": 150,
      "½": 151,
      "¾": 152,
      "¿": 153,
      "À": 154,
      "Á": 155,
      "Â": 156,
      "Ã": 157,
      "Ä": 158,
      "Å": 159,
      "Æ": 160,
      "Ç": 161,
      "È": 162,
      "É": 163,
      "Ê": 164,
      "Ë": 165,
      "Ì": 166,
      "Í": 167,
      "Î": 168,
      "Ï": 169,
      "Ð": 170,
      "Ñ": 171,
      "Ò": 172,
      "Ó": 173,
      "Ô": 174,
      "Õ": 175,
      "Ö": 176,
      "×": 177,
      "Ø": 178,
      "Ù": 179,
      "Ú": 180,
      "Û": 181,
      "Ü": 182,
      "Ý": 183,
      "Þ": 184,
      "ß": 185,
      "à": 186,
      "á": 187,
      "â": 188,
      "ã": 189,
      "ä": 190,
      "å": 191,
      "æ": 192,
      "ç": 193,
      "è": 194,
      "é": 195,
      "ê": 196,
      "ë": 197,
      "ì": 198,
      "í": 199,
      "î": 200,
      "ï": 201,
      "ð": 202,
      "ñ": 203,
      "ò": 204,
      "ó": 205,
      "ô": 206,
      "õ": 207,
      "ö": 208,
      "÷": 209,
      "ø": 210,
      "ù": 211,
      "ú": 212,
      "û": 213,
      "ü": 214,
      "ý": 215,
      "þ": 216,
      "ÿ": 217,
      "Ā": 218,
      "ā": 219,
      "Ă": 220,
      "ă": 221,
      "Ą": 222,
      "ą": 223,
      "Ć": 224,
      "ć": 225,
      "Ĉ": 226,
      "ĉ": 227,
      "Ċ": 228,
      "Č": 229,
      "č": 230,
      "Ď": 231,
      "ď": 232,
      "Đ": 233,
      "đ": 234,
      "Ē": 235,
      "ē": 236,
      "ĕ": 237,
      "Ė": 238,
      "ė": 239,
      "Ę": 240,
      "ę": 241,
      "Ě": 242,
      "ě": 243,
      "ĝ": 244,
      "Ğ": 245,
      "ğ": 246,
      "Ġ": 247,
      "ġ": 248,
      "Ģ": 249,
      "ģ": 250,
      "ĥ": 251,
      "Ħ": 252,
      "ħ": 253,
      "ĩ": 254,
      "Ī": 255,
      "ī": 256,
      "ĭ": 257,
      "Į": 258,
      "į": 259,
      "İ": 260,
      "ı": 261,
      "ĵ": 262,
      "ķ": 263,
      "ĸ": 264,
      "ĺ": 265,
      "Ļ": 266,
      "ļ": 267,
      "Ľ": 268,
      "ľ": 269,
      "Ł": 270,
      "ł": 271,
      "Ń": 272,
      "ń": 273,
      "Ņ": 274,
      "ņ": 275,
      "Ň": 276,
      "ň": 277,
      "ŋ": 278,
      "Ō": 279,
      "ō": 280,
      "ŏ": 281,
      "Ő": 282,
      "ő": 283,
      "Œ": 284,
      "œ": 285,
      "ŕ": 286,
      "Ř": 287,
      "ř": 288,
      "Ś": 289,
      "ś": 290,
      "ŝ": 291,
      "Ş": 292,
      "ş": 293,
      "Š": 294,
      "š": 295,
      "Ţ": 296,
      "ţ": 297,
      "Ť": 298,
      "ť": 299,
      "ũ": 300,
      "Ū": 301,
      "ū": 302,
      "ŭ": 303,
      "Ů": 304,
      "ů": 305,
      "Ű": 306,
      "ű": 307,
      "Ų": 308,
      "ų": 309,
      "ŵ": 310,
      "ŷ": 311,
      "Ÿ": 312,
      "Ź": 313,
      "ź": 314,
      "Ż": 315,
      "ż": 316,
      "Ž": 317,
      "ž": 318,
      "ſ": 319,
      "Ɔ": 320,
      "Ƒ": 321,
      "ƒ": 322,
      "Ɠ": 323,
      "Ɩ": 324,
      "Ƙ": 325,
      "ƛ": 326,
      "Ɲ": 327,
      "Ơ": 328,
      "ơ": 329,
      "Ʀ": 330,
      "Ƭ": 331,
      "ư": 332,
      "ǎ": 333,
      "ǐ": 334,
      "ǒ": 335,
      "ǔ": 336,
      "ǟ": 337,
      "ǣ": 338,
      "ǫ": 339,
      "Ǵ": 340,
      "ǵ": 341,
      "Ǻ": 342,
      "ȃ": 343,
      "ș": 344,
      "ț": 345,
      "Ȣ": 346,
      "Ȥ": 347,
      "ɐ": 348,
      "ɑ": 349,
      "ɒ": 350,
      "ɔ": 351,
      "ɕ": 352,
      "ə": 353,
      "ɚ": 354,
      "ɛ": 355,
      "ɡ": 356,
      "ɣ": 357,
      "ɤ": 358,
      "ɨ": 359,
      "ɪ": 360,
      "ɫ": 361,
      "ɬ": 362,
      "ɴ": 363,
      "ɵ": 364,
      "ɹ": 365,
      "ɾ": 366,
      "ʀ": 367,
      "ʁ": 368,
      "ʃ": 369,
      "ʊ": 370,
      "ʋ": 371,
      "ʌ": 372,
      "ʐ": 373,
      "ʒ": 374,
      "ʔ": 375,
      "ʦ": 376,
      "ʲ": 377,
      "ʻ": 378,
      "ʼ": 379,
      "ʾ": 380,
      "ʿ": 381,
      "ˆ": 382,
      "ˈ": 383,
      "ˌ": 384,
      "ː": 385,
      "ˑ": 386,
      "˙": 387,
      "˚": 388,
      "˛": 389,
      "˜": 390,
      "˝": 391,
      "ˤ": 392,
      "̀": 393,
      "́": 394,
      "̂": 395,
      "̃": 396,
      "̄": 397,
      "̆": 398,
      "̇": 399,
      "̈": 400,
      "̍": 401,
      "̡": 402,
      "̣": 403,
      "̤": 404,
      "̧": 405,
      "̱": 406,
      "͘": 407,
      "͡": 408,
      "΄": 409,
      "Ά": 410,
      "Έ": 411,
      "Ό": 412,
      "Ώ": 413,
      "ΐ": 414,
      "Α": 415,
      "Β": 416,
      "Γ": 417,
      "Δ": 418,
      "Ε": 419,
      "Ζ": 420,
      "Η": 421,
      "Θ": 422,
      "Ι": 423,
      "Κ": 424,
      "Λ": 425,
      "Μ": 426,
      "Ν": 427,
      "Ο": 428,
      "Π": 429,
      "Ρ": 430,
      "Σ": 431,
      "Τ": 432,
      "Υ": 433,
      "Φ": 434,
      "Χ": 435,
      "Ω": 436,
      "ά": 437,
      "έ": 438,
      "ή": 439,
      "ί": 440,
      "α": 441,
      "β": 442,
      "γ": 443,
      "δ": 444,
      "ε": 445,
      "ζ": 446,
      "η": 447,
      "θ": 448,
      "ι": 449,
      "κ": 450,
      "λ": 451,
      "μ": 452,
      "ν": 453,
      "ξ": 454,
      "ο": 455,
      "π": 456,
      "ρ": 457,
      "ς": 458,
      "σ": 459,
      "τ": 460,
      "υ": 461,
      "φ": 462,
      "χ": 463,
      "ψ": 464,
      "ω": 465,
      "ϊ": 466,
      "ό": 467,
      "ύ": 468,
      "ώ": 469,
      "Ё": 470,
      "Ђ": 471,
      "Ѓ": 472,
      "Є": 473,
      "Ѕ": 474,
      "І": 475,
      "Ј": 476,
      "Љ": 477,
      "Њ": 478,
      "Ћ": 479,
      "Ќ": 480,
      "Ў": 481,
      "Џ": 482,
      "А": 483,
      "Б": 484,
      "В": 485,
      "Г": 486,
      "Д": 487,
      "Е": 488,
      "Ж": 489,
      "З": 490,
      "И": 491,
      "Й": 492,
      "К": 493,
      "Л": 494,
      "М": 495,
      "Н": 496,
      "О": 497,
      "П": 498,
      "Р": 499,
      "С": 500,
      "Т": 501,
      "У": 502,
      "Ф": 503,
      "Х": 504,
      "Ц": 505,
      "Ч": 506,
      "Ш": 507,
      "Щ": 508,
      "Ы": 509,
      "Ь": 510,
      "Э": 511,
      "Ю": 512,
      "Я": 513,
      "а": 514,
      "б": 515,
      "в": 516,
      "г": 517,
      "д": 518,
      "е": 519,
      "ж": 520,
      "з": 521,
      "и": 522,
      "й": 523,
      "к": 524,
      "л": 525,
      "м": 526,
      "н": 527,
      "о": 528,
      "п": 529,
      "р": 530,
      "с": 531,
      "т": 532,
      "у": 533,
      "ф": 534,
      "х": 535,
      "ц": 536,
      "ч": 537,
      "ш": 538,
      "щ": 539,
      "ъ": 540,
      "ы": 541,
      "ь": 542,
      "э": 543,
      "ю": 544,
      "я": 545,
      "ё": 546,
      "ђ": 547,
      "ѓ": 548,
      "є": 549,
      "ѕ": 550,
      "і": 551,
      "ї": 552,
      "ј": 553,
      "љ": 554,
      "њ": 555,
      "ћ": 556,
      "ќ": 557,
      "ў": 558,
      "Ѳ": 559,
      "ѳ": 560,
      "Ґ": 561,
      "ґ": 562,
      "ғ": 563,
      "ҙ": 564,
      "қ": 565,
      "Ҡ": 566,
      "ҡ": 567,
      "ң": 568,
      "ү": 569,
      "ұ": 570,
      "Ҳ": 571,
      "ҳ": 572,
      "һ": 573,
      "ә": 574,
      "ө": 575,
      "ӳ": 576,
      "ְ": 577,
      "ֲ": 578,
      "ִ": 579,
      "ֵ": 580,
      "ֶ": 581,
      "ַ": 582,
      "ָ": 583,
      "ֹ": 584,
      "ּ": 585,
      "ֿ": 586,
      "ׁ": 587,
      "א": 588,
      "ב": 589,
      "ג": 590,
      "ד": 591,
      "ה": 592,
      "ו": 593,
      "ז": 594,
      "ח": 595,
      "ט": 596,
      "י": 597,
      "כ": 598,
      "ל": 599,
      "ם": 600,
      "מ": 601,
      "ן": 602,
      "נ": 603,
      "ס": 604,
      "ע": 605,
      "פ": 606,
      "ץ": 607,
      "צ": 608,
      "ק": 609,
      "ר": 610,
      "ש": 611,
      "ת": 612,
      "،": 613,
      "؛": 614,
      "ء": 615,
      "آ": 616,
      "أ": 617,
      "إ": 618,
      "ئ": 619,
      "ا": 620,
      "ب": 621,
      "ة": 622,
      "ت": 623,
      "ث": 624,
      "ج": 625,
      "ح": 626,
      "خ": 627,
      "د": 628,
      "ذ": 629,
      "ر": 630,
      "ز": 631,
      "س": 632,
      "ش": 633,
      "ص": 634,
      "ض": 635,
      "ط": 636,
      "ظ": 637,
      "ع": 638,
      "غ": 639,
      "ف": 640,
      "ق": 641,
      "ك": 642,
      "ل": 643,
      "م": 644,
      "ن": 645,
      "ه": 646,
      "و": 647,
      "ى": 648,
      "ي": 649,
      "ً": 650,
      "ٍ": 651,
      "َ": 652,
      "ُ": 653,
      "ِ": 654,
      "ّ": 655,
      "ْ": 656,
      "ٹ": 657,
      "ټ": 658,
      "پ": 659,
      "ځ": 660,
      "چ": 661,
      "ڠ": 662,
      "ڤ": 663,
      "ک": 664,
      "ڬ": 665,
      "ڭ": 666,
      "گ": 667,
      "ھ": 668,
      "ہ": 669,
      "ۂ": 670,
      "ۇ": 671,
      "ی": 672,
      "ې": 673,
      "ە": 674,
      "۞": 675,
      "۩": 676,
      "۰": 677,
      "۱": 678,
      "۲": 679,
      "۴": 680,
      "۵": 681,
      "۷": 682,
      "۸": 683,
      "۹": 684,
      "ރ": 685,
      "ކ": 686,
      "އ": 687,
      "މ": 688,
      "ާ": 689,
      "ި": 690,
      "ެ": 691,
      "ߧ": 692,
      "ं": 693,
      "अ": 694,
      "आ": 695,
      "ई": 696,
      "क": 697,
      "च": 698,
      "छ": 699,
      "ज": 700,
      "ञ": 701,
      "ट": 702,
      "ण": 703,
      "त": 704,
      "थ": 705,
      "द": 706,
      "ध": 707,
      "न": 708,
      "प": 709,
      "ब": 710,
      "म": 711,
      "य": 712,
      "र": 713,
      "ल": 714,
      "व": 715,
      "श": 716,
      "ष": 717,
      "स": 718,
      "ह": 719,
      "ा": 720,
      "ि": 721,
      "ी": 722,
      "ु": 723,
      "े": 724,
      "ो": 725,
      "्": 726,
      "ॐ": 727,
      "०": 728,
      "१": 729,
      "२": 730,
      "३": 731,
      "५": 732,
      "९": 733,
      "আ": 734,
      "ই": 735,
      "এ": 736,
      "ক": 737,
      "গ": 738,
      "চ": 739,
      "ট": 740,
      "ত": 741,
      "ন": 742,
      "প": 743,
      "ব": 744,
      "ম": 745,
      "য": 746,
      "র": 747,
      "ল": 748,
      "ষ": 749,
      "হ": 750,
      "়": 751,
      "া": 752,
      "ি": 753,
      "ু": 754,
      "ো": 755,
      "্": 756,
      "ৰ": 757,
      "ં": 758,
      "અ": 759,
      "ક": 760,
      "જ": 761,
      "ત": 762,
      "મ": 763,
      "ય": 764,
      "ર": 765,
      "સ": 766,
      "ા": 767,
      "િ": 768,
      "ુ": 769,
      "ે": 770,
      "્": 771,
      "૦": 772,
      "૧": 773,
      "૨": 774,
      "க": 775,
      "ங": 776,
      "ச": 777,
      "ட": 778,
      "த": 779,
      "ன": 780,
      "ப": 781,
      "ம": 782,
      "ய": 783,
      "ர": 784,
      "ல": 785,
      "வ": 786,
      "ஷ": 787,
      "ா": 788,
      "ி": 789,
      "ு": 790,
      "ூ": 791,
      "ெ": 792,
      "ை": 793,
      "ோ": 794,
      "்": 795,
      "ం": 796,
      "ఆ": 797,
      "క": 798,
      "గ": 799,
      "జ": 800,
      "డ": 801,
      "ద": 802,
      "ధ": 803,
      "న": 804,
      "ప": 805,
      "ర": 806,
      "శ": 807,
      "ా": 808,
      "ు": 809,
      "ే": 810,
      "ొ": 811,
      "్": 812,
      "ಐ": 813,
      "ಯ": 814,
      "ರ": 815,
      "ವ": 816,
      "ಶ": 817,
      "ಾ": 818,
      "ೈ": 819,
      "್": 820,
      "೦": 821,
      "೧": 822,
      "೨": 823,
      "೩": 824,
      "೫": 825,
      "೬": 826,
      "೮": 827,
      "೯": 828,
      "അ": 829,
      "എ": 830,
      "ക": 831,
      "ത": 832,
      "ദ": 833,
      "ന": 834,
      "പ": 835,
      "മ": 836,
      "യ": 837,
      "ല": 838,
      "വ": 839,
      "ഷ": 840,
      "സ": 841,
      "ി": 842,
      "ീ": 843,
      "ു": 844,
      "ോ": 845,
      "്": 846,
      "ก": 847,
      "ข": 848,
      "ค": 849,
      "ง": 850,
      "จ": 851,
      "ฉ": 852,
      "ช": 853,
      "ซ": 854,
      "ญ": 855,
      "ฎ": 856,
      "ฏ": 857,
      "ฐ": 858,
      "ฑ": 859,
      "ฒ": 860,
      "ณ": 861,
      "ด": 862,
      "ต": 863,
      "ถ": 864,
      "ท": 865,
      "ธ": 866,
      "น": 867,
      "บ": 868,
      "ป": 869,
      "ผ": 870,
      "ฝ": 871,
      "พ": 872,
      "ฟ": 873,
      "ภ": 874,
      "ม": 875,
      "ย": 876,
      "ร": 877,
      "ฤ": 878,
      "ล": 879,
      "ว": 880,
      "ศ": 881,
      "ษ": 882,
      "ส": 883,
      "ห": 884,
      "อ": 885,
      "ะ": 886,
      "ั": 887,
      "า": 888,
      "ำ": 889,
      "ิ": 890,
      "ี": 891,
      "ึ": 892,
      "ื": 893,
      "ุ": 894,
      "ู": 895,
      "฿": 896,
      "เ": 897,
      "แ": 898,
      "โ": 899,
      "ใ": 900,
      "ไ": 901,
      "ๆ": 902,
      "็": 903,
      "่": 904,
      "้": 905,
      "๊": 906,
      "๋": 907,
      "์": 908,
      "๑": 909,
      "ຂ": 910,
      "ຄ": 911,
      "ງ": 912,
      "ຈ": 913,
      "ດ": 914,
      "ຖ": 915,
      "ນ": 916,
      "ບ": 917,
      "ມ": 918,
      "ລ": 919,
      "ວ": 920,
      "ັ": 921,
      "າ": 922,
      "ຸ": 923,
      "ົ": 924,
      "ຽ": 925,
      "ເ": 926,
      "້": 927,
      "ໜ": 928,
      "་": 929,
      "ཏ": 930,
      "ད": 931,
      "ན": 932,
      "བ": 933,
      "མ": 934,
      "ཚ": 935,
      "འ": 936,
      "ལ": 937,
      "ས": 938,
      "ཱ": 939,
      "ི": 940,
      "ོ": 941,
      "ྔ": 942,
      "ླ": 943,
      "န": 944,
      "ရ": 945,
      "ဝ": 946,
      "သ": 947,
      "ဟ": 948,
      "ေ": 949,
      "္": 950,
      "ა": 951,
      "ბ": 952,
      "გ": 953,
      "დ": 954,
      "ე": 955,
      "ვ": 956,
      "ზ": 957,
      "თ": 958,
      "ი": 959,
      "კ": 960,
      "ლ": 961,
      "მ": 962,
      "ნ": 963,
      "ო": 964,
      "პ": 965,
      "რ": 966,
      "ს": 967,
      "ტ": 968,
      "უ": 969,
      "ქ": 970,
      "ღ": 971,
      "შ": 972,
      "ც": 973,
      "ძ": 974,
      "წ": 975,
      "ხ": 976,
      "ჯ": 977,
      "ህ": 978,
      "ሊ": 979,
      "ል": 980,
      "ሓ": 981,
      "ሕ": 982,
      "መ": 983,
      "ሙ": 984,
      "ሜ": 985,
      "ም": 986,
      "ሥ": 987,
      "ረ": 988,
      "ሪ": 989,
      "ራ": 990,
      "ር": 991,
      "ሰ": 992,
      "ሴ": 993,
      "ሻ": 994,
      "ሽ": 995,
      "ቀ": 996,
      "ቐ": 997,
      "በ": 998,
      "ቢ": 999,
      "ባ": 1000,
      "ተ": 1001,
      "ት": 1002,
      "ቶ": 1003,
      "ነ": 1004,
      "ን": 1005,
      "አ": 1006,
      "ኣ": 1007,
      "እ": 1008,
      "ኦ": 1009,
      "ካ": 1010,
      "ክ": 1011,
      "ዋ": 1012,
      "ው": 1013,
      "ዓ": 1014,
      "ዕ": 1015,
      "የ": 1016,
      "ይ": 1017,
      "ደ": 1018,
      "ዲ": 1019,
      "ድ": 1020,
      "ገ": 1021,
      "ጋ": 1022,
      "ጨ": 1023,
      "ጽ": 1024,
      "ፅ": 1025,
      "ፈ": 1026,
      "ፍ": 1027,
      "፣": 1028,
      "ᐃ": 1029,
      "ᐊ": 1030,
      "ᑦ": 1031,
      "ᑲ": 1032,
      "ᒃ": 1033,
      "ᒥ": 1034,
      "ᓄ": 1035,
      "ᓕ": 1036,
      "ḇ": 1037,
      "ḏ": 1038,
      "ḗ": 1039,
      "Ḥ": 1040,
      "ḥ": 1041,
      "Ḫ": 1042,
      "ḫ": 1043,
      "ḳ": 1044,
      "ṃ": 1045,
      "ṇ": 1046,
      "ṛ": 1047,
      "ṭ": 1048,
      "ṳ": 1049,
      "ẋ": 1050,
      "ạ": 1051,
      "ả": 1052,
      "ấ": 1053,
      "ầ": 1054,
      "ậ": 1055,
      "ắ": 1056,
      "ằ": 1057,
      "Ẳ": 1058,
      "ặ": 1059,
      "ẻ": 1060,
      "ẽ": 1061,
      "ế": 1062,
      "ề": 1063,
      "ể": 1064,
      "ễ": 1065,
      "ệ": 1066,
      "ỉ": 1067,
      "ị": 1068,
      "Ọ": 1069,
      "ọ": 1070,
      "ỏ": 1071,
      "ố": 1072,
      "ồ": 1073,
      "ổ": 1074,
      "ộ": 1075,
      "ớ": 1076,
      "ờ": 1077,
      "ỡ": 1078,
      "ợ": 1079,
      "ụ": 1080,
      "ủ": 1081,
      "ứ": 1082,
      "ừ": 1083,
      "ử": 1084,
      "ữ": 1085,
      "ự": 1086,
      "ỹ": 1087,
      "ἀ": 1088,
      "ἁ": 1089,
      "ἄ": 1090,
      "Ἀ": 1091,
      "ἐ": 1092,
      "ἑ": 1093,
      "Ἔ": 1094,
      "ἠ": 1095,
      "ἡ": 1096,
      "ἦ": 1097,
      "Ἡ": 1098,
      "ἰ": 1099,
      "Ἱ": 1100,
      "Ὑ": 1101,
      "ά": 1102,
      "ὶ": 1103,
      "ῆ": 1104,
      "ῖ": 1105,
      "ῥ": 1106,
      "​": 1107,
      "‌": 1108,
      "‍": 1109,
      "‎": 1110,
      "‏": 1111,
      "‐": 1112,
      "‑": 1113,
      "–": 1114,
      "—": 1115,
      "―": 1116,
      "‖": 1117,
      "‘": 1118,
      "’": 1119,
      "‚": 1120,
      "‛": 1121,
      "“": 1122,
      "”": 1123,
      "„": 1124,
      "‟": 1125,
      "†": 1126,
      "‡": 1127,
      "•": 1128,
      "…": 1129,
      "‪": 1130,
      "‬": 1131,
      "‭": 1132,
      "‰": 1133,
      "′": 1134,
      "″": 1135,
      "‶": 1136,
      "‹": 1137,
      "›": 1138,
      "※": 1139,
      "‼": 1140,
      "‽": 1141,
      "⁄": 1142,
      "ⁿ": 1143,
      "₁": 1144,
      "₂": 1145,
      "₠": 1146,
      "₣": 1147,
      "₤": 1148,
      "₩": 1149,
      "₪": 1150,
      "€": 1151,
      "₴": 1152,
      "₵": 1153,
      "⃛": 1154,
      "℃": 1155,
      "ℓ": 1156,
      "℔": 1157,
      "№": 1158,
      "™": 1159,
      "Ω": 1160,
      "℮": 1161,
      "⅓": 1162,
      "⅔": 1163,
      "⅛": 1164,
      "Ⅱ": 1165,
      "←": 1166,
      "↑": 1167,
      "→": 1168,
      "↓": 1169,
      "↔": 1170,
      "↧": 1171,
      "⇒": 1172,
      "⇔": 1173,
      "⇗": 1174,
      "⇢": 1175,
      "∀": 1176,
      "∃": 1177,
      "∈": 1178,
      "∑": 1179,
      "−": 1180,
      "√": 1181,
      "∞": 1182,
      "∴": 1183,
      "∶": 1184,
      "∼": 1185,
      "≈": 1186,
      "≠": 1187,
      "≡": 1188,
      "≤": 1189,
      "≥": 1190,
      "⋅": 1191,
      "⌃": 1192,
      "⌘": 1193,
      "①": 1194,
      "②": 1195,
      "③": 1196,
      "─": 1197,
      "│": 1198,
      "┌": 1199,
      "┐": 1200,
      "└": 1201,
      "┘": 1202,
      "┬": 1203,
      "┴": 1204,
      "╚": 1205,
      "╞": 1206,
      "╩": 1207,
      "█": 1208,
      "░": 1209,
      "▒": 1210,
      "■": 1211,
      "□": 1212,
      "▪": 1213,
      "▲": 1214,
      "▸": 1215,
      "►": 1216,
      "▼": 1217,
      "◆": 1218,
      "◇": 1219,
      "◈": 1220,
      "◊": 1221,
      "○": 1222,
      "◎": 1223,
      "●": 1224,
      "◙": 1225,
      "◦": 1226,
      "★": 1227,
      "☆": 1228,
      "☎": 1229,
      "☏": 1230,
      "☑": 1231,
      "☯": 1232,
      "☺": 1233,
      "☻": 1234,
      "☼": 1235,
      "♀": 1236,
      "♂": 1237,
      "♠": 1238,
      "♣": 1239,
      "♥": 1240,
      "♦": 1241,
      "♪": 1242,
      "♫": 1243,
      "✿": 1244,
      "➔": 1245,
      "➚": 1246,
      "➲": 1247,
      "Ⰶ": 1248,
      "、": 1249,
      "。": 1250,
      "々": 1251,
      "《": 1252,
      "》": 1253,
      "「": 1254,
      "」": 1255,
      "『": 1256,
      "』": 1257,
      "【": 1258,
      "】": 1259,
      "〔": 1260,
      "〕": 1261,
      "〜": 1262,
      "ぁ": 1263,
      "あ": 1264,
      "ぃ": 1265,
      "い": 1266,
      "う": 1267,
      "ぇ": 1268,
      "え": 1269,
      "お": 1270,
      "か": 1271,
      "が": 1272,
      "き": 1273,
      "ぎ": 1274,
      "く": 1275,
      "ぐ": 1276,
      "け": 1277,
      "げ": 1278,
      "こ": 1279,
      "ご": 1280,
      "さ": 1281,
      "ざ": 1282,
      "し": 1283,
      "じ": 1284,
      "す": 1285,
      "ず": 1286,
      "せ": 1287,
      "ぜ": 1288,
      "そ": 1289,
      "ぞ": 1290,
      "た": 1291,
      "だ": 1292,
      "ち": 1293,
      "ぢ": 1294,
      "っ": 1295,
      "つ": 1296,
      "づ": 1297,
      "て": 1298,
      "で": 1299,
      "と": 1300,
      "ど": 1301,
      "な": 1302,
      "に": 1303,
      "ぬ": 1304,
      "ね": 1305,
      "の": 1306,
      "は": 1307,
      "ば": 1308,
      "ひ": 1309,
      "び": 1310,
      "ふ": 1311,
      "ぶ": 1312,
      "ぷ": 1313,
      "へ": 1314,
      "べ": 1315,
      "ほ": 1316,
      "ぼ": 1317,
      "ま": 1318,
      "み": 1319,
      "む": 1320,
      "め": 1321,
      "も": 1322,
      "ゃ": 1323,
      "や": 1324,
      "ゅ": 1325,
      "ゆ": 1326,
      "ょ": 1327,
      "よ": 1328,
      "ら": 1329,
      "り": 1330,
      "る": 1331,
      "れ": 1332,
      "ろ": 1333,
      "わ": 1334,
      "ゐ": 1335,
      "ゑ": 1336,
      "を": 1337,
      "ん": 1338,
      "ゔ": 1339,
      "゛": 1340,
      "゜": 1341,
      "ァ": 1342,
      "ア": 1343,
      "ィ": 1344,
      "イ": 1345,
      "ゥ": 1346,
      "ウ": 1347,
      "ェ": 1348,
      "エ": 1349,
      "ォ": 1350,
      "オ": 1351,
      "カ": 1352,
      "ガ": 1353,
      "キ": 1354,
      "ギ": 1355,
      "ク": 1356,
      "グ": 1357,
      "ケ": 1358,
      "ゲ": 1359,
      "コ": 1360,
      "ゴ": 1361,
      "サ": 1362,
      "ザ": 1363,
      "シ": 1364,
      "ジ": 1365,
      "ス": 1366,
      "ズ": 1367,
      "セ": 1368,
      "ゼ": 1369,
      "ソ": 1370,
      "ゾ": 1371,
      "タ": 1372,
      "ダ": 1373,
      "チ": 1374,
      "ッ": 1375,
      "ツ": 1376,
      "テ": 1377,
      "デ": 1378,
      "ト": 1379,
      "ド": 1380,
      "ナ": 1381,
      "ニ": 1382,
      "ヌ": 1383,
      "ネ": 1384,
      "ノ": 1385,
      "ハ": 1386,
      "バ": 1387,
      "パ": 1388,
      "ヒ": 1389,
      "ビ": 1390,
      "ピ": 1391,
      "フ": 1392,
      "ブ": 1393,
      "プ": 1394,
      "ヘ": 1395,
      "ベ": 1396,
      "ペ": 1397,
      "ホ": 1398,
      "マ": 1399,
      "ミ": 1400,
      "ム": 1401,
      "メ": 1402,
      "モ": 1403,
      "ャ": 1404,
      "ュ": 1405,
      "ユ": 1406,
      "ョ": 1407,
      "ヨ": 1408,
      "ラ": 1409,
      "リ": 1410,
      "ル": 1411,
      "レ": 1412,
      "ロ": 1413,
      "ワ": 1414,
      "ン": 1415,
      "ヴ": 1416,
      "・": 1417,
      "ー": 1418,
      "ㄅ": 1419,
      "ㄆ": 1420,
      "ㄇ": 1421,
      "ㄈ": 1422,
      "ㄤ": 1423,
      "㎡": 1424,
      "一": 1425,
      "七": 1426,
      "万": 1427,
      "三": 1428,
      "上": 1429,
      "下": 1430,
      "不": 1431,
      "与": 1432,
      "专": 1433,
      "世": 1434,
      "丘": 1435,
      "业": 1436,
      "东": 1437,
      "两": 1438,
      "严": 1439,
      "丨": 1440,
      "个": 1441,
      "中": 1442,
      "丰": 1443,
      "临": 1444,
      "丸": 1445,
      "丹": 1446,
      "为": 1447,
      "主": 1448,
      "丽": 1449,
      "举": 1450,
      "久": 1451,
      "么": 1452,
      "义": 1453,
      "之": 1454,
      "乌": 1455,
      "乎": 1456,
      "乏": 1457,
      "乐": 1458,
      "乗": 1459,
      "乘": 1460,
      "乙": 1461,
      "九": 1462,
      "也": 1463,
      "乡": 1464,
      "书": 1465,
      "买": 1466,
      "乱": 1467,
      "乾": 1468,
      "了": 1469,
      "争": 1470,
      "事": 1471,
      "二": 1472,
      "于": 1473,
      "云": 1474,
      "互": 1475,
      "五": 1476,
      "井": 1477,
      "亚": 1478,
      "些": 1479,
      "亜": 1480,
      "交": 1481,
      "产": 1482,
      "京": 1483,
      "人": 1484,
      "亿": 1485,
      "什": 1486,
      "仁": 1487,
      "仅": 1488,
      "今": 1489,
      "介": 1490,
      "仍": 1491,
      "从": 1492,
      "他": 1493,
      "付": 1494,
      "仙": 1495,
      "仝": 1496,
      "代": 1497,
      "以": 1498,
      "仪": 1499,
      "们": 1500,
      "仮": 1501,
      "仲": 1502,
      "件": 1503,
      "价": 1504,
      "任": 1505,
      "伊": 1506,
      "伏": 1507,
      "伐": 1508,
      "休": 1509,
      "众": 1510,
      "会": 1511,
      "伝": 1512,
      "伟": 1513,
      "传": 1514,
      "伯": 1515,
      "估": 1516,
      "伴": 1517,
      "伸": 1518,
      "似": 1519,
      "但": 1520,
      "位": 1521,
      "低": 1522,
      "住": 1523,
      "佐": 1524,
      "佑": 1525,
      "体": 1526,
      "何": 1527,
      "余": 1528,
      "作": 1529,
      "你": 1530,
      "佰": 1531,
      "使": 1532,
      "例": 1533,
      "侍": 1534,
      "供": 1535,
      "依": 1536,
      "便": 1537,
      "俄": 1538,
      "俊": 1539,
      "保": 1540,
      "信": 1541,
      "修": 1542,
      "倉": 1543,
      "個": 1544,
      "倍": 1545,
      "倒": 1546,
      "候": 1547,
      "值": 1548,
      "假": 1549,
      "做": 1550,
      "健": 1551,
      "側": 1552,
      "備": 1553,
      "储": 1554,
      "傳": 1555,
      "像": 1556,
      "僕": 1557,
      "儀": 1558,
      "元": 1559,
      "先": 1560,
      "光": 1561,
      "克": 1562,
      "免": 1563,
      "入": 1564,
      "內": 1565,
      "全": 1566,
      "兩": 1567,
      "八": 1568,
      "公": 1569,
      "六": 1570,
      "兰": 1571,
      "共": 1572,
      "关": 1573,
      "兴": 1574,
      "兵": 1575,
      "其": 1576,
      "具": 1577,
      "养": 1578,
      "兽": 1579,
      "内": 1580,
      "円": 1581,
      "冊": 1582,
      "再": 1583,
      "军": 1584,
      "农": 1585,
      "冤": 1586,
      "冰": 1587,
      "决": 1588,
      "况": 1589,
      "冷": 1590,
      "净": 1591,
      "凄": 1592,
      "准": 1593,
      "凍": 1594,
      "减": 1595,
      "几": 1596,
      "凸": 1597,
      "出": 1598,
      "刀": 1599,
      "分": 1600,
      "切": 1601,
      "刑": 1602,
      "列": 1603,
      "刘": 1604,
      "则": 1605,
      "刚": 1606,
      "判": 1607,
      "別": 1608,
      "利": 1609,
      "别": 1610,
      "到": 1611,
      "制": 1612,
      "刺": 1613,
      "則": 1614,
      "前": 1615,
      "剑": 1616,
      "剣": 1617,
      "剥": 1618,
      "剧": 1619,
      "剩": 1620,
      "割": 1621,
      "劇": 1622,
      "劉": 1623,
      "力": 1624,
      "功": 1625,
      "加": 1626,
      "务": 1627,
      "动": 1628,
      "助": 1629,
      "努": 1630,
      "劳": 1631,
      "势": 1632,
      "動": 1633,
      "勝": 1634,
      "勞": 1635,
      "勢": 1636,
      "勿": 1637,
      "包": 1638,
      "化": 1639,
      "北": 1640,
      "匡": 1641,
      "区": 1642,
      "医": 1643,
      "匿": 1644,
      "區": 1645,
      "十": 1646,
      "千": 1647,
      "升": 1648,
      "半": 1649,
      "卍": 1650,
      "华": 1651,
      "协": 1652,
      "卐": 1653,
      "卓": 1654,
      "单": 1655,
      "卖": 1656,
      "南": 1657,
      "博": 1658,
      "卡": 1659,
      "卦": 1660,
      "卫": 1661,
      "印": 1662,
      "危": 1663,
      "即": 1664,
      "却": 1665,
      "厂": 1666,
      "原": 1667,
      "去": 1668,
      "参": 1669,
      "及": 1670,
      "友": 1671,
      "双": 1672,
      "反": 1673,
      "发": 1674,
      "取": 1675,
      "受": 1676,
      "变": 1677,
      "叡": 1678,
      "口": 1679,
      "古": 1680,
      "另": 1681,
      "只": 1682,
      "叫": 1683,
      "可": 1684,
      "台": 1685,
      "史": 1686,
      "右": 1687,
      "号": 1688,
      "司": 1689,
      "吃": 1690,
      "各": 1691,
      "合": 1692,
      "吉": 1693,
      "同": 1694,
      "名": 1695,
      "后": 1696,
      "向": 1697,
      "吗": 1698,
      "君": 1699,
      "否": 1700,
      "吧": 1701,
      "吨": 1702,
      "含": 1703,
      "听": 1704,
      "吳": 1705,
      "吴": 1706,
      "吹": 1707,
      "吾": 1708,
      "呀": 1709,
      "呂": 1710,
      "呆": 1711,
      "呉": 1712,
      "告": 1713,
      "呑": 1714,
      "员": 1715,
      "周": 1716,
      "味": 1717,
      "呼": 1718,
      "命": 1719,
      "和": 1720,
      "咬": 1721,
      "品": 1722,
      "哈": 1723,
      "响": 1724,
      "哥": 1725,
      "唐": 1726,
      "售": 1727,
      "唸": 1728,
      "商": 1729,
      "問": 1730,
      "啦": 1731,
      "喂": 1732,
      "善": 1733,
      "喇": 1734,
      "喜": 1735,
      "喫": 1736,
      "嘉": 1737,
      "嘛": 1738,
      "嘟": 1739,
      "噌": 1740,
      "噛": 1741,
      "器": 1742,
      "嚴": 1743,
      "四": 1744,
      "回": 1745,
      "因": 1746,
      "囧": 1747,
      "园": 1748,
      "困": 1749,
      "国": 1750,
      "图": 1751,
      "圆": 1752,
      "國": 1753,
      "圍": 1754,
      "園": 1755,
      "圓": 1756,
      "圖": 1757,
      "土": 1758,
      "在": 1759,
      "地": 1760,
      "圳": 1761,
      "场": 1762,
      "坂": 1763,
      "均": 1764,
      "坐": 1765,
      "块": 1766,
      "坝": 1767,
      "坡": 1768,
      "坤": 1769,
      "坪": 1770,
      "型": 1771,
      "垣": 1772,
      "城": 1773,
      "埔": 1774,
      "域": 1775,
      "基": 1776,
      "堂": 1777,
      "堆": 1778,
      "堤": 1779,
      "堰": 1780,
      "報": 1781,
      "場": 1782,
      "塊": 1783,
      "塗": 1784,
      "塞": 1785,
      "塩": 1786,
      "塾": 1787,
      "増": 1788,
      "增": 1789,
      "壊": 1790,
      "士": 1791,
      "売": 1792,
      "壳": 1793,
      "壹": 1794,
      "壽": 1795,
      "处": 1796,
      "备": 1797,
      "変": 1798,
      "复": 1799,
      "夕": 1800,
      "外": 1801,
      "多": 1802,
      "夛": 1803,
      "夜": 1804,
      "够": 1805,
      "夢": 1806,
      "大": 1807,
      "天": 1808,
      "太": 1809,
      "夫": 1810,
      "央": 1811,
      "头": 1812,
      "夷": 1813,
      "夹": 1814,
      "奇": 1815,
      "奈": 1816,
      "套": 1817,
      "奚": 1818,
      "女": 1819,
      "奶": 1820,
      "好": 1821,
      "如": 1822,
      "妖": 1823,
      "妤": 1824,
      "妨": 1825,
      "妻": 1826,
      "姆": 1827,
      "始": 1828,
      "委": 1829,
      "姦": 1830,
      "威": 1831,
      "娃": 1832,
      "娜": 1833,
      "娣": 1834,
      "娱": 1835,
      "婁": 1836,
      "婦": 1837,
      "婷": 1838,
      "媛": 1839,
      "嫌": 1840,
      "子": 1841,
      "字": 1842,
      "存": 1843,
      "季": 1844,
      "学": 1845,
      "學": 1846,
      "宁": 1847,
      "它": 1848,
      "安": 1849,
      "完": 1850,
      "宏": 1851,
      "宗": 1852,
      "官": 1853,
      "定": 1854,
      "宜": 1855,
      "宝": 1856,
      "实": 1857,
      "実": 1858,
      "客": 1859,
      "宣": 1860,
      "室": 1861,
      "宫": 1862,
      "宮": 1863,
      "家": 1864,
      "容": 1865,
      "宿": 1866,
      "寄": 1867,
      "密": 1868,
      "富": 1869,
      "寧": 1870,
      "寳": 1871,
      "寶": 1872,
      "寸": 1873,
      "对": 1874,
      "寺": 1875,
      "寻": 1876,
      "寿": 1877,
      "将": 1878,
      "小": 1879,
      "少": 1880,
      "尔": 1881,
      "尘": 1882,
      "就": 1883,
      "尽": 1884,
      "尾": 1885,
      "尿": 1886,
      "局": 1887,
      "屄": 1888,
      "居": 1889,
      "屈": 1890,
      "届": 1891,
      "屋": 1892,
      "屏": 1893,
      "展": 1894,
      "属": 1895,
      "屯": 1896,
      "山": 1897,
      "屿": 1898,
      "岐": 1899,
      "岗": 1900,
      "岡": 1901,
      "岩": 1902,
      "岭": 1903,
      "岳": 1904,
      "岸": 1905,
      "島": 1906,
      "峻": 1907,
      "峽": 1908,
      "崎": 1909,
      "崔": 1910,
      "崖": 1911,
      "崩": 1912,
      "嶺": 1913,
      "嶼": 1914,
      "川": 1915,
      "州": 1916,
      "工": 1917,
      "左": 1918,
      "巧": 1919,
      "巨": 1920,
      "差": 1921,
      "己": 1922,
      "已": 1923,
      "巴": 1924,
      "巻": 1925,
      "市": 1926,
      "布": 1927,
      "师": 1928,
      "希": 1929,
      "帝": 1930,
      "帥": 1931,
      "带": 1932,
      "師": 1933,
      "帯": 1934,
      "常": 1935,
      "幌": 1936,
      "幡": 1937,
      "幣": 1938,
      "干": 1939,
      "平": 1940,
      "年": 1941,
      "并": 1942,
      "幸": 1943,
      "幹": 1944,
      "幾": 1945,
      "广": 1946,
      "庁": 1947,
      "広": 1948,
      "庄": 1949,
      "庆": 1950,
      "序": 1951,
      "库": 1952,
      "应": 1953,
      "底": 1954,
      "店": 1955,
      "庚": 1956,
      "府": 1957,
      "废": 1958,
      "度": 1959,
      "庫": 1960,
      "庭": 1961,
      "康": 1962,
      "廃": 1963,
      "廣": 1964,
      "建": 1965,
      "开": 1966,
      "弁": 1967,
      "异": 1968,
      "弄": 1969,
      "式": 1970,
      "弔": 1971,
      "引": 1972,
      "张": 1973,
      "張": 1974,
      "强": 1975,
      "当": 1976,
      "形": 1977,
      "彩": 1978,
      "影": 1979,
      "役": 1980,
      "彻": 1981,
      "彼": 1982,
      "征": 1983,
      "待": 1984,
      "很": 1985,
      "律": 1986,
      "後": 1987,
      "徐": 1988,
      "徒": 1989,
      "得": 1990,
      "復": 1991,
      "循": 1992,
      "微": 1993,
      "徳": 1994,
      "德": 1995,
      "徽": 1996,
      "心": 1997,
      "必": 1998,
      "志": 1999,
      "忘": 2000,
      "応": 2001,
      "忠": 2002,
      "快": 2003,
      "念": 2004,
      "忻": 2005,
      "忽": 2006,
      "怒": 2007,
      "思": 2008,
      "怡": 2009,
      "急": 2010,
      "性": 2011,
      "怪": 2012,
      "总": 2013,
      "恋": 2014,
      "恢": 2015,
      "息": 2016,
      "悟": 2017,
      "患": 2018,
      "您": 2019,
      "悩": 2020,
      "悬": 2021,
      "情": 2022,
      "惠": 2023,
      "惧": 2024,
      "想": 2025,
      "意": 2026,
      "愛": 2027,
      "感": 2028,
      "慈": 2029,
      "態": 2030,
      "慎": 2031,
      "慢": 2032,
      "慣": 2033,
      "慶": 2034,
      "憎": 2035,
      "憨": 2036,
      "憩": 2037,
      "憶": 2038,
      "憾": 2039,
      "應": 2040,
      "成": 2041,
      "我": 2042,
      "戒": 2043,
      "或": 2044,
      "战": 2045,
      "截": 2046,
      "戴": 2047,
      "戸": 2048,
      "戻": 2049,
      "所": 2050,
      "扈": 2051,
      "手": 2052,
      "才": 2053,
      "打": 2054,
      "払": 2055,
      "找": 2056,
      "承": 2057,
      "技": 2058,
      "投": 2059,
      "抗": 2060,
      "折": 2061,
      "抜": 2062,
      "护": 2063,
      "报": 2064,
      "抵": 2065,
      "抹": 2066,
      "押": 2067,
      "担": 2068,
      "拉": 2069,
      "拒": 2070,
      "拓": 2071,
      "招": 2072,
      "拟": 2073,
      "择": 2074,
      "括": 2075,
      "拳": 2076,
      "拼": 2077,
      "拿": 2078,
      "持": 2079,
      "指": 2080,
      "按": 2081,
      "挑": 2082,
      "挠": 2083,
      "挡": 2084,
      "振": 2085,
      "据": 2086,
      "捷": 2087,
      "排": 2088,
      "掛": 2089,
      "採": 2090,
      "探": 2091,
      "接": 2092,
      "控": 2093,
      "推": 2094,
      "措": 2095,
      "掻": 2096,
      "揂": 2097,
      "揃": 2098,
      "提": 2099,
      "揚": 2100,
      "換": 2101,
      "握": 2102,
      "援": 2103,
      "搅": 2104,
      "損": 2105,
      "搜": 2106,
      "搞": 2107,
      "携": 2108,
      "摂": 2109,
      "摆": 2110,
      "摇": 2111,
      "摩": 2112,
      "撒": 2113,
      "撤": 2114,
      "撫": 2115,
      "播": 2116,
      "撮": 2117,
      "操": 2118,
      "支": 2119,
      "收": 2120,
      "改": 2121,
      "攻": 2122,
      "放": 2123,
      "政": 2124,
      "故": 2125,
      "效": 2126,
      "敏": 2127,
      "救": 2128,
      "教": 2129,
      "散": 2130,
      "敬": 2131,
      "数": 2132,
      "整": 2133,
      "文": 2134,
      "斗": 2135,
      "料": 2136,
      "斯": 2137,
      "新": 2138,
      "方": 2139,
      "施": 2140,
      "旅": 2141,
      "旋": 2142,
      "族": 2143,
      "无": 2144,
      "日": 2145,
      "旧": 2146,
      "旭": 2147,
      "旱": 2148,
      "时": 2149,
      "昌": 2150,
      "明": 2151,
      "易": 2152,
      "星": 2153,
      "映": 2154,
      "春": 2155,
      "昭": 2156,
      "是": 2157,
      "显": 2158,
      "時": 2159,
      "晏": 2160,
      "晨": 2161,
      "普": 2162,
      "景": 2163,
      "智": 2164,
      "暨": 2165,
      "暫": 2166,
      "曌": 2167,
      "更": 2168,
      "書": 2169,
      "曹": 2170,
      "曾": 2171,
      "最": 2172,
      "月": 2173,
      "有": 2174,
      "服": 2175,
      "朔": 2176,
      "朗": 2177,
      "望": 2178,
      "朝": 2179,
      "期": 2180,
      "木": 2181,
      "未": 2182,
      "末": 2183,
      "本": 2184,
      "札": 2185,
      "术": 2186,
      "朱": 2187,
      "机": 2188,
      "杂": 2189,
      "李": 2190,
      "杏": 2191,
      "材": 2192,
      "村": 2193,
      "束": 2194,
      "条": 2195,
      "来": 2196,
      "杨": 2197,
      "杭": 2198,
      "東": 2199,
      "松": 2200,
      "板": 2201,
      "极": 2202,
      "构": 2203,
      "析": 2204,
      "林": 2205,
      "枚": 2206,
      "果": 2207,
      "枡": 2208,
      "架": 2209,
      "某": 2210,
      "染": 2211,
      "柔": 2212,
      "查": 2213,
      "柱": 2214,
      "柴": 2215,
      "标": 2216,
      "树": 2217,
      "校": 2218,
      "株": 2219,
      "样": 2220,
      "核": 2221,
      "根": 2222,
      "格": 2223,
      "栽": 2224,
      "桃": 2225,
      "框": 2226,
      "案": 2227,
      "桜": 2228,
      "桥": 2229,
      "桩": 2230,
      "桶": 2231,
      "梁": 2232,
      "梅": 2233,
      "械": 2234,
      "检": 2235,
      "棒": 2236,
      "棲": 2237,
      "植": 2238,
      "検": 2239,
      "楠": 2240,
      "業": 2241,
      "極": 2242,
      "楼": 2243,
      "楽": 2244,
      "樓": 2245,
      "標": 2246,
      "模": 2247,
      "横": 2248,
      "樹": 2249,
      "橋": 2250,
      "機": 2251,
      "檀": 2252,
      "次": 2253,
      "欢": 2254,
      "欧": 2255,
      "款": 2256,
      "歌": 2257,
      "止": 2258,
      "正": 2259,
      "此": 2260,
      "步": 2261,
      "武": 2262,
      "歩": 2263,
      "歸": 2264,
      "死": 2265,
      "殊": 2266,
      "段": 2267,
      "殻": 2268,
      "母": 2269,
      "毎": 2270,
      "每": 2271,
      "毓": 2272,
      "比": 2273,
      "毛": 2274,
      "氏": 2275,
      "民": 2276,
      "气": 2277,
      "気": 2278,
      "氣": 2279,
      "氧": 2280,
      "氮": 2281,
      "水": 2282,
      "氷": 2283,
      "永": 2284,
      "汁": 2285,
      "求": 2286,
      "汇": 2287,
      "汉": 2288,
      "江": 2289,
      "池": 2290,
      "汴": 2291,
      "決": 2292,
      "沈": 2293,
      "沌": 2294,
      "沙": 2295,
      "沛": 2296,
      "没": 2297,
      "沢": 2298,
      "沪": 2299,
      "河": 2300,
      "油": 2301,
      "治": 2302,
      "沿": 2303,
      "況": 2304,
      "泄": 2305,
      "泉": 2306,
      "泊": 2307,
      "法": 2308,
      "波": 2309,
      "泥": 2310,
      "注": 2311,
      "泰": 2312,
      "洁": 2313,
      "洋": 2314,
      "洒": 2315,
      "洗": 2316,
      "洛": 2317,
      "洞": 2318,
      "洪": 2319,
      "洲": 2320,
      "活": 2321,
      "派": 2322,
      "流": 2323,
      "测": 2324,
      "济": 2325,
      "浙": 2326,
      "浜": 2327,
      "浦": 2328,
      "浮": 2329,
      "浴": 2330,
      "海": 2331,
      "消": 2332,
      "涌": 2333,
      "涩": 2334,
      "淡": 2335,
      "深": 2336,
      "混": 2337,
      "淹": 2338,
      "清": 2339,
      "済": 2340,
      "渋": 2341,
      "渐": 2342,
      "減": 2343,
      "渝": 2344,
      "渡": 2345,
      "温": 2346,
      "港": 2347,
      "渲": 2348,
      "渴": 2349,
      "湄": 2350,
      "湖": 2351,
      "湘": 2352,
      "湯": 2353,
      "湾": 2354,
      "満": 2355,
      "溉": 2356,
      "源": 2357,
      "溜": 2358,
      "溝": 2359,
      "溢": 2360,
      "溥": 2361,
      "溪": 2362,
      "溯": 2363,
      "溶": 2364,
      "滇": 2365,
      "滞": 2366,
      "滨": 2367,
      "漢": 2368,
      "漫": 2369,
      "潜": 2370,
      "潢": 2371,
      "潭": 2372,
      "潮": 2373,
      "澄": 2374,
      "澎": 2375,
      "澤": 2376,
      "澳": 2377,
      "激": 2378,
      "濟": 2379,
      "濱": 2380,
      "灌": 2381,
      "灣": 2382,
      "火": 2383,
      "灯": 2384,
      "灰": 2385,
      "灾": 2386,
      "炎": 2387,
      "炯": 2388,
      "点": 2389,
      "為": 2390,
      "烈": 2391,
      "烏": 2392,
      "烧": 2393,
      "热": 2394,
      "無": 2395,
      "焦": 2396,
      "然": 2397,
      "焼": 2398,
      "煙": 2399,
      "照": 2400,
      "煩": 2401,
      "煮": 2402,
      "熊": 2403,
      "熟": 2404,
      "熨": 2405,
      "熱": 2406,
      "燃": 2407,
      "燕": 2408,
      "燗": 2409,
      "爛": 2410,
      "爪": 2411,
      "爱": 2412,
      "父": 2413,
      "爻": 2414,
      "爾": 2415,
      "片": 2416,
      "版": 2417,
      "牌": 2418,
      "牙": 2419,
      "牛": 2420,
      "物": 2421,
      "特": 2422,
      "状": 2423,
      "狐": 2424,
      "独": 2425,
      "狭": 2426,
      "猛": 2427,
      "猪": 2428,
      "献": 2429,
      "獲": 2430,
      "玄": 2431,
      "率": 2432,
      "玉": 2433,
      "王": 2434,
      "环": 2435,
      "珈": 2436,
      "珍": 2437,
      "珠": 2438,
      "班": 2439,
      "球": 2440,
      "理": 2441,
      "琢": 2442,
      "琲": 2443,
      "璐": 2444,
      "環": 2445,
      "瓊": 2446,
      "瓶": 2447,
      "甜": 2448,
      "生": 2449,
      "用": 2450,
      "田": 2451,
      "由": 2452,
      "申": 2453,
      "电": 2454,
      "男": 2455,
      "町": 2456,
      "画": 2457,
      "界": 2458,
      "留": 2459,
      "番": 2460,
      "畿": 2461,
      "疆": 2462,
      "疏": 2463,
      "疑": 2464,
      "疗": 2465,
      "疫": 2466,
      "病": 2467,
      "痛": 2468,
      "痴": 2469,
      "瘤": 2470,
      "癌": 2471,
      "癪": 2472,
      "発": 2473,
      "登": 2474,
      "白": 2475,
      "百": 2476,
      "的": 2477,
      "皇": 2478,
      "皮": 2479,
      "盆": 2480,
      "益": 2481,
      "盐": 2482,
      "监": 2483,
      "盛": 2484,
      "監": 2485,
      "盧": 2486,
      "目": 2487,
      "直": 2488,
      "相": 2489,
      "省": 2490,
      "看": 2491,
      "県": 2492,
      "真": 2493,
      "眩": 2494,
      "眼": 2495,
      "着": 2496,
      "睛": 2497,
      "瞎": 2498,
      "瞳": 2499,
      "瞻": 2500,
      "知": 2501,
      "短": 2502,
      "石": 2503,
      "矿": 2504,
      "码": 2505,
      "砂": 2506,
      "砕": 2507,
      "破": 2508,
      "硝": 2509,
      "硬": 2510,
      "确": 2511,
      "碁": 2512,
      "碍": 2513,
      "碧": 2514,
      "碳": 2515,
      "磁": 2516,
      "磨": 2517,
      "磷": 2518,
      "示": 2519,
      "礼": 2520,
      "社": 2521,
      "祖": 2522,
      "神": 2523,
      "票": 2524,
      "祭": 2525,
      "祸": 2526,
      "祿": 2527,
      "禁": 2528,
      "禅": 2529,
      "福": 2530,
      "禪": 2531,
      "禹": 2532,
      "禽": 2533,
      "秀": 2534,
      "私": 2535,
      "秉": 2536,
      "秋": 2537,
      "种": 2538,
      "科": 2539,
      "租": 2540,
      "秦": 2541,
      "积": 2542,
      "称": 2543,
      "移": 2544,
      "稀": 2545,
      "稅": 2546,
      "程": 2547,
      "税": 2548,
      "稲": 2549,
      "稳": 2550,
      "稻": 2551,
      "稼": 2552,
      "稿": 2553,
      "穷": 2554,
      "空": 2555,
      "立": 2556,
      "站": 2557,
      "竜": 2558,
      "章": 2559,
      "竹": 2560,
      "第": 2561,
      "筆": 2562,
      "等": 2563,
      "筑": 2564,
      "答": 2565,
      "策": 2566,
      "签": 2567,
      "简": 2568,
      "箍": 2569,
      "箕": 2570,
      "管": 2571,
      "箱": 2572,
      "節": 2573,
      "篇": 2574,
      "簡": 2575,
      "米": 2576,
      "类": 2577,
      "粉": 2578,
      "粤": 2579,
      "粮": 2580,
      "粵": 2581,
      "精": 2582,
      "糖": 2583,
      "糸": 2584,
      "系": 2585,
      "紀": 2586,
      "紂": 2587,
      "紅": 2588,
      "紋": 2589,
      "納": 2590,
      "純": 2591,
      "紙": 2592,
      "級": 2593,
      "素": 2594,
      "索": 2595,
      "紧": 2596,
      "細": 2597,
      "紹": 2598,
      "終": 2599,
      "経": 2600,
      "絞": 2601,
      "統": 2602,
      "經": 2603,
      "継": 2604,
      "続": 2605,
      "網": 2606,
      "総": 2607,
      "線": 2608,
      "縣": 2609,
      "繁": 2610,
      "織": 2611,
      "红": 2612,
      "约": 2613,
      "纪": 2614,
      "纷": 2615,
      "纽": 2616,
      "线": 2617,
      "组": 2618,
      "细": 2619,
      "终": 2620,
      "绍": 2621,
      "经": 2622,
      "绝": 2623,
      "统": 2624,
      "绪": 2625,
      "续": 2626,
      "维": 2627,
      "缓": 2628,
      "缩": 2629,
      "缺": 2630,
      "网": 2631,
      "罗": 2632,
      "罪": 2633,
      "置": 2634,
      "署": 2635,
      "羅": 2636,
      "美": 2637,
      "群": 2638,
      "義": 2639,
      "羲": 2640,
      "羽": 2641,
      "翁": 2642,
      "習": 2643,
      "翻": 2644,
      "翼": 2645,
      "耀": 2646,
      "老": 2647,
      "考": 2648,
      "者": 2649,
      "而": 2650,
      "耐": 2651,
      "耕": 2652,
      "耳": 2653,
      "耶": 2654,
      "耸": 2655,
      "联": 2656,
      "聖": 2657,
      "聞": 2658,
      "聼": 2659,
      "肉": 2660,
      "股": 2661,
      "肥": 2662,
      "育": 2663,
      "胁": 2664,
      "背": 2665,
      "胖": 2666,
      "胞": 2667,
      "胡": 2668,
      "能": 2669,
      "脑": 2670,
      "脖": 2671,
      "脚": 2672,
      "脱": 2673,
      "腔": 2674,
      "腕": 2675,
      "腰": 2676,
      "腹": 2677,
      "膚": 2678,
      "臂": 2679,
      "臓": 2680,
      "臣": 2681,
      "臨": 2682,
      "自": 2683,
      "至": 2684,
      "致": 2685,
      "臺": 2686,
      "興": 2687,
      "舊": 2688,
      "舞": 2689,
      "航": 2690,
      "舫": 2691,
      "般": 2692,
      "艮": 2693,
      "良": 2694,
      "色": 2695,
      "艳": 2696,
      "节": 2697,
      "芋": 2698,
      "芝": 2699,
      "芦": 2700,
      "花": 2701,
      "若": 2702,
      "英": 2703,
      "茂": 2704,
      "茜": 2705,
      "茨": 2706,
      "茶": 2707,
      "草": 2708,
      "荣": 2709,
      "荷": 2710,
      "莨": 2711,
      "莲": 2712,
      "获": 2713,
      "莹": 2714,
      "菜": 2715,
      "菩": 2716,
      "華": 2717,
      "萄": 2718,
      "营": 2719,
      "萧": 2720,
      "萬": 2721,
      "落": 2722,
      "葉": 2723,
      "葡": 2724,
      "董": 2725,
      "蒋": 2726,
      "蒸": 2727,
      "蓋": 2728,
      "蓟": 2729,
      "蓮": 2730,
      "蔓": 2731,
      "蔚": 2732,
      "蔣": 2733,
      "蕭": 2734,
      "蕴": 2735,
      "薊": 2736,
      "薬": 2737,
      "薯": 2738,
      "藍": 2739,
      "藏": 2740,
      "藕": 2741,
      "藤": 2742,
      "蘇": 2743,
      "虑": 2744,
      "號": 2745,
      "虫": 2746,
      "蛋": 2747,
      "融": 2748,
      "螨": 2749,
      "螳": 2750,
      "螺": 2751,
      "蟲": 2752,
      "血": 2753,
      "衆": 2754,
      "行": 2755,
      "術": 2756,
      "街": 2757,
      "衡": 2758,
      "表": 2759,
      "裂": 2760,
      "装": 2761,
      "裕": 2762,
      "製": 2763,
      "西": 2764,
      "要": 2765,
      "見": 2766,
      "視": 2767,
      "覧": 2768,
      "親": 2769,
      "観": 2770,
      "见": 2771,
      "观": 2772,
      "视": 2773,
      "角": 2774,
      "解": 2775,
      "触": 2776,
      "言": 2777,
      "訃": 2778,
      "訊": 2779,
      "討": 2780,
      "訓": 2781,
      "記": 2782,
      "設": 2783,
      "許": 2784,
      "訳": 2785,
      "詠": 2786,
      "試": 2787,
      "詩": 2788,
      "詰": 2789,
      "話": 2790,
      "詳": 2791,
      "詹": 2792,
      "誓": 2793,
      "語": 2794,
      "說": 2795,
      "説": 2796,
      "読": 2797,
      "調": 2798,
      "談": 2799,
      "請": 2800,
      "論": 2801,
      "警": 2802,
      "譯": 2803,
      "護": 2804,
      "讃": 2805,
      "變": 2806,
      "计": 2807,
      "认": 2808,
      "讨": 2809,
      "让": 2810,
      "议": 2811,
      "讯": 2812,
      "许": 2813,
      "论": 2814,
      "讼": 2815,
      "设": 2816,
      "证": 2817,
      "评": 2818,
      "识": 2819,
      "诉": 2820,
      "译": 2821,
      "试": 2822,
      "该": 2823,
      "详": 2824,
      "语": 2825,
      "说": 2826,
      "请": 2827,
      "诺": 2828,
      "课": 2829,
      "调": 2830,
      "谈": 2831,
      "谋": 2832,
      "谢": 2833,
      "谷": 2834,
      "豆": 2835,
      "豊": 2836,
      "豐": 2837,
      "豫": 2838,
      "貌": 2839,
      "負": 2840,
      "財": 2841,
      "貢": 2842,
      "販": 2843,
      "貮": 2844,
      "貰": 2845,
      "貴": 2846,
      "貸": 2847,
      "費": 2848,
      "賀": 2849,
      "資": 2850,
      "賈": 2851,
      "賢": 2852,
      "贊": 2853,
      "贞": 2854,
      "负": 2855,
      "货": 2856,
      "质": 2857,
      "贫": 2858,
      "购": 2859,
      "贱": 2860,
      "贷": 2861,
      "贸": 2862,
      "资": 2863,
      "赌": 2864,
      "赖": 2865,
      "赛": 2866,
      "赞": 2867,
      "赤": 2868,
      "赵": 2869,
      "赶": 2870,
      "起": 2871,
      "超": 2872,
      "越": 2873,
      "趋": 2874,
      "足": 2875,
      "跆": 2876,
      "跋": 2877,
      "跟": 2878,
      "跨": 2879,
      "路": 2880,
      "蹟": 2881,
      "躇": 2882,
      "躊": 2883,
      "身": 2884,
      "車": 2885,
      "転": 2886,
      "較": 2887,
      "載": 2888,
      "輪": 2889,
      "车": 2890,
      "转": 2891,
      "轻": 2892,
      "载": 2893,
      "较": 2894,
      "辑": 2895,
      "辛": 2896,
      "辞": 2897,
      "辭": 2898,
      "辱": 2899,
      "農": 2900,
      "込": 2901,
      "达": 2902,
      "迅": 2903,
      "过": 2904,
      "迎": 2905,
      "运": 2906,
      "近": 2907,
      "返": 2908,
      "还": 2909,
      "这": 2910,
      "进": 2911,
      "远": 2912,
      "迫": 2913,
      "述": 2914,
      "追": 2915,
      "送": 2916,
      "适": 2917,
      "逃": 2918,
      "逆": 2919,
      "选": 2920,
      "透": 2921,
      "途": 2922,
      "通": 2923,
      "速": 2924,
      "造": 2925,
      "逢": 2926,
      "連": 2927,
      "逸": 2928,
      "遇": 2929,
      "遊": 2930,
      "運": 2931,
      "過": 2932,
      "道": 2933,
      "達": 2934,
      "遗": 2935,
      "遠": 2936,
      "適": 2937,
      "遷": 2938,
      "遽": 2939,
      "避": 2940,
      "還": 2941,
      "邊": 2942,
      "邑": 2943,
      "那": 2944,
      "邱": 2945,
      "郎": 2946,
      "郑": 2947,
      "郝": 2948,
      "郡": 2949,
      "部": 2950,
      "郷": 2951,
      "都": 2952,
      "鄂": 2953,
      "鄉": 2954,
      "鄭": 2955,
      "配": 2956,
      "酎": 2957,
      "酒": 2958,
      "酸": 2959,
      "采": 2960,
      "釉": 2961,
      "里": 2962,
      "重": 2963,
      "野": 2964,
      "量": 2965,
      "金": 2966,
      "釣": 2967,
      "鈍": 2968,
      "鈴": 2969,
      "鉄": 2970,
      "鉋": 2971,
      "銀": 2972,
      "銭": 2973,
      "録": 2974,
      "鍋": 2975,
      "鎚": 2976,
      "鏡": 2977,
      "鐵": 2978,
      "针": 2979,
      "钟": 2980,
      "钢": 2981,
      "钦": 2982,
      "钧": 2983,
      "钱": 2984,
      "铁": 2985,
      "铭": 2986,
      "银": 2987,
      "链": 2988,
      "销": 2989,
      "锈": 2990,
      "锋": 2991,
      "错": 2992,
      "锦": 2993,
      "键": 2994,
      "長": 2995,
      "长": 2996,
      "門": 2997,
      "開": 2998,
      "間": 2999,
      "関": 3000,
      "閥": 3001,
      "關": 3002,
      "门": 3003,
      "问": 3004,
      "间": 3005,
      "闻": 3006,
      "队": 3007,
      "阪": 3008,
      "防": 3009,
      "阳": 3010,
      "阶": 3011,
      "阻": 3012,
      "阿": 3013,
      "陀": 3014,
      "际": 3015,
      "陈": 3016,
      "降": 3017,
      "限": 3018,
      "院": 3019,
      "除": 3020,
      "险": 3021,
      "陰": 3022,
      "陳": 3023,
      "陵": 3024,
      "陶": 3025,
      "陽": 3026,
      "隆": 3027,
      "隊": 3028,
      "階": 3029,
      "際": 3030,
      "障": 3031,
      "难": 3032,
      "雄": 3033,
      "集": 3034,
      "雙": 3035,
      "雛": 3036,
      "離": 3037,
      "難": 3038,
      "雨": 3039,
      "雪": 3040,
      "雲": 3041,
      "雷": 3042,
      "電": 3043,
      "需": 3044,
      "霊": 3045,
      "霖": 3046,
      "霜": 3047,
      "露": 3048,
      "青": 3049,
      "静": 3050,
      "非": 3051,
      "靠": 3052,
      "面": 3053,
      "革": 3054,
      "靳": 3055,
      "韓": 3056,
      "音": 3057,
      "韻": 3058,
      "頂": 3059,
      "項": 3060,
      "順": 3061,
      "須": 3062,
      "頑": 3063,
      "領": 3064,
      "頭": 3065,
      "題": 3066,
      "顯": 3067,
      "页": 3068,
      "顷": 3069,
      "须": 3070,
      "顾": 3071,
      "预": 3072,
      "颐": 3073,
      "颖": 3074,
      "题": 3075,
      "颜": 3076,
      "额": 3077,
      "風": 3078,
      "风": 3079,
      "飛": 3080,
      "食": 3081,
      "飲": 3082,
      "飼": 3083,
      "館": 3084,
      "饮": 3085,
      "饲": 3086,
      "馆": 3087,
      "首": 3088,
      "香": 3089,
      "馬": 3090,
      "駄": 3091,
      "駅": 3092,
      "騙": 3093,
      "騜": 3094,
      "驗": 3095,
      "马": 3096,
      "验": 3097,
      "骨": 3098,
      "體": 3099,
      "高": 3100,
      "鬼": 3101,
      "鮨": 3102,
      "鮮": 3103,
      "鯨": 3104,
      "鱲": 3105,
      "鲁": 3106,
      "鳩": 3107,
      "鵜": 3108,
      "鷹": 3109,
      "鸡": 3110,
      "鸭": 3111,
      "鸯": 3112,
      "鸳": 3113,
      "鹅": 3114,
      "麗": 3115,
      "麩": 3116,
      "黃": 3117,
      "黄": 3118,
      "黎": 3119,
      "黒": 3120,
      "點": 3121,
      "黨": 3122,
      "鼻": 3123,
      "齋": 3124,
      "龍": 3125,
      "龙": 3126,
      "겜": 3127,
      "경": 3128,
      "계": 3129,
      "고": 3130,
      "곡": 3131,
      "구": 3132,
      "국": 3133,
      "권": 3134,
      "글": 3135,
      "김": 3136,
      "뀌": 3137,
      "나": 3138,
      "녀": 3139,
      "년": 3140,
      "노": 3141,
      "누": 3142,
      "는": 3143,
      "니": 3144,
      "닌": 3145,
      "다": 3146,
      "단": 3147,
      "대": 3148,
      "도": 3149,
      "동": 3150,
      "드": 3151,
      "디": 3152,
      "딘": 3153,
      "딩": 3154,
      "라": 3155,
      "레": 3156,
      "려": 3157,
      "령": 3158,
      "로": 3159,
      "루": 3160,
      "르": 3161,
      "린": 3162,
      "마": 3163,
      "막": 3164,
      "맨": 3165,
      "면": 3166,
      "목": 3167,
      "무": 3168,
      "문": 3169,
      "미": 3170,
      "바": 3171,
      "백": 3172,
      "뱅": 3173,
      "번": 3174,
      "벌": 3175,
      "베": 3176,
      "변": 3177,
      "보": 3178,
      "블": 3179,
      "비": 3180,
      "빅": 3181,
      "빌": 3182,
      "사": 3183,
      "산": 3184,
      "서": 3185,
      "선": 3186,
      "성": 3187,
      "세": 3188,
      "셀": 3189,
      "셔": 3190,
      "수": 3191,
      "스": 3192,
      "습": 3193,
      "승": 3194,
      "시": 3195,
      "신": 3196,
      "싱": 3197,
      "아": 3198,
      "알": 3199,
      "압": 3200,
      "야": 3201,
      "양": 3202,
      "어": 3203,
      "었": 3204,
      "에": 3205,
      "엠": 3206,
      "영": 3207,
      "오": 3208,
      "요": 3209,
      "울": 3210,
      "웅": 3211,
      "워": 3212,
      "월": 3213,
      "웨": 3214,
      "위": 3215,
      "유": 3216,
      "율": 3217,
      "으": 3218,
      "을": 3219,
      "읍": 3220,
      "이": 3221,
      "인": 3222,
      "일": 3223,
      "전": 3224,
      "정": 3225,
      "제": 3226,
      "조": 3227,
      "종": 3228,
      "주": 3229,
      "지": 3230,
      "천": 3231,
      "체": 3232,
      "충": 3233,
      "치": 3234,
      "클": 3235,
      "키": 3236,
      "태": 3237,
      "터": 3238,
      "턴": 3239,
      "퇴": 3240,
      "트": 3241,
      "티": 3242,
      "퍼": 3243,
      "피": 3244,
      "한": 3245,
      "호": 3246,
      "": 3247,
      "": 3248,
      "": 3249,
      "": 3250,
      "": 3251,
      "": 3252,
      "": 3253,
      "": 3254,
      "": 3255,
      "": 3256,
      "": 3257,
      "": 3258,
      "": 3259,
      "": 3260,
      "": 3261,
      "": 3262,
      "": 3263,
      "金": 3264,
      "ﬁ": 3265,
      "ﬂ": 3266,
      "︰": 3267,
      "ﺍ": 3268,
      "ﺏ": 3269,
      "ﺤ": 3270,
      "ﺩ": 3271,
      "ﻁ": 3272,
      "ﻙ": 3273,
      "ﻫ": 3274,
      "﻿": 3275,
      "！": 3276,
      "＄": 3277,
      "（": 3278,
      "）": 3279,
      "＊": 3280,
      "，": 3281,
      "－": 3282,
      "．": 3283,
      "１": 3284,
      "２": 3285,
      "７": 3286,
      "９": 3287,
      "：": 3288,
      "；": 3289,
      "？": 3290,
      "Ｉ": 3291,
      "Ｐ": 3292,
      "Ｓ": 3293,
      "Ｖ": 3294,
      "［": 3295,
      "］": 3296,
      "ｂ": 3297,
      "ｄ": 3298,
      "ｅ": 3299,
      "ｈ": 3300,
      "ｌ": 3301,
      "ｏ": 3302,
      "ｓ": 3303,
      "ｕ": 3304,
      "､": 3305,
      "･": 3306,
      "ｫ": 3307,
      "ｻ": 3308,
      "ｿ": 3309,
      "￠": 3310,
      "￥": 3311,
      "￼": 3312,
      "�": 3313,
      "##O": 3314,
      "##L": 3315,
      "##I": 3316,
      "##T": 3317,
      "##G": 3318,
      "##E": 3319,
      "##N": 3320,
      "##i": 3321,
      "##t": 3322,
      "##r": 3323,
      "##c": 3324,
      "##p": 3325,
      "##h": 3326,
      "##o": 3327,
      "##s": 3328,
      "##y": 3329,
      "##x": 3330,
      "##n": 3331,
      "##v": 3332,
      "##í": 3333,
      "##a": 3334,
      "##k": 3335,
      "##l": 3336,
      "##g": 3337,
      "##z": 3338,
      "##e": 3339,
      "##_": 3340,
      "##)": 3341,
      "##'": 3342,
      "##.": 3343,
      "##d": 3344,
      "##u": 3345,
      "##æ": 3346,
      "##b": 3347,
      "##f": 3348,
      "##m": 3349,
      "##w": 3350,
      "##8": 3351,
      "##3": 3352,
      "##0": 3353,
      "##2": 3354,
      "##6": 3355,
      "##j": 3356,
      "##ï": 3357,
      "##4": 3358,
      "##5": 3359,
      "##ö": 3360,
      "##ä": 3361,
      "##?": 3362,
      "##F": 3363,
      "##C": 3364,
      "##A": 3365,
      "##R": 3366,
      "##q": 3367,
      "##ł": 3368,
      "##ó": 3369,
      "##å": 3370,
      "##M": 3371,
      "##K": 3372,
      "##е": 3373,
      "##х": 3374,
      "##н": 3375,
      "##о": 3376,
      "##л": 3377,
      "##г": 3378,
      "##і": 3379,
      "##я": 3380,
      "##D": 3381,
      "##ñ": 3382,
      "##W": 3383,
      "##P": 3384,
      "##V": 3385,
      "##7": 3386,
      "##è": 3387,
      "##U": 3388,
      "##Џ": 3389,
      "##С": 3390,
      "##Ћ": 3391,
      "##Р": 3392,
      "##Ѓ": 3393,
      "##Y": 3394,
      "##H": 3395,
      "##1": 3396,
      "##é": 3397,
      "##9": 3398,
      "##]": 3399,
      "##\"": 3400,
      "##,": 3401,
      "##[": 3402,
      "##X": 3403,
      "##р": 3404,
      "##а": 3405,
      "##ф": 3406,
      "##к": 3407,
      "##á": 3408,
      "##ú": 3409,
      "##ò": 3410,
      "##S": 3411,
      "##ě": 3412,
      "##B": 3413,
      "##ß": 3414,
      "##ð": 3415,
      "##в": 3416,
      "##}": 3417,
      "##“": 3418,
      "##й": 3419,
      "##ا": 3420,
      "##ی": 3421,
      "##ü": 3422,
      "##з": 3423,
      "##и": 3424,
      "##ﬁ": 3425,
      "##ø": 3426,
      "##@": 3427,
      "##松": 3428,
      "##建": 3429,
      "##設": 3430,
      "##д": 3431,
      "##м": 3432,
      "##с": 3433,
      "##咬": 3434,
      "##紧": 3435,
      "##牙": 3436,
      "##т": 3437,
      "##ь": 3438,
      "##š": 3439,
      "##č": 3440,
      "##у": 3441,
      "##º": 3442,
      "##î": 3443,
      "##ã": 3444,
      "##п": 3445,
      "##ı": 3446,
      "##ř": 3447,
      "##Q": 3448,
      "##ā": 3449,
      "##Z": 3450,
      "##Ã": 3451,
      "##*": 3452,
      "##ń": 3453,
      "##ê": 3454,
      "##â": 3455,
      "##ы": 3456,
      "##Š": 3457,
      "##J": 3458,
      "##無": 3459,
      "##站": 3460,
      "##ч": 3461,
      "##(": 3462,
      "##ğ": 3463,
      "##業": 3464,
      "##家": 3465,
      "##ž": 3466,
      "##ý": 3467,
      "##ც": 3468,
      "##ი": 3469,
      "##ƒ": 3470,
      "##Â": 3471,
      "##°": 3472,
      "##ů": 3473,
      "##|": 3474,
      "##”": 3475,
      "##Ž": 3476,
      "##Í": 3477,
      "##ם": 3478,
      "##ж": 3479,
      "##ç": 3480,
      "##ş": 3481,
      "##Ë": 3482,
      "##õ": 3483,
      "##ć": 3484,
      "##€": 3485,
      "##!": 3486,
      "##à": 3487,
      "##ю": 3488,
      "##ι": 3489,
      "##χ": 3490,
      "##ε": 3491,
      "##ă": 3492,
      "##=": 3493,
      "##К": 3494,
      "##ô": 3495,
      "##ъ": 3496,
      "##/": 3497,
      "##ο": 3498,
      "##υ": 3499,
      "##ρ": 3500,
      "##κ": 3501,
      "##ά": 3502,
      "##;": 3503,
      "##-": 3504,
      "##:": 3505,
      "##Ｖ": 3506,
      "##Ｉ": 3507,
      "##Ｐ": 3508,
      "##限": 3509,
      "##定": 3510,
      "##動": 3511,
      "##画": 3512,
      "##を": 3513,
      "##ダ": 3514,
      "##ウ": 3515,
      "##ン": 3516,
      "##ロ": 3517,
      "##ー": 3518,
      "##ド": 3519,
      "##で": 3520,
      "##き": 3521,
      "##る": 3522,
      "##よ": 3523,
      "##う": 3524,
      "##に": 3525,
      "##な": 3526,
      "##り": 3527,
      "##ま": 3528,
      "##す": 3529,
      "##>": 3530,
      "##ś": 3531,
      "##Ç": 3532,
      "##Ì": 3533,
      "##ǎ": 3534,
      "##ī": 3535,
      "##ą": 3536,
      "##�": 3537,
      "##ē": 3538,
      "##س": 3539,
      "##ت": 3540,
      "##र": 3541,
      "##ु": 3542,
      "##ण": 3543,
      "##ा": 3544,
      "##च": 3545,
      "##ल": 3546,
      "##ë": 3547,
      "##σ": 3548,
      "##φ": 3549,
      "##α": 3550,
      "##λ": 3551,
      "##ή": 3552,
      "##б": 3553,
      "##ì": 3554,
      "##έ": 3555,
      "##ς": 3556,
      "##ż": 3557,
      "##ę": 3558,
      "##ū": 3559,
      "##τ": 3560,
      "##ν": 3561,
      "##π": 3562,
      "##ב": 3563,
      "##א": 3564,
      "##ί": 3565,
      "##า": 3566,
      "##ย": 3567,
      "##น": 3568,
      "##้": 3569,
      "##ำ": 3570,
      "##ห": 3571,
      "##อ": 3572,
      "##ม": 3573,
      "##参": 3574,
      "##۹": 3575,
      "##ң": 3576,
      "##ŭ": 3577,
      "##ỡ": 3578,
      "##南": 3579,
      "##路": 3580,
      "##µ": 3581,
      "##γ": 3582,
      "##η": 3583,
      "##่": 3584,
      "##ว": 3585,
      "##ช": 3586,
      "##ง": 3587,
      "##เ": 3588,
      "##บ": 3589,
      "##ส": 3590,
      "##Ö": 3591,
      "##Ä": 3592,
      "##닌": 3593,
      "##": 3594,
      "##Љ": 3595,
      "##ل": 3596,
      "##و": 3597,
      "##ي": 3598,
      "##د": 3599,
      "##方": 3600,
      "##周": 3601,
      "##末": 3602,
      "##​": 3603,
      "##û": 3604,
      "##根": 3605,
      "##県": 3606,
      "##İ": 3607,
      "##μ": 3608,
      "##Ü": 3609,
      "##П": 3610,
      "##ό": 3611,
      "##圳": 3612,
      "##地": 3613,
      "##铁": 3614,
      "##¥": 3615,
      "##+": 3616,
      "##̈": 3617,
      "##": 3618,
      "##ľ": 3619,
      "##ź": 3620,
      "##ш": 3621,
      "##ň": 3622,
      "##э": 3623,
      "##Ă": 3624,
      "##…": 3625,
      "###": 3626,
      "##奚": 3627,
      "##山": 3628,
      "##冤": 3629,
      "##死": 3630,
      "##Ђ": 3631,
      "##Њ": 3632,
      "##ц": 3633,
      "##汇": 3634,
      "##区": 3635,
      "##—": 3636,
      "##À": 3637,
      "##为": 3638,
      "##提": 3639,
      "##達": 3640,
      "##摩": 3641,
      "##い": 3642,
      "##ر": 3643,
      "##ڠ": 3644,
      "##ڬ": 3645,
      "##ن": 3646,
      "##兴": 3647,
      "##ك": 3648,
      "##陽": 3649,
      "##ő": 3650,
      "##ţ": 3651,
      "##щ": 3652,
      "##م": 3653,
      "##~": 3654,
      "##क": 3655,
      "##्": 3656,
      "##त": 3657,
      "##ि": 3658,
      "##З": 3659,
      "##送": 3660,
      "##ب": 3661,
      "##ع": 3662,
      "##\\": 3663,
      "##Ý": 3664,
      "##½": 3665,
      "##合": 3666,
      "##ō": 3667,
      "##ű": 3668,
      "##ÿ": 3669,
      "##ר": 3670,
      "##ו": 3671,
      "##ש": 3672,
      "##ל": 3673,
      "##י": 3674,
      "##¬": 3675,
      "##þ": 3676,
      "##ط": 3677,
      "##$": 3678,
      "##{": 3679,
      "##β": 3680,
      "##´": 3681,
      "##מ": 3682,
      "##ן": 3683,
      "##前": 3684,
      "##预": 3685,
      "##期": 3686,
      "##降": 3687,
      "##低": 3688,
      "##了": 3689,
      "##大": 3690,
      "##约": 3691,
      "##┴": 3692,
      "##─": 3693,
      "##┐": 3694,
      "##┘": 3695,
      "##香": 3696,
      "##譯": 3697,
      "##者": 3698,
      "##較": 3699,
      "##–": 3700,
      "##로": 3701,
      "##‘": 3702,
      "##©": 3703,
      "##É": 3704,
      "##¢": 3705,
      "##仁": 3706,
      "##寺": 3707,
      "##ω": 3708,
      "##没": 3709,
      "##有": 3710,
      "##二": 3711,
      "##十": 3712,
      "##四": 3713,
      "##个": 3714,
      "##小": 3715,
      "##时": 3716,
      "##的": 3717,
      "##热": 3718,
      "##水": 3719,
      "##Ø": 3720,
      "##Õ": 3721,
      "##ồ": 3722,
      "##¿": 3723,
      "##販": 3724,
      "##売": 3725,
      "##機": 3726,
      "##Ė": 3727,
      "##‭": 3728,
      "##«": 3729,
      "##Ñ": 3730,
      "##ش": 3731,
      "##ه": 3732,
      "##年": 3733,
      "##Ě": 3734,
      "##叫": 3735,
      "##Á": 3736,
      "##憎": 3737,
      "##わ": 3738,
      "##っ": 3739,
      "##ė": 3740,
      "##년": 3741,
      "##ᓄ": 3742,
      "##ᐃ": 3743,
      "##ᑦ": 3744,
      "##和": 3745,
      "##食": 3746,
      "##&": 3747,
      "##Û": 3748,
      "##Ê": 3749,
      "##’": 3750,
      "##门": 3751,
      "##ḗ": 3752,
      "##™": 3753,
      "##¦": 3754,
      "##と": 3755,
      "##み": 3756,
      "##ら": 3757,
      "##線": 3758,
      "##ť": 3759,
      "##続": 3760,
      "##Ć": 3761,
      "##δ": 3762,
      "##Ů": 3763,
      "##田": 3764,
      "##ق": 3765,
      "##^": 3766,
      "##ù": 3767,
      "##È": 3768,
      "##»": 3769,
      "##ξ": 3770,
      "##举": 3771,
      "##牌": 3772,
      "##њ": 3773,
      "##θ": 3774,
      "##越": 3775,
      "##ṃ": 3776,
      "##ѕ": 3777,
      "##خ": 3778,
      "##ナ": 3779,
      "##체": 3780,
      "##放": 3781,
      "##題": 3782,
      "##Ł": 3783,
      "##ї": 3784,
      "##ấ": 3785,
      "##゜": 3786,
      "##ψ": 3787,
      "##意": 3788,
      "##思": 3789,
      "##是": 3790,
      "##Ω": 3791,
      "##%": 3792,
      "##駅": 3793,
      "##ų": 3794,
      "##đ": 3795,
      "##́": 3796,
      "##て": 3797,
      "##可": 3798,
      "##能": 3799,
      "##か": 3800,
      "##決": 3801,
      "##퍼": 3802,
      "##겜": 3803,
      "##보": 3804,
      "##이": 3805,
      "##問": 3806,
      "##`": 3807,
      "##载": 3808,
      "##们": 3809,
      "##在": 3810,
      "##保": 3811,
      "##护": 3812,
      "##生": 3813,
      "##物": 3814,
      "##多": 3815,
      "##样": 3816,
      "##性": 3817,
      "##面": 3818,
      "##经": 3819,
      "##验": 3820,
      "##也": 3821,
      "##来": 3822,
      "##丰": 3823,
      "##富": 3824,
      "##Å": 3825,
      "##Ř": 3826,
      "##ɛ": 3827,
      "##̃": 3828,
      "##ɑ": 3829,
      "##婷": 3830,
      "##五": 3831,
      "##月": 3832,
      "##天": 3833,
      "##ț": 3834,
      "##ё": 3835,
      "##ļ": 3836,
      "##ุ": 3837,
      "##ร": 3838,
      "##ี": 3839,
      "##ั": 3840,
      "##์": 3841,
      "##Ś": 3842,
      "##つ": 3843,
      "##ぎ": 3844,
      "##ょ": 3845,
      "##ị": 3846,
      "##Ú": 3847,
      "##Þ": 3848,
      "##Ÿ": 3849,
      "##נ": 3850,
      "##غ": 3851,
      "##ة": 3852,
      "##є": 3853,
      "##²": 3854,
      "##А": 3855,
      "##Т": 3856,
      "##Е": 3857,
      "##£": 3858,
      "##ก": 3859,
      "##ล": 3860,
      "##ิ": 3861,
      "##œ": 3862,
      "##Ó": 3863,
      "##Ï": 3864,
      "##ָ": 3865,
      "##ק": 3866,
      "##ט": 3867,
      "##ע": 3868,
      "##色": 3869,
      "##の": 3870,
      "##瞳": 3871,
      "##少": 3872,
      "##女": 3873,
      "##ה": 3874,
      "##ح": 3875,
      "##磨": 3876,
      "##¨": 3877,
      "##": 3878,
      "##Ş": 3879,
      "##į": 3880,
      "##价": 3881,
      "##格": 3882,
      "##比": 3883,
      "##ד": 3884,
      "##ת": 3885,
      "##Į": 3886,
      "##一": 3887,
      "##趋": 3888,
      "##势": 3889,
      "##还": 3890,
      "##将": 3891,
      "##持": 3892,
      "##续": 3893,
      "##下": 3894,
      "##去": 3895,
      "##让": 3896,
      "##另": 3897,
      "##亿": 3898,
      "##人": 3899,
      "##口": 3900,
      "##摆": 3901,
      "##脱": 3902,
      "##贫": 3903,
      "##困": 3904,
      "##就": 3905,
      "##那": 3906,
      "##么": 3907,
      "##容": 3908,
      "##易": 3909,
      "##В": 3910,
      "##ќ": 3911,
      "##­": 3912,
      "##": 3913,
      "##ģ": 3914,
      "##湯": 3915,
      "##ო": 3916,
      "##მ": 3917,
      "##ხ": 3918,
      "##ა": 3919,
      "##რ": 3920,
      "##ე": 3921,
      "##ბ": 3922,
      "##ლ": 3923,
      "##ს": 3924,
      "##キ": 3925,
      "##ミ": 3926,
      "##ｈ": 3927,
      "##ｏ": 3928,
      "##ｕ": 3929,
      "##ｌ": 3930,
      "##ｄ": 3931,
      "##ệ": 3932,
      "##ち": 3933,
      "##た": 3934,
      "##先": 3935,
      "##は": 3936,
      "##冷": 3937,
      "##く": 3938,
      "##硬": 3939,
      "##氷": 3940,
      "##上": 3941,
      "##だ": 3942,
      "##®": 3943,
      "##О": 3944,
      "##Л": 3945,
      "##Ь": 3946,
      "##Ц": 3947,
      "##屯": 3948,
      "##區": 3949,
      "##Ź": 3950,
      "##ː": 3951,
      "##ə": 3952,
      "##王": 3953,
      "##线": 3954,
      "##每": 3955,
      "##收": 3956,
      "##入": 3957,
      "##于": 3958,
      "##ņ": 3959,
      "##ز": 3960,
      "##ज": 3961,
      "##य": 3962,
      "##Τ": 3963,
      "##Η": 3964,
      "##眼": 3965,
      "##鏡": 3966,
      "##Ô": 3967,
      "##ื": 3968,
      "##พ": 3969,
      "##ผ": 3970,
      "##ใ": 3971,
      "##ค": 3972,
      "##ẽ": 3973,
      "##گ": 3974,
      "##ύ": 3975,
      "##ª": 3976,
      "##Н": 3977,
      "##Д": 3978,
      "##ص": 3979,
      "##ف": 3980,
      "##ى": 3981,
      "##れ": 3982,
      "##Ж": 3983,
      "##Ы": 3984,
      "##ป": 3985,
      "##็": 3986,
      "##ซ": 3987,
      "##ด": 3988,
      "##ะ": 3989,
      "##ไ": 3990,
      "##ู": 3991,
      "##จ": 3992,
      "##ạ": 3993,
      "##バ": 3994,
      "##フ": 3995,
      "##科": 3996,
      "##名": 3997,
      "##而": 3998,
      "##含": 3999,
      "##三": 4000,
      "##義": 4001,
      "##效": 4002,
      "##率": 4003,
      "##更": 4004,
      "##高": 4005,
      "##机": 4006,
      "##械": 4007,
      "##到": 4008,
      "##鲁": 4009,
      "##棒": 4010,
      "##稻": 4011,
      "##种": 4012,
      "##珠": 4013,
      "##奶": 4014,
      "##茶": 4015,
      "##金": 4016,
      "##門": 4017,
      "##姦": 4018,
      "##У": 4019,
      "##Э": 4020,
      "##エ": 4021,
      "##タ": 4022,
      "##プ": 4023,
      "##ラ": 4024,
      "##イ": 4025,
      "##ズ": 4026,
      "##頂": 4027,
      "##경": 4028,
      "##嶼": 4029,
      "##空": 4030,
      "##港": 4031,
      "##ნ": 4032,
      "##風": 4033,
      "##落": 4034,
      "##ご": 4035,
      "##覧": 4036,
      "##さ": 4037,
      "##ُ": 4038,
      "##ّ": 4039,
      "##ِ": 4040,
      "##德": 4041,
      "##清": 4042,
      "##ญ": 4043,
      "##萄": 4044,
      "##语": 4045,
      "##ὶ": 4046,
      "##原": 4047,
      "##氏": 4048,
      "##常": 4049,
      "##精": 4050,
      "##致": 4051,
      "##แ": 4052,
      "##โ": 4053,
      "##ณ": 4054,
      "##截": 4055,
      "##龍": 4056,
      "##烧": 4057,
      "##肉": 4058,
      "##此": 4059,
      "##差": 4060,
      "##异": 4061,
      "##本": 4062,
      "##避": 4063,
      "##免": 4064,
      "##國": 4065,
      "##ј": 4066,
      "##Α": 4067,
      "##Μ": 4068,
      "##・": 4069,
      "##書": 4070,
      "##": 4071,
      "##侍": 4072,
      "##手": 4073,
      "##ข": 4074,
      "##ต": 4075,
      "##¹": 4076,
      "##农": 4077,
      "##草": 4078,
      "##ѓ": 4079,
      "##ศ": 4080,
      "##尔": 4081,
      "##滨": 4082,
      "##胡": 4083,
      "##动": 4084,
      "##見": 4085,
      "##げ": 4086,
      "##ば": 4087,
      "##白": 4088,
      "##И": 4089,
      "##ץ": 4090,
      "##ɐ": 4091,
      "##ĩ": 4092,
      "##学": 4093,
      "##館": 4094,
      "##テ": 4095,
      "##Х": 4096,
      "##酒": 4097,
      "##Ń": 4098,
      "##同": 4099,
      "##": 4100,
      "##楼": 4101,
      "##』": 4102,
      "##Ň": 4103,
      "##Č": 4104,
      "##Ο": 4105,
      "##赖": 4106,
      "##喇": 4107,
      "##嘛": 4108,
      "##传": 4109,
      "##慣": 4110,
      "##Î": 4111,
      "##嘟": 4112,
      "##情": 4113,
      "##網": 4114,
      "##安": 4115,
      "##心": 4116,
      "##寿": 4117,
      "##司": 4118,
      "##健": 4119,
      "##秋": 4120,
      "##尽": 4121,
      "##量": 4122,
      "##争": 4123,
      "##取": 4124,
      "##完": 4125,
      "##成": 4126,
      "##交": 4127,
      "##ả": 4128,
      "##ท": 4129,
      "##陈": 4130,
      "##铭": 4131,
      "##政": 4132,
      "##，": 4133,
      "##Ω": 4134,
      "##戴": 4135,
      "##八": 4136,
      "##景": 4137,
      "##Ų": 4138,
      "##使": 4139,
      "##Ð": 4140,
      "##ў": 4141,
      "##話": 4142,
      "##卡": 4143,
      "##图": 4144,
      "##片": 4145,
      "##担": 4146,
      "##劇": 4147,
      "##浜": 4148,
      "##赤": 4149,
      "##レ": 4150,
      "##ガ": 4151,
      "##倉": 4152,
      "##庫": 4153,
      "##溢": 4154,
      "##智": 4155,
      "##旭": 4156,
      "##ְ": 4157,
      "##ִ": 4158,
      "##雲": 4159,
      "##ǐ": 4160,
      "##岗": 4161,
      "##村": 4162,
      "##街": 4163,
      "##夛": 4164,
      "##良": 4165,
      "##木": 4166,
      "##Ę": 4167,
      "##え": 4168,
      "##お": 4169,
      "##律": 4170,
      "##": 4171,
      "##西": 4172,
      "##援": 4173,
      "##过": 4174,
      "##·": 4175,
      "##円": 4176,
      "##‚": 4177,
      "##ọ": 4178,
      "##望": 4179,
      "##宝": 4180,
      "##ビ": 4181,
      "##ス": 4182,
      "##屿": 4183,
      "##๊": 4184,
      "##近": 4185,
      "##几": 4186,
      "##中": 4187,
      "##居": 4188,
      "##第": 4189,
      "##季": 4190,
      "##度": 4191,
      "##净": 4192,
      "##利": 4193,
      "##万": 4194,
      "##美": 4195,
      "##元": 4196,
      "##‹": 4197,
      "##途": 4198,
      "##棲": 4199,
      "##株": 4200,
      "##宏": 4201,
      "##ộ": 4202,
      "##Ι": 4203,
      "##": 4204,
      "##ď": 4205,
      "##Ν": 4206,
      "##亚": 4207,
      "##康": 4208,
      "##語": 4209,
      "##ो": 4210,
      "##न": 4211,
      "##黄": 4212,
      "##隆": 4213,
      "##ǔ": 4214,
      "##余": 4215,
      "##晏": 4216,
      "##川": 4217,
      "##ṭ": 4218,
      "##ึ": 4219,
      "##ሴ": 4220,
      "##Ą": 4221,
      "##ֲ": 4222,
      "##ֹ": 4223,
      "##哈": 4224,
      "##拉": 4225,
      "##以": 4226,
      "##非": 4227,
      "##洲": 4228,
      "##只": 4229,
      "##記": 4230,
      "##け": 4231,
      "##出": 4232,
      "##し": 4233,
      "##성": 4234,
      "##주": 4235,
      "##店": 4236,
      "##じ": 4237,
      "##カ": 4238,
      "##日": 4239,
      "##用": 4240,
      "##•": 4241,
      "##‬": 4242,
      "##旅": 4243,
      "##解": 4244,
      "##决": 4245,
      "##显": 4246,
      "##示": 4247,
      "##屏": 4248,
      "##问": 4249,
      "##题": 4250,
      "##身": 4251,
      "##َ": 4252,
      "##ッ": 4253,
      "##ハ": 4254,
      "##ɒ": 4255,
      "##ǒ": 4256,
      "##Ρ": 4257,
      "##道": 4258,
      "##快": 4259,
      "##速": 4260,
      "##熟": 4261,
      "##溪": 4262,
      "##筆": 4263,
      "##談": 4264,
      "##言": 4265,
      "##癪": 4266,
      "##障": 4267,
      "##ん": 4268,
      "##ắ": 4269,
      "##徒": 4270,
      "##然": 4271,
      "##ᒥ": 4272,
      "##ᐊ": 4273,
      "##ᓕ": 4274,
      "##ᑲ": 4275,
      "##도": 4276,
      "##ج": 4277,
      "##ೈ": 4278,
      "##嶺": 4279,
      "##۷": 4280,
      "##ʌ": 4281,
      "##ɔ": 4282,
      "##ʁ": 4283,
      "##ٹ": 4284,
      "##ম": 4285,
      "##ɾ": 4286,
      "##台": 4287,
      "##宗": 4288,
      "##ư": 4289,
      "##ợ": 4290,
      "##こ": 4291,
      "##塩": 4292,
      "##博": 4293,
      "##ذ": 4294,
      "##握": 4295,
      "##欢": 4296,
      "##ث": 4297,
      "##ɫ": 4298,
      "##橋": 4299,
      "##市": 4300,
      "##華": 4301,
      "##興": 4302,
      "##號": 4303,
      "##廣": 4304,
      "##吨": 4305,
      "##公": 4306,
      "##顷": 4307,
      "##产": 4308,
      "##平": 4309,
      "##ં": 4310,
      "##ય": 4311,
      "##ુ": 4312,
      "##ક": 4313,
      "##્": 4314,
      "##ત": 4315,
      "##神": 4316,
      "##皇": 4317,
      "##帝": 4318,
      "##次": 4319,
      "##新": 4320,
      "##较": 4321,
      "##彻": 4322,
      "##底": 4323,
      "##知": 4324,
      "##士": 4325,
      "##透": 4326,
      "##露": 4327,
      "##革": 4328,
      "##命": 4329,
      "##黨": 4330,
      "##ס": 4331,
      "##ŏ": 4332,
      "##不": 4333,
      "##屈": 4334,
      "##¼": 4335,
      "##ῖ": 4336,
      "##Ğ": 4337,
      "##೦": 4338,
      "##೧": 4339,
      "##۵": 4340,
      "##ル": 4341,
      "##ク": 4342,
      "##龙": 4343,
      "##坡": 4344,
      "##Б": 4345,
      "##ĭ": 4346,
      "##寳": 4347,
      "##国": 4348,
      "##际": 4349,
      "##航": 4350,
      "##升": 4351,
      "##瓶": 4352,
      "##ŕ": 4353,
      "##ώ": 4354,
      "##代": 4355,
      "##І": 4356,
      "##ג": 4357,
      "##切": 4358,
      "##腹": 4359,
      "##行": 4360,
      "##武": 4361,
      "##憩": 4362,
      "##室": 4363,
      "##ピ": 4364,
      "##管": 4365,
      "##对": 4366,
      "##想": 4367,
      "##赶": 4368,
      "##▒": 4369,
      "##│": 4370,
      "##령": 4371,
      "##ض": 4372,
      "##ζ": 4373,
      "##ە": 4374,
      "##ۇ": 4375,
      "##ề": 4376,
      "##论": 4377,
      "##車": 4378,
      "##谷": 4379,
      "##Ū": 4380,
      "##位": 4381,
      "##検": 4382,
      "##索": 4383,
      "##ツ": 4384,
      "##引": 4385,
      "##ْ": 4386,
      "##゛": 4387,
      "##灣": 4388,
      "##光": 4389,
      "##復": 4390,
      "##節": 4391,
      "##慢": 4392,
      "##ね": 4393,
      "##ｫ": 4394,
      "##质": 4395,
      "##饲": 4396,
      "##育": 4397,
      "##好": 4398,
      "##兽": 4399,
      "##医": 4400,
      "##服": 4401,
      "##务": 4402,
      "##全": 4403,
      "##世": 4404,
      "##界": 4405,
      "##均": 4406,
      "##牛": 4407,
      "##增": 4408,
      "##加": 4409,
      "##倍": 4410,
      "##ک": 4411,
      "##ظ": 4412,
      "##還": 4413,
      "##付": 4414,
      "##ジ": 4415,
      "##ャ": 4416,
      "##モ": 4417,
      "##ח": 4418,
      "##ғ": 4419,
      "##ҙ": 4420,
      "##作": 4421,
      "##直": 4422,
      "##正": 4423,
      "##暫": 4424,
      "##雄": 4425,
      "##馬": 4426,
      "##京": 4427,
      "##音": 4428,
      "##љ": 4429,
      "##涩": 4430,
      "##工": 4431,
      "##厂": 4432,
      "##模": 4433,
      "##套": 4434,
      "##†": 4435,
      "##洁": 4436,
      "##Я": 4437,
      "##Ќ": 4438,
      "##洛": 4439,
      "##ェ": 4440,
      "##פ": 4441,
      "##ゃ": 4442,
      "##焼": 4443,
      "##Ѕ": 4444,
      "##ґ": 4445,
      "##后": 4446,
      "##从": 4447,
      "##列": 4448,
      "##表": 4449,
      "##ء": 4450,
      "##¡": 4451,
      "##ớ": 4452,
      "##煙": 4453,
      "##長": 4454,
      "##包": 4455,
      "##圍": 4456,
      "##ế": 4457,
      "##ҡ": 4458,
      "##江": 4459,
      "##堰": 4460,
      "##颖": 4461,
      "##爱": 4462,
      "##网": 4463,
      "##ˈ": 4464,
      "##ֶ": 4465,
      "##ׁ": 4466,
      "##辛": 4467,
      "##花": 4468,
      "##园": 4469,
      "##±": 4470,
      "##": 4471,
      "##術": 4472,
      "##阻": 4473,
      "##挠": 4474,
      "##业": 4475,
      "##投": 4476,
      "##资": 4477,
      "##ザ": 4478,
      "##": 4479,
      "##急": 4480,
      "##遽": 4481,
      "##͘": 4482,
      "##ờ": 4483,
      "##Ù": 4484,
      "##敏": 4485,
      "##體": 4486,
      "##式": 4487,
      "##疫": 4488,
      "##力": 4489,
      "##反": 4490,
      "##应": 4491,
      "##ັ": 4492,
      "##ດ": 4493,
      "##ຖ": 4494,
      "##ຸ": 4495,
      "##ມ": 4496,
      "##ງ": 4497,
      "##ຄ": 4498,
      "##ນ": 4499,
      "##": 4500,
      "##ŋ": 4501,
      "##ḥ": 4502,
      "##ằ": 4503,
      "##需": 4504,
      "##要": 4505,
      "##造": 4506,
      "##维": 4507,
      "##灌": 4508,
      "##溉": 4509,
      "##系": 4510,
      "##统": 4511,
      "##稳": 4512,
      "##穷": 4513,
      "##购": 4514,
      "##买": 4515,
      "##ｓ": 4516,
      "##楽": 4517,
      "##会": 4518,
      "##サ": 4519,
      "##ト": 4520,
      "##린": 4521,
      "##턴": 4522,
      "##أ": 4523,
      "##卦": 4524,
      "##文": 4525,
      "##相": 4526,
      "##客": 4527,
      "##报": 4528,
      "##消": 4529,
      "##息": 4530,
      "##器": 4531,
      "##局": 4532,
      "##部": 4533,
      "##并": 4534,
      "##如": 4535,
      "##‎": 4536,
      "##愛": 4537,
      "##シ": 4538,
      "##ュ": 4539,
      "##コ": 4540,
      "##ậ": 4541,
      "##戸": 4542,
      "##拳": 4543,
      "##ﬂ": 4544,
      "##鈴": 4545,
      "##セ": 4546,
      "##ถ": 4547,
      "##ฉ": 4548,
      "##怪": 4549,
      "##§": 4550,
      "##Æ": 4551,
      "##親": 4552,
      "##ླ": 4553,
      "##疗": 4554,
      "##۰": 4555,
      "##য": 4556,
      "##়": 4557,
      "##ো": 4558,
      "##হ": 4559,
      "##া": 4560,
      "##ন": 4561,
      "##ķ": 4562,
      "##ầ": 4563,
      "##腔": 4564,
      "##ɨ": 4565,
      "##蓮": 4566,
      "##지": 4567,
      "##ې": 4568,
      "##チ": 4569,
      "##ⁿ": 4570,
      "##姆": 4571,
      "##斯": 4572,
      "##特": 4573,
      "##丹": 4574,
      "##კ": 4575,
      "##届": 4576,
      "##気": 4577,
      "##顯": 4578,
      "##祖": 4579,
      "##Ò": 4580,
      "##岸": 4581,
      "##酎": 4582,
      "##ზ": 4583,
      "##라": 4584,
      "##ǫ": 4585,
      "##ゥ": 4586,
      "##ゲ": 4587,
      "##法": 4588,
      "##变": 4589,
      "##得": 4590,
      "##料": 4591,
      "##般": 4592,
      "##减": 4593,
      "##缓": 4594,
      "##♥": 4595,
      "##ይ": 4596,
      "##ሕ": 4597,
      "##采": 4598,
      "##矿": 4599,
      "##依": 4600,
      "##寸": 4601,
      "##步": 4602,
      "##ტ": 4603,
      "##則": 4604,
      "##ү": 4605,
      "##һ": 4606,
      "##ә": 4607,
      "##Ő": 4608,
      "##": 4609,
      "##ፍ": 4610,
      "##ዓ": 4611,
      "##በ": 4612,
      "##ት": 4613,
      "##側": 4614,
      "##環": 4615,
      "##状": 4616,
      "##圆": 4617,
      "##明": 4618,
      "##泉": 4619,
      "##ұ": 4620,
      "##Φ": 4621,
      "##Ε": 4622,
      "##М": 4623,
      "##识": 4624,
      "##别": 4625,
      "##̇": 4626,
      "##州": 4627,
      "##海": 4628,
      "##峽": 4629,
      "##庁": 4630,
      "##統": 4631,
      "##事": 4632,
      "##メ": 4633,
      "##구": 4634,
      "##루": 4635,
      "##宮": 4636,
      "##鮮": 4637,
      "##酸": 4638,
      "##盐": 4639,
      "##等": 4640,
      "##储": 4641,
      "##备": 4642,
      "##足": 4643,
      "##够": 4644,
      "##": 4645,
      "##存": 4646,
      "##这": 4647,
      "##些": 4648,
      "##风": 4649,
      "##险": 4650,
      "##娣": 4651,
      "##선": 4652,
      "##ș": 4653,
      "##外": 4654,
      "##म": 4655,
      "##े": 4656,
      "##返": 4657,
      "##」": 4658,
      "##唸": 4659,
      "##換": 4660,
      "##背": 4661,
      "##当": 4662,
      "##听": 4663,
      "##乐": 4664,
      "##称": 4665,
      "##̂": 4666,
      "##似": 4667,
      "##ʃ": 4668,
      "##除": 4669,
      "##ŷ": 4670,
      "##凄": 4671,
      "##ủ": 4672,
      "##ǣ": 4673,
      "##伐": 4674,
      "##Ў": 4675,
      "##ġ": 4676,
      "##沌": 4677,
      "##が": 4678,
      "##あ": 4679,
      "##ど": 4680,
      "##君": 4681,
      "##إ": 4682,
      "##羅": 4683,
      "##そ": 4684,
      "##も": 4685,
      "##礼": 4686,
      "##儀": 4687,
      "##ず": 4688,
      "##細": 4689,
      "##ム": 4690,
      "##ር": 4691,
      "##ካ": 4692,
      "##幾": 4693,
      "##ˌ": 4694,
      "##読": 4695,
      "##品": 4696,
      "##求": 4697,
      "##翻": 4698,
      "##番": 4699,
      "##費": 4700,
      "##ニ": 4701,
      "##ħ": 4702,
      "##幸": 4703,
      "##妤": 4704,
      "##右": 4705,
      "##腕": 4706,
      "##リ": 4707,
      "##主": 4708,
      "##巴": 4709,
      "##羽": 4710,
      "##信": 4711,
      "##广": 4712,
      "##场": 4713,
      "##古": 4714,
      "##民": 4715,
      "##具": 4716,
      "##骨": 4717,
      "##董": 4718,
      "##祭": 4719,
      "##灯": 4720,
      "##麗": 4721,
      "##ሊ": 4722,
      "##ን": 4723,
      "##ተ": 4724,
      "##პ": 4725,
      "##飛": 4726,
      "##据": 4727,
      "##银": 4728,
      "##义": 4729,
      "##候": 4730,
      "##化": 4731,
      "##否": 4732,
      "##未": 4733,
      "##确": 4734,
      "##源": 4735,
      "##体": 4736,
      "##鈍": 4737,
      "##﻿": 4738,
      "##鉋": 4739,
      "##紋": 4740,
      "##才": 4741,
      "##球": 4742,
      "##真": 4743,
      "##威": 4744,
      "##胁": 4745,
      "##逃": 4746,
      "##ろ": 4747,
      "##坪": 4748,
      "##坝": 4749,
      "##计": 4750,
      "##社": 4751,
      "##技": 4752,
      "##获": 4753,
      "##阿": 4754,
      "##里": 4755,
      "##构": 4756,
      "##Й": 4757,
      "##米": 4758,
      "##何": 4759,
      "##分": 4760,
      "##०": 4761,
      "##३": 4762,
      "##Κ": 4763,
      "##મ": 4764,
      "##ે": 4765,
      "##ર": 4766,
      "##િ": 4767,
      "##ા": 4768,
      "##ﻫ": 4769,
      "##溝": 4770,
      "##婁": 4771,
      "##弁": 4772,
      "##止": 4773,
      "##庆": 4774,
      "##锋": 4775,
      "##๋": 4776,
      "##运": 4777,
      "##转": 4778,
      "##ざ": 4779,
      "##ぐ": 4780,
      "##야": 4781,
      "##כ": 4782,
      "##広": 4783,
      "##ɪ": 4784,
      "##ữ": 4785,
      "##闻": 4786,
      "##克": 4787,
      "##۴": 4788,
      "##熨": 4789,
      "##斗": 4790,
      "##紙": 4791,
      "##¶": 4792,
      "##莹": 4793,
      "##帥": 4794,
      "##密": 4795,
      "##呼": 4796,
      "##☆": 4797,
      "##園": 4798,
      "##ŝ": 4799,
      "##火": 4800,
      "##车": 4801,
      "##北": 4802,
      "##目": 4803,
      "##ﺤ": 4804,
      "##派": 4805,
      "##甜": 4806,
      "##ự": 4807,
      "##始": 4808,
      "##む": 4809,
      "##左": 4810,
      "##ể": 4811,
      "##屋": 4812,
      "##圓": 4813,
      "##悟": 4814,
      "##̀": 4815,
      "##ฝ": 4816,
      "##伯": 4817,
      "##어": 4818,
      "##ٍ": 4819,
      "##揃": 4820,
      "##ह": 4821,
      "##प": 4822,
      "##城": 4823,
      "##ष": 4824,
      "##ھ": 4825,
      "##ố": 4826,
      "##摇": 4827,
      "##尾": 4828,
      "##壊": 4829,
      "##場": 4830,
      "##̣": 4831,
      "##전": 4832,
      "##师": 4833,
      "##析": 4834,
      "##已": 4835,
      "##桩": 4836,
      "##味": 4837,
      "##せ": 4838,
      "##任": 4839,
      "##へ": 4840,
      "##瞻": 4841,
      "##痛": 4842,
      "##起": 4843,
      "##果": 4844,
      "##間": 4845,
      "##啦": 4846,
      "##鉄": 4847,
      "##沿": 4848,
      "##９": 4849,
      "##７": 4850,
      "##署": 4851,
      "##商": 4852,
      "##电": 4853,
      "##脑": 4854,
      "##巨": 4855,
      "##头": 4856,
      "##谈": 4857,
      "##判": 4858,
      "##进": 4859,
      "##最": 4860,
      "##阶": 4861,
      "##段": 4862,
      "##払": 4863,
      "##際": 4864,
      "##ʲ": 4865,
      "##钱": 4866,
      "##ゆ": 4867,
      "##重": 4868,
      "##喜": 4869,
      "##慶": 4870,
      "##♀": 4871,
      "##Ď": 4872,
      "##湾": 4873,
      "##屄": 4874,
      "##ʼ": 4875,
      "##艳": 4876,
      "##舞": 4877,
      "##্": 4878,
      "##ৰ": 4879,
      "##প": 4880,
      "##ু": 4881,
      "##ত": 4882,
      "##勢": 4883,
      "##ז": 4884,
      "##粮": 4885,
      "##仍": 4886,
      "##ক": 4887,
      "##র": 4888,
      "##ষ": 4889,
      "##ট": 4890,
      "##遊": 4891,
      "##昌": 4892,
      "##인": 4893,
      "##사": 4894,
      "##ʊ": 4895,
      "##坐": 4896,
      "##ỹ": 4897,
      "##马": 4898,
      "##许": 4899,
      "##迫": 4900,
      "##束": 4901,
      "##严": 4902,
      "##峻": 4903,
      "##劳": 4904,
      "##短": 4905,
      "##缺": 4906,
      "##Λ": 4907,
      "##Υ": 4908,
      "##糸": 4909,
      "##張": 4910,
      "##乾": 4911,
      "##臓": 4912,
      "##ĝ": 4913,
      "##ォ": 4914,
      "##ɤ": 4915,
      "##章": 4916,
      "##東": 4917,
      "##乘": 4918,
      "##„": 4919,
      "##종": 4920,
      "##қ": 4921,
      "##島": 4922,
      "##挑": 4923,
      "##̍": 4924,
      "##子": 4925,
      "##鷹": 4926,
      "##爪": 4927,
      "##習": 4928,
      "##ই": 4929,
      "##ʒ": 4930,
      "##ổ": 4931,
      "##★": 4932,
      "##✿": 4933,
      "##东": 4934,
      "##破": 4935,
      "##裂": 4936,
      "##伟": 4937,
      "##销": 4938,
      "##ワ": 4939,
      "##撮": 4940,
      "##「": 4941,
      "##ธ": 4942,
      "##釉": 4943,
      "##彩": 4944,
      "##向": 4945,
      "##群": 4946,
      "##転": 4947,
      "##傳": 4948,
      "##電": 4949,
      "##訊": 4950,
      "##狭": 4951,
      "##ፈ": 4952,
      "##妻": 4953,
      "##受": 4954,
      "##影": 4955,
      "##响": 4956,
      "##飲": 4957,
      "##町": 4958,
      "##№": 4959,
      "##谢": 4960,
      "##納": 4961,
      "##Γ": 4962,
      "##უ": 4963,
      "##ძ": 4964,
      "##寶": 4965,
      "##靳": 4966,
      "##晨": 4967,
      "##形": 4968,
      "##ɕ": 4969,
      "##庚": 4970,
      "##湄": 4971,
      "##河": 4972,
      "##角": 4973,
      "##ַ": 4974,
      "##难": 4975,
      "##損": 4976,
      "##ΐ": 4977,
      "##ũ": 4978,
      "##见": 4979,
      "##试": 4980,
      "##Г": 4981,
      "##離": 4982,
      "##。": 4983,
      "##ョ": 4984,
      "##辭": 4985,
      "##迎": 4986,
      "##ĕ": 4987,
      "##ӳ": 4988,
      "##罪": 4989,
      "##駄": 4990,
      "##郑": 4991,
      "##汉": 4992,
      "##油": 4993,
      "##辑": 4994,
      "##ब": 4995,
      "##르": 4996,
      "##셀": 4997,
      "##나": 4998,
      "##ሜ": 4999,
      "##ሪ": 5000,
      "##危": 5001,
      "##惧": 5002,
      "##ヒ": 5003,
      "##ɹ": 5004,
      "##녀": 5005,
      "##例": 5006,
      "##თ": 5007,
      "##众": 5008,
      "##．": 5009,
      "##今": 5010,
      "##都": 5011,
      "##മ": 5012,
      "##ന": 5013,
      "##്": 5014,
      "##ത": 5015,
      "##ീ": 5016,
      "##വ": 5017,
      "##崔": 5018,
      "##痴": 5019,
      "##瞎": 5020,
      "##搞": 5021,
      "##猛": 5022,
      "##გ": 5023,
      "##ŵ": 5024,
      "##捷": 5025,
      "##课": 5026,
      "##시": 5027,
      "##┌": 5028,
      "##極": 5029,
      "##圖": 5030,
      "##일": 5031,
      "##宜": 5032,
      "##鄉": 5033,
      "##友": 5034,
      "##粉": 5035,
      "##द": 5036,
      "##竹": 5037,
      "##浦": 5038,
      "##디": 5039,
      "##미": 5040,
      "##무": 5041,
      "##˜": 5042,
      "##伊": 5043,
      "##通": 5044,
      "##遠": 5045,
      "##Ф": 5046,
      "##鎚": 5047,
      "##千": 5048,
      "##柴": 5049,
      "##筑": 5050,
      "##ノ": 5051,
      "##秀": 5052,
      "##吉": 5053,
      "##２": 5054,
      "##１": 5055,
      "##父": 5056,
      "##、": 5057,
      "##트": 5058,
      "##호": 5059,
      "##번": 5060,
      "##³": 5061,
      "##柱": 5062,
      "##溜": 5063,
      "##ं": 5064,
      "##括": 5065,
      "##Ч": 5066,
      "##ვ": 5067,
      "##辱": 5068,
      "##则": 5069,
      "##条": 5070,
      "##項": 5071,
      "##ἠ": 5072,
      "##波": 5073,
      "##丽": 5074,
      "##ネ": 5075,
      "##め": 5076,
      "##ฤ": 5077,
      "##ษ": 5078,
      "##ภ": 5079,
      "##צ": 5080,
      "##訃": 5081,
      "##報": 5082,
      "##『": 5083,
      "##爾": 5084,
      "##濱": 5085,
      "##璐": 5086,
      "##込": 5087,
      "##詠": 5088,
      "##春": 5089,
      "##点": 5090,
      "##鵜": 5091,
      "##呑": 5092,
      "##整": 5093,
      "##估": 5094,
      "##值": 5095,
      "##湖": 5096,
      "##Ű": 5097,
      "##氧": 5098,
      "##碳": 5099,
      "##刺": 5100,
      "##激": 5101,
      "##植": 5102,
      "##长": 5103,
      "##茜": 5104,
      "##○": 5105,
      "##玄": 5106,
      "##終": 5107,
      "##स": 5108,
      "##ी": 5109,
      "##۸": 5110,
      "##ぶ": 5111,
      "##朱": 5112,
      "##奇": 5113,
      "##蹟": 5114,
      "##萧": 5115,
      "##洒": 5116,
      "##ๆ": 5117,
      "##吴": 5118,
      "##玉": 5119,
      "##ɣ": 5120,
      "##林": 5121,
      "##Ш": 5122,
      "##注": 5123,
      "##ি": 5124,
      "##막": 5125,
      "##으": 5126,
      "##ㄆ": 5127,
      "##ㄇ": 5128,
      "##ㄈ": 5129,
      "##功": 5130,
      "##枚": 5131,
      "##師": 5132,
      "##ሽ": 5133,
      "##ユ": 5134,
      "##仪": 5135,
      "##ア": 5136,
      "##ጽ": 5137,
      "##<": 5138,
      "##干": 5139,
      "##マ": 5140,
      "##喂": 5141,
      "##养": 5142,
      "##ּ": 5143,
      "##Ǵ": 5144,
      "##华": 5145,
      "##强": 5146,
      "##臂": 5147,
      "##挡": 5148,
      "##ባ": 5149,
      "##ዋ": 5150,
      "##血": 5151,
      "##土": 5152,
      "##碧": 5153,
      "##태": 5154,
      "##】": 5155,
      "##必": 5156,
      "##须": 5157,
      "##术": 5158,
      "##抵": 5159,
      "##‑": 5160,
      "##づ": 5161,
      "##票": 5162,
      "##制": 5163,
      "##卓": 5164,
      "##钧": 5165,
      "##ơ": 5166,
      "##肥": 5167,
      "##盧": 5168,
      "##護": 5169,
      "##府": 5170,
      "##叡": 5171,
      "##済": 5172,
      "##檀": 5173,
      "##樹": 5174,
      "##岐": 5175,
      "##१": 5176,
      "##患": 5177,
      "##媛": 5178,
      "##შ": 5179,
      "##立": 5180,
      "##故": 5181,
      "##宫": 5182,
      "##院": 5183,
      "##申": 5184,
      "##终": 5185,
      "##专": 5186,
      "##稿": 5187,
      "##麩": 5188,
      "##勝": 5189,
      "##幣": 5190,
      "##间": 5191,
      "##旱": 5192,
      "##它": 5193,
      "##供": 5194,
      "##−": 5195,
      "##殊": 5196,
      "##尘": 5197,
      "##螨": 5198,
      "##승": 5199,
      "##寄": 5200,
      "##件": 5201,
      "##崩": 5202,
      "##讯": 5203,
      "##舫": 5204,
      "##ṳ": 5205,
      "##̆": 5206,
      "##漢": 5207,
      "##字": 5208,
      "##̤": 5209,
      "##Œ": 5210,
      "##¯": 5211,
      "##싱": 5212,
      "##支": 5213,
      "##额": 5214,
      "##择": 5215,
      "##你": 5216,
      "##希": 5217,
      "##板": 5218,
      "##渲": 5219,
      "##染": 5220,
      "##页": 5221,
      "##ǟ": 5222,
      "##": 5223,
      "##": 5224,
      "##권": 5225,
      "##氣": 5226,
      "##篇": 5227,
      "##ღ": 5228,
      "##夫": 5229,
      "##吗": 5230,
      "##Ẳ": 5231,
      "##ோ": 5232,
      "##ல": 5233,
      "##ா": 5234,
      "##ம": 5235,
      "##்": 5236,
      "##ப": 5237,
      "##ூ": 5238,
      "##ர": 5239,
      "##乗": 5240,
      "##დ": 5241,
      "##ం": 5242,
      "##ధ": 5243,
      "##్": 5244,
      "##ర": 5245,
      "##າ": 5246,
      "##ບ": 5247,
      "##ክ": 5248,
      "##ቶ": 5249,
      "##蔓": 5250,
      "##藤": 5251,
      "##ṇ": 5252,
      "##ެ": 5253,
      "##މ": 5254,
      "##ރ": 5255,
      "##ި": 5256,
      "##ކ": 5257,
      "##ާ": 5258,
      "##‌": 5259,
      "##歌": 5260,
      "##兰": 5261,
      "##―": 5262,
      "##ụ": 5263,
      "##₩": 5264,
      "##实": 5265,
      "##佑": 5266,
      "##石": 5267,
      "##燃": 5268,
      "##누": 5269,
      "##联": 5270,
      "##ئ": 5271,
      "##월": 5272,
      "##旋": 5273,
      "##階": 5274,
      "##队": 5275,
      "##丸": 5276,
      "##映": 5277,
      "##글": 5278,
      "##薯": 5279,
      "##抗": 5280,
      "##虫": 5281,
      "##芝": 5282,
      "##链": 5283,
      "##融": 5284,
      "##循": 5285,
      "##环": 5286,
      "##仲": 5287,
      "##观": 5288,
      "##念": 5289,
      "##妨": 5290,
      "##碍": 5291,
      "##壳": 5292,
      "##砂": 5293,
      "##属": 5294,
      "##设": 5295,
      "##坂": 5296,
      "##济": 5297,
      "##匡": 5298,
      "##賢": 5299,
      "##装": 5300,
      "##视": 5301,
      "##浴": 5302,
      "##与": 5303,
      "##洗": 5304,
      "##鸳": 5305,
      "##鸯": 5306,
      "##假": 5307,
      "##住": 5308,
      "##ল": 5309,
      "##译": 5310,
      "##‽": 5311,
      "##菜": 5312,
      "##→": 5313,
      "##巻": 5314,
      "##ా": 5315,
      "##గ": 5316,
      "##జ": 5317,
      "##ు": 5318,
      "##న": 5319,
      "##క": 5320,
      "##ొ": 5321,
      "##డ": 5322,
      "##箱": 5323,
      "##掛": 5324,
      "##半": 5325,
      "##蓋": 5326,
      "##脖": 5327,
      "##Ż": 5328,
      "##ಶ": 5329,
      "##್": 5330,
      "##ವ": 5331,
      "##ರ": 5332,
      "##ಯ": 5333,
      "##ಾ": 5334,
      "##९": 5335,
      "##५": 5336,
      "##（": 5337,
      "##Ё": 5338,
      "##招": 5339,
      "##討": 5340,
      "##兵": 5341,
      "##益": 5342,
      "##他": 5343,
      "##组": 5344,
      "##军": 5345,
      "##適": 5346,
      "##過": 5347,
      "##學": 5348,
      "##承": 5349,
      "##诺": 5350,
      "##推": 5351,
      "##靠": 5352,
      "##理": 5353,
      "##알": 5354,
      "##딘": 5355,
      "##티": 5356,
      "##드": 5357,
      "##ཚ": 5358,
      "##ོ": 5359,
      "##紀": 5360,
      "##ヴ": 5361,
      "##ァ": 5362,
      "##オ": 5363,
      "##吧": 5364,
      "##溯": 5365,
      "##标": 5366,
      "##签": 5367,
      "##改": 5368,
      "##善": 5369,
      "##ക": 5370,
      "##ഷ": 5371,
      "##ദ": 5372,
      "##പ": 5373,
      "##ዲ": 5374,
      "##温": 5375,
      "##深": 5376,
      "##灰": 5377,
      "##选": 5378,
      "##贊": 5379,
      "##妖": 5380,
      "##ञ": 5381,
      "##剧": 5382,
      "##内": 5383,
      "##废": 5384,
      "##营": 5385,
      "##素": 5386,
      "##发": 5387,
      "##ϊ": 5388,
      "##⃛": 5389,
      "##ฎ": 5390,
      "##仮": 5391,
      "##租": 5392,
      "##곡": 5393,
      "##Ґ": 5394,
      "##陶": 5395,
      "##蔚": 5396,
      "##回": 5397,
      "##थ": 5398,
      "##व": 5399,
      "##很": 5400,
      "##宣": 5401,
      "##布": 5402,
      "##达": 5403,
      "##协": 5404,
      "##议": 5405,
      "##慎": 5406,
      "##飼": 5407,
      "##͡": 5408,
      "##ɬ": 5409,
      "##临": 5410,
      "##着": 5411,
      "##极": 5412,
      "##开": 5413,
      "##贷": 5414,
      "##비": 5415,
      "##엠": 5416,
      "##應": 5417,
      "##熊": 5418,
      "##": 5419,
      "##夕": 5420,
      "##节": 5421,
      "##۞": 5422,
      "##۩": 5423,
      "##郎": 5424,
      "##ቀ": 5425,
      "##የ": 5426,
      "##ረ": 5427,
      "##ው": 5428,
      "##阳": 5429,
      "##焦": 5430,
      "##臣": 5431,
      "##ſ": 5432,
      "##流": 5433,
      "##幌": 5434,
      "##澤": 5435,
      "##Χ": 5436,
      "##帯": 5437,
      "##母": 5438,
      "##员": 5439,
      "##›": 5440,
      "##藏": 5441,
      "##財": 5442,
      "##閥": 5443,
      "##乎": 5444,
      "##ứ": 5445,
      "##亜": 5446,
      "##န": 5447,
      "##္": 5448,
      "##指": 5449,
      "##誓": 5450,
      "##딩": 5451,
      "##레": 5452,
      "##스": 5453,
      "##": 5454,
      "##剣": 5455,
      "##録": 5456,
      "##標": 5457,
      "##适": 5458,
      "##ブ": 5459,
      "##志": 5460,
      "##超": 5461,
      "##总": 5462,
      "##๑": 5463,
      "##垣": 5464,
      "##云": 5465,
      "##ɵ": 5466,
      "##号": 5467,
      "##追": 5468,
      "##饮": 5469,
      "##樓": 5470,
      "##桶": 5471,
      "##Ʀ": 5472,
      "##Є": 5473,
      "##ƛ": 5474,
      "##Ƙ": 5475,
      "##纷": 5476,
      "##涌": 5477,
      "##奈": 5478,
      "##野": 5479,
      "##ひ": 5480,
      "##抜": 5481,
      "##堂": 5482,
      "##税": 5483,
      "##や": 5484,
      "##계": 5485,
      "##ử": 5486,
      "##振": 5487,
      "##井": 5488,
      "##刑": 5489,
      "##×": 5490,
      "##経": 5491,
      "##考": 5492,
      "##虑": 5493,
      "##韻": 5494,
      "##池": 5495,
      "##仙": 5496,
      "##ً": 5497,
      "##臺": 5498,
      "##老": 5499,
      "##戻": 5500,
      "##蒋": 5501,
      "##ህ": 5502,
      "##弔": 5503,
      "##澄": 5504,
      "##ｅ": 5505,
      "##‍": 5506,
      "##雷": 5507,
      "##族": 5508,
      "##減": 5509,
      "##乙": 5510,
      "##ћ": 5511,
      "##泥": 5512,
      "##ケ": 5513,
      "##치": 5514,
      "##೯": 5515,
      "##೬": 5516,
      "##೫": 5517,
      "##←": 5518,
      "##颐": 5519,
      "##潮": 5520,
      "##稀": 5521,
      "##树": 5522,
      "##说": 5523,
      "##福": 5524,
      "##順": 5525,
      "##无": 5526,
      "##负": 5527,
      "##潜": 5528,
      "##缩": 5529,
      "##≈": 5530,
      "##ṛ": 5531,
      "##渡": 5532,
      "##ई": 5533,
      "##校": 5534,
      "##터": 5535,
      "##娱": 5536,
      "##施": 5537,
      "##气": 5538,
      "##欧": 5539,
      "##울": 5540,
      "##ฐ": 5541,
      "##₤": 5542,
      "##悩": 5543,
      "##控": 5544,
      "##键": 5545,
      "##移": 5546,
      "##配": 5547,
      "##耳": 5548,
      "##ἰ": 5549,
      "##沢": 5550,
      "##曌": 5551,
      "##泰": 5552,
      "##感": 5553,
      "##狐": 5554,
      "##疑": 5555,
      "##ɚ": 5556,
      "##跋": 5557,
      "##扈": 5558,
      "##岭": 5559,
      "##々": 5560,
      "##̡": 5561,
      "##幡": 5562,
      "##ぃ": 5563,
      "##《": 5564,
      "##ĺ": 5565,
      "##羲": 5566,
      "##紹": 5567,
      "##耕": 5568,
      "##গ": 5569,
      "##ጨ": 5570,
      "##ሻ": 5571,
      "##永": 5572,
      "##歩": 5573,
      "##서": 5574,
      "##는": 5575,
      "##禽": 5576,
      "##处": 5577,
      "##策": 5578,
      "##该": 5579,
      "##努": 5580,
      "##寧": 5581,
      "##∀": 5582,
      "##证": 5583,
      "##即": 5584,
      "##便": 5585,
      "##监": 5586,
      "##烈": 5587,
      "##潭": 5588,
      "##縣": 5589,
      "##带": 5590,
      "##之": 5591,
      "##پ": 5592,
      "##び": 5593,
      "##국": 5594,
      "##백": 5595,
      "##산": 5596,
      "##教": 5597,
      "##娜": 5598,
      "##认": 5599,
      "##札": 5600,
      "##修": 5601,
      "##블": 5602,
      "##塞": 5603,
      "##逆": 5604,
      "##渐": 5605,
      "##集": 5606,
      "##汁": 5607,
      "##ி": 5608,
      "##央": 5609,
      "##太": 5610,
      "##印": 5611,
      "##ᒃ": 5612,
      "##寻": 5613,
      "##開": 5614,
      "##ペ": 5615,
      "##└": 5616,
      "##霖": 5617,
      "##类": 5618,
      "##驗": 5619,
      "##所": 5620,
      "##採": 5621,
      "##荷": 5622,
      "##贞": 5623,
      "##ỉ": 5624,
      "##像": 5625,
      "##╚": 5626,
      "##貌": 5627,
      "##照": 5628,
      "##调": 5629,
      "##ˑ": 5630,
      "##皮": 5631,
      "##단": 5632,
      "##수": 5633,
      "##滞": 5634,
      "##備": 5635,
      "##馆": 5636,
      "##锦": 5637,
      "##騙": 5638,
      "##ም": 5639,
      "##ሓ": 5640,
      "##ℓ": 5641,
      "##ฒ": 5642,
      "##剩": 5643,
      "##¤": 5644,
      "##耐": 5645,
      "##自": 5646,
      "##↑": 5647,
      "##普": 5648,
      "##查": 5649,
      "##由": 5650,
      "##贸": 5651,
      "##洪": 5652,
      "##ฑ": 5653,
      "##准": 5654,
      "##ལ": 5655,
      "##འ": 5656,
      "##ི": 5657,
      "##星": 5658,
      "##堆": 5659,
      "##殻": 5660,
      "##隊": 5661,
      "##）": 5662,
      "##冊": 5663,
      "##輪": 5664,
      "##聖": 5665,
      "##或": 5666,
      "##框": 5667,
      "##朗": 5668,
      "##ֿ": 5669,
      "##崎": 5670,
      "##冰": 5671,
      "##撤": 5672,
      "##战": 5673,
      "##Ť": 5674,
      "##許": 5675,
      "##別": 5676,
      "##献": 5677,
      "##却": 5678,
      "##检": 5679,
      "##●": 5680,
      "##": 5681,
      "##ぇ": 5682,
      "##パ": 5683,
      "##ィ": 5684,
      "##純": 5685,
      "##態": 5686,
      "##況": 5687,
      "##测": 5688,
      "##蛋": 5689,
      "##‰": 5690,
      "##ہ": 5691,
      "##ۂ": 5692,
      "##宁": 5693,
      "##茂": 5694,
      "##楠": 5695,
      "##私": 5696,
      "##睛": 5697,
      "##須": 5698,
      "##賀": 5699,
      "##陵": 5700,
      "##凸": 5701,
      "##微": 5702,
      "##库": 5703,
      "##拒": 5704,
      "##绝": 5705,
      "##置": 5706,
      "##评": 5707,
      "##ʦ": 5708,
      "##ʀ": 5709,
      "##衆": 5710,
      "##勿": 5711,
      "##刀": 5712,
      "##ʔ": 5713,
      "##疏": 5714,
      "##忽": 5715,
      "##复": 5716,
      "##杂": 5717,
      "##互": 5718,
      "##关": 5719,
      "##远": 5720,
      "##ặ": 5721,
      "##款": 5722,
      "##대": 5723,
      "##한": 5724,
      "##ḇ": 5725,
      "##及": 5726,
      "##個": 5727,
      "##關": 5728,
      "##稅": 5729,
      "##領": 5730,
      "##域": 5731,
      "##股": 5732,
      "##岡": 5733,
      "##娃": 5734,
      "##鱲": 5735,
      "##頭": 5736,
      "##再": 5737,
      "##運": 5738,
      "##Δ": 5739,
      "##杭": 5740,
      "##磁": 5741,
      "##悬": 5742,
      "##浮": 5743,
      "##ֵ": 5744,
      "##绪": 5745,
      "##迅": 5746,
      "##♦": 5747,
      "##呀": 5748,
      "##打": 5749,
      "##搅": 5750,
      "##况": 5751,
      "##防": 5752,
      "##벌": 5753,
      "##≥": 5754,
      "##뱅": 5755,
      "##徽": 5756,
      "##烏": 5757,
      "##Ζ": 5758,
      "##難": 5759,
      "##膚": 5760,
      "##谋": 5761,
      "##翁": 5762,
      "##ฏ": 5763,
      "##疆": 5764,
      "##两": 5765,
      "##警": 5766,
      "##告": 5767,
      "##介": 5768,
      "##梁": 5769,
      "##製": 5770,
      "##躊": 5771,
      "##躇": 5772,
      "##ĉ": 5773,
      "##呂": 5774,
      "##囧": 5775,
      "##朔": 5776,
      "##；": 5777,
      "##吹": 5778,
      "##毎": 5779,
      "##載": 5780,
      "##聞": 5781,
      "##竜": 5782,
      "##若": 5783,
      "##簡": 5784,
      "##ል": 5785,
      "##病": 5786,
      "##播": 5787,
      "##荣": 5788,
      "##杏": 5789,
      "##灾": 5790,
      "##祸": 5791,
      "##排": 5792,
      "##泄": 5793,
      "##ﻁ": 5794,
      "##貮": 5795,
      "##其": 5796,
      "##伝": 5797,
      "##양": 5798,
      "##共": 5799,
      "##巧": 5800,
      "##夹": 5801,
      "##ʋ": 5802,
      "##デ": 5803,
      "##̱": 5804,
      "##監": 5805,
      "##洋": 5806,
      "##श": 5807,
      "##請": 5808,
      "##刘": 5809,
      "##耀": 5810,
      "##繁": 5811,
      "##忻": 5812,
      "##耶": 5813,
      "##埔": 5814,
      "##ḏ": 5815,
      "##看": 5816,
      "##丨": 5817,
      "##ሥ": 5818,
      "##መ": 5819,
      "##ራ": 5820,
      "##雪": 5821,
      "##齋": 5822,
      "##訓": 5823,
      "##俊": 5824,
      "##单": 5825,
      "##什": 5826,
      "##揚": 5827,
      "##論": 5828,
      "##炯": 5829,
      "##負": 5830,
      "##程": 5831,
      "##码": 5832,
      "##胞": 5833,
      "##ヌ": 5834,
      "##̄": 5835,
      "##鸡": 5836,
      "##정": 5837,
      "##ừ": 5838,
      "##货": 5839,
      "##佰": 5840,
      "##ễ": 5841,
      "##ḫ": 5842,
      "##噌": 5843,
      "##卫": 5844,
      "##満": 5845,
      "##노": 5846,
      "##키": 5847,
      "##오": 5848,
      "##案": 5849,
      "##仅": 5850,
      "##九": 5851,
      "##乌": 5852,
      "##ຂ": 5853,
      "##ົ": 5854,
      "##້": 5855,
      "##ໜ": 5856,
      "##ຽ": 5857,
      "##ວ": 5858,
      "##೮": 5859,
      "##೩": 5860,
      "##夜": 5861,
      "##ڭ": 5862,
      "##徳": 5863,
      "##☯": 5864,
      "##♫": 5865,
      "##ქ": 5866,
      "##郷": 5867,
      "##宿": 5868,
      "##鐵": 5869,
      "##数": 5870,
      "##珍": 5871,
      "##ヨ": 5872,
      "##ぢ": 5873,
      "##グ": 5874,
      "##讨": 5875,
      "##ῆ": 5876,
      "##吾": 5877,
      "##治": 5878,
      "##哥": 5879,
      "##尿": 5880,
      "##措": 5881,
      "##ホ": 5882,
      "##調": 5883,
      "##べ": 5884,
      "##割": 5885,
      "##庭": 5886,
      "##序": 5887,
      "##ˆ": 5888,
      "##李": 5889,
      "##ད": 5890,
      "##ȃ": 5891,
      "##委": 5892,
      "##展": 5893,
      "##眩": 5894,
      "##ڤ": 5895,
      "##Ҳ": 5896,
      "##ҳ": 5897,
      "##鍋": 5898,
      "##ሰ": 5899,
      "##ነ": 5900,
      "##ध": 5901,
      "##幹": 5902,
      "##¾": 5903,
      "##鹅": 5904,
      "##ፅ": 5905,
      "##ዕ": 5906,
      "##ほ": 5907,
      "##ぼ": 5908,
      "##ฟ": 5909,
      "##各": 5910,
      "##実": 5911,
      "##丘": 5912,
      "##≤": 5913,
      "##役": 5914,
      "##ു": 5915,
      "##婦": 5916,
      "##ྔ": 5917,
      "##ན": 5918,
      "##ぷ": 5919,
      "##Ɩ": 5920,
      "##Ɲ": 5921,
      "##Ɠ": 5922,
      "##Ƭ": 5923,
      "##Ơ": 5924,
      "##Ȥ": 5925,
      "##砕": 5926,
      "##崖": 5927,
      "##郡": 5928,
      "##刚": 5929,
      "##基": 5930,
      "##因": 5931,
      "##活": 5932,
      "##煮": 5933,
      "##詰": 5934,
      "##応": 5935,
      "##桃": 5936,
      "##拟": 5937,
      "##罗": 5938,
      "##ய": 5939,
      "##ு": 5940,
      "##த": 5941,
      "##ẻ": 5942,
      "##ി": 5943,
      "##ോ": 5944,
      "##യ": 5945,
      "##ђ": 5946,
      "##┬": 5947,
      "##卖": 5948,
      "##留": 5949,
      "##触": 5950,
      "##뀌": 5951,
      "##었": 5952,
      "##습": 5953,
      "##니": 5954,
      "##다": 5955,
      "##伸": 5956,
      "##૦": 5957,
      "##૧": 5958,
      "##积": 5959,
      "##盛": 5960,
      "##ỏ": 5961,
      "##班": 5962,
      "##翼": 5963,
      "##ټ": 5964,
      "##逸": 5965,
      "##Π": 5966,
      "##禅": 5967,
      "##₠": 5968,
      "##讼": 5969,
      "##桥": 5970,
      "##乏": 5971,
      "##栽": 5972,
      "##澳": 5973,
      "##逢": 5974,
      "##賈": 5975,
      "##材": 5976,
      "##赛": 5977,
      "##钦": 5978,
      "##瘤": 5979,
      "##려": 5980,
      "##噛": 5981,
      "##摂": 5982,
      "##纪": 5983,
      "##葉": 5984,
      "##ぁ": 5985,
      "##詳": 5986,
      "##轻": 5987,
      "##ရ": 5988,
      "##ဝ": 5989,
      "##ဟ": 5990,
      "##您": 5991,
      "##ద": 5992,
      "##ే": 5993,
      "##శ": 5994,
      "##堤": 5995,
      "##淹": 5996,
      "##ĸ": 5997,
      "##琲": 5998,
      "##ຈ": 5999,
      "##找": 6000,
      "##જ": 6001,
      "##喫": 6002,
      "##静": 6003,
      "##怡": 6004,
      "##農": 6005,
      "##答": 6006,
      "##述": 6007,
      "##˚": 6008,
      "##遷": 6009,
      "##秉": 6010,
      "##官": 6011,
      "##ɡ": 6012,
      "##ஷ": 6013,
      "##ங": 6014,
      "##ட": 6015,
      "##ன": 6016,
      "##呆": 6017,
      "##梅": 6018,
      "##潢": 6019,
      "##锈": 6020,
      "##钢": 6021,
      "##ெ": 6022,
      "##ை": 6023,
      "##遗": 6024,
      "##憾": 6025,
      "##സ": 6026,
      "##燗": 6027,
      "##恢": 6028,
      "##￼": 6029,
      "##ʻ": 6030,
      "##⇒": 6031,
      "##◆": 6032,
      "##ά": 6033,
      "th": 6034,
      "the": 6035,
      "##er": 6036,
      "##on": 6037,
      "##in": 6038,
      "##at": 6039,
      "##es": 6040,
      "##en": 6041,
      "##or": 6042,
      "##nd": 6043,
      "of": 6044,
      "##it": 6045,
      "##an": 6046,
      "##ed": 6047,
      "##ion": 6048,
      "##al": 6049,
      "##ou": 6050,
      "in": 6051,
      "##ar": 6052,
      "to": 6053,
      "##is": 6054,
      "and": 6055,
      "##ing": 6056,
      "##re": 6057,
      "##ic": 6058,
      "##ro": 6059,
      "##ent": 6060,
      "##as": 6061,
      "##om": 6062,
      "##le": 6063,
      "##el": 6064,
      "##il": 6065,
      "##ct": 6066,
      "is": 6067,
      "##st": 6068,
      "be": 6069,
      "##ur": 6070,
      "##ation": 6071,
      "re": 6072,
      "##ot": 6073,
      "for": 6074,
      "##ve": 6075,
      "on": 6076,
      "##ly": 6077,
      "##et": 6078,
      "Th": 6079,
      "that": 6080,
      "##ut": 6081,
      "wh": 6082,
      "##ment": 6083,
      "##ol": 6084,
      "##id": 6085,
      "##ce": 6086,
      "##ch": 6087,
      "pro": 6088,
      "##ith": 6089,
      "con": 6090,
      "##pe": 6091,
      "##ig": 6092,
      "##se": 6093,
      "with": 6094,
      "##ra": 6095,
      "al": 6096,
      "##ow": 6097,
      "st": 6098,
      "##ul": 6099,
      "are": 6100,
      "it": 6101,
      "##ers": 6102,
      "##ir": 6103,
      "##ort": 6104,
      "##ay": 6105,
      "as": 6106,
      "The": 6107,
      "you": 6108,
      "##ess": 6109,
      "ha": 6110,
      "de": 6111,
      "##ter": 6112,
      "##im": 6113,
      "com": 6114,
      "##ill": 6115,
      "##ver": 6116,
      "##est": 6117,
      "an": 6118,
      "we": 6119,
      "##ad": 6120,
      "##ies": 6121,
      "##ld": 6122,
      "su": 6123,
      "##th": 6124,
      "##am": 6125,
      "this": 6126,
      "##ble": 6127,
      "##ity": 6128,
      "##ate": 6129,
      "ex": 6130,
      "or": 6131,
      "##ge": 6132,
      "##pp": 6133,
      "##em": 6134,
      "##os": 6135,
      "not": 6136,
      "ne": 6137,
      "##iv": 6138,
      "##op": 6139,
      "by": 6140,
      "##ak": 6141,
      "##ant": 6142,
      "have": 6143,
      "##ich": 6144,
      "at": 6145,
      "##ain": 6146,
      "##ive": 6147,
      "##ist": 6148,
      "##igh": 6149,
      "sh": 6150,
      "##ci": 6151,
      "##us": 6152,
      "##ust": 6153,
      "##uro": 6154,
      "##ould": 6155,
      "##rom": 6156,
      "##art": 6157,
      "se": 6158,
      "en": 6159,
      "##od": 6160,
      "will": 6161,
      "which": 6162,
      "Euro": 6163,
      "Europe": 6164,
      "##ore": 6165,
      "##oun": 6166,
      "from": 6167,
      "##mp": 6168,
      "##ff": 6169,
      "##ere": 6170,
      "##ia": 6171,
      "##un": 6172,
      "##ect": 6173,
      "##um": 6174,
      "can": 6175,
      "##ions": 6176,
      "##ac": 6177,
      "has": 6178,
      "##res": 6179,
      "all": 6180,
      "##our": 6181,
      "ch": 6182,
      "##ri": 6183,
      "##omm": 6184,
      "##and": 6185,
      "##ard": 6186,
      "##ure": 6187,
      "##end": 6188,
      "res": 6189,
      "##ight": 6190,
      "##oc": 6191,
      "##qu": 6192,
      "comp": 6193,
      "wor": 6194,
      "##so": 6195,
      "In": 6196,
      "was": 6197,
      "le": 6198,
      "our": 6199,
      "##all": 6200,
      "European": 6201,
      "##ber": 6202,
      "Comm": 6203,
      "##ie": 6204,
      "##ud": 6205,
      "##ally": 6206,
      "cont": 6207,
      "ad": 6208,
      "##iss": 6209,
      "imp": 6210,
      "##rou": 6211,
      "so": 6212,
      "##ast": 6213,
      "##ell": 6214,
      "##cc": 6215,
      "##ated": 6216,
      "##if": 6217,
      "##ount": 6218,
      "##00": 6219,
      "us": 6220,
      "##ost": 6221,
      "##ous": 6222,
      "##able": 6223,
      "ag": 6224,
      "also": 6225,
      "part": 6226,
      "##ab": 6227,
      "pl": 6228,
      "##ish": 6229,
      "##ans": 6230,
      "##pt": 6231,
      "##ations": 6232,
      "me": 6233,
      "##out": 6234,
      "di": 6235,
      "##age": 6236,
      "##uct": 6237,
      "##ag": 6238,
      "do": 6239,
      "##ome": 6240,
      "un": 6241,
      "its": 6242,
      "your": 6243,
      "St": 6244,
      "##ult": 6245,
      "##ission": 6246,
      "##ear": 6247,
      "We": 6248,
      "ab": 6249,
      "##port": 6250,
      "##vel": 6251,
      "##ther": 6252,
      "##ice": 6253,
      "int": 6254,
      "##lo": 6255,
      "##per": 6256,
      "##ical": 6257,
      "##act": 6258,
      "qu": 6259,
      "##ree": 6260,
      "##ake": 6261,
      "##orm": 6262,
      "but": 6263,
      "go": 6264,
      "there": 6265,
      "##ance": 6266,
      "It": 6267,
      "##gh": 6268,
      "inter": 6269,
      "##ik": 6270,
      "##ine": 6271,
      "##ments": 6272,
      "Mr": 6273,
      "Commission": 6274,
      "##ary": 6275,
      "reg": 6276,
      "##ence": 6277,
      "##ue": 6278,
      "##og": 6279,
      "inc": 6280,
      "##ach": 6281,
      "would": 6282,
      "tr": 6283,
      "##ely": 6284,
      "more": 6285,
      "##ong": 6286,
      "##ates": 6287,
      "pr": 6288,
      "##ition": 6289,
      "their": 6290,
      "##iz": 6291,
      "##ens": 6292,
      "pol": 6293,
      "man": 6294,
      "##her": 6295,
      "##cial": 6296,
      "he": 6297,
      "been": 6298,
      "##ail": 6299,
      "##ind": 6300,
      "##con": 6301,
      "##lic": 6302,
      "##ime": 6303,
      "##erv": 6304,
      "##reat": 6305,
      "Un": 6306,
      "one": 6307,
      "dis": 6308,
      "##form": 6309,
      "am": 6310,
      "This": 6311,
      "##ark": 6312,
      "acc": 6313,
      "##erm": 6314,
      "app": 6315,
      "##ident": 6316,
      "##ap": 6317,
      "##ide": 6318,
      "##pport": 6319,
      "##ery": 6320,
      "should": 6321,
      "up": 6322,
      "work": 6323,
      "tra": 6324,
      "new": 6325,
      "count": 6326,
      "##ok": 6327,
      "comm": 6328,
      "off": 6329,
      "##ry": 6330,
      "##ace": 6331,
      "who": 6332,
      "##ign": 6333,
      "##ase": 6334,
      "##ip": 6335,
      "out": 6336,
      "Pres": 6337,
      "##ub": 6338,
      "spe": 6339,
      "##ike": 6340,
      "##au": 6341,
      "##ite": 6342,
      "##si": 6343,
      "must": 6344,
      "other": 6345,
      "##ack": 6346,
      "##ational": 6347,
      "co": 6348,
      "##ities": 6349,
      "##ord": 6350,
      "te": 6351,
      "##enc": 6352,
      "ro": 6353,
      "cl": 6354,
      "pos": 6355,
      "they": 6356,
      "need": 6357,
      "act": 6358,
      "pe": 6359,
      "very": 6360,
      "##one": 6361,
      "200": 6362,
      "##otel": 6363,
      "##are": 6364,
      "##itt": 6365,
      "year": 6366,
      "ind": 6367,
      "##arl": 6368,
      "##int": 6369,
      "ev": 6370,
      "##ress": 6371,
      "prod": 6372,
      "ar": 6373,
      "President": 6374,
      "only": 6375,
      "like": 6376,
      "pre": 6377,
      "cons": 6378,
      "time": 6379,
      "bec": 6380,
      "##ject": 6381,
      "##ose": 6382,
      "##ial": 6383,
      "about": 6384,
      "per": 6385,
      "##ember": 6386,
      "than": 6387,
      "und": 6388,
      "##ame": 6389,
      "any": 6390,
      "str": 6391,
      "prov": 6392,
      "right": 6393,
      "##av": 6394,
      "##velop": 6395,
      "##ee": 6396,
      "##pl": 6397,
      "no": 6398,
      "po": 6399,
      "##cess": 6400,
      "##rect": 6401,
      "##arlia": 6402,
      "bet": 6403,
      "rel": 6404,
      "these": 6405,
      "##lect": 6406,
      "##ass": 6407,
      "##arliament": 6408,
      "sy": 6409,
      "sp": 6410,
      "##fore": 6411,
      "##ise": 6412,
      "import": 6413,
      "##ution": 6414,
      "##pos": 6415,
      "##mm": 6416,
      "report": 6417,
      "##ility": 6418,
      "rec": 6419,
      "##ious": 6420,
      "##ors": 6421,
      "Ch": 6422,
      "develop": 6423,
      "##uc": 6424,
      "if": 6425,
      "##ks": 6426,
      "cr": 6427,
      "##ople": 6428,
      "Union": 6429,
      "serv": 6430,
      "##wn": 6431,
      "##irst": 6432,
      "##ern": 6433,
      "them": 6434,
      "trans": 6435,
      "##ian": 6436,
      "##ries": 6437,
      "##ew": 6438,
      "##ures": 6439,
      "##stem": 6440,
      "Parliament": 6441,
      "##ause": 6442,
      "19": 6443,
      "##ings": 6444,
      "inst": 6445,
      "over": 6446,
      "##ang": 6447,
      "##lud": 6448,
      "dec": 6449,
      "##now": 6450,
      "conc": 6451,
      "##ert": 6452,
      "##ular": 6453,
      "eff": 6454,
      "##pect": 6455,
      "##get": 6456,
      "##ile": 6457,
      "EU": 6458,
      "into": 6459,
      "people": 6460,
      "##ays": 6461,
      "sub": 6462,
      "des": 6463,
      "product": 6464,
      "##ual": 6465,
      "##we": 6466,
      "well": 6467,
      "Al": 6468,
      "my": 6469,
      "##iew": 6470,
      "##ounc": 6471,
      "some": 6472,
      "support": 6473,
      "use": 6474,
      "##very": 6475,
      "what": 6476,
      "were": 6477,
      "such": 6478,
      "##ft": 6479,
      "##der": 6480,
      "States": 6481,
      "##ful": 6482,
      "##conom": 6483,
      "sa": 6484,
      "##ov": 6485,
      "system": 6486,
      "high": 6487,
      "##xt": 6488,
      "##ade": 6489,
      "ob": 6490,
      "##ices": 6491,
      "Wh": 6492,
      "add": 6493,
      "##und": 6494,
      "under": 6495,
      "Member": 6496,
      "mark": 6497,
      "diff": 6498,
      "##de": 6499,
      "fin": 6500,
      "countries": 6501,
      "first": 6502,
      "##tern": 6503,
      "##..": 6504,
      "##ook": 6505,
      "inform": 6506,
      "when": 6507,
      "##resent": 6508,
      "inv": 6509,
      "##ire": 6510,
      "most": 6511,
      "##ouncil": 6512,
      "##ating": 6513,
      "##ater": 6514,
      "his": 6515,
      "partic": 6516,
      "##ild": 6517,
      "loc": 6518,
      "Council": 6519,
      "polic": 6520,
      "know": 6521,
      "##ep": 6522,
      "##rough": 6523,
      "cent": 6524,
      "##ec": 6525,
      "now": 6526,
      "##ory": 6527,
      "##ever": 6528,
      "##ound": 6529,
      "again": 6530,
      "econom": 6531,
      "important": 6532,
      "just": 6533,
      "how": 6534,
      "includ": 6535,
      "tw": 6536,
      "make": 6537,
      "prog": 6538,
      "##ple": 6539,
      "##ween": 6540,
      "##fer": 6541,
      "gu": 6542,
      "##ric": 6543,
      "hotel": 6544,
      "##ange": 6545,
      "many": 6546,
      "att": 6547,
      "bas": 6548,
      "between": 6549,
      "##ink": 6550,
      "##ough": 6551,
      "propos": 6552,
      "##ative": 6553,
      "requ": 6554,
      "##roup": 6555,
      "##cept": 6556,
      "intern": 6557,
      "direct": 6558,
      "##ms": 6559,
      "dem": 6560,
      "market": 6561,
      "##oll": 6562,
      "because": 6563,
      "##sible": 6564,
      "take": 6565,
      "##fter": 6566,
      "world": 6567,
      "As": 6568,
      "##oth": 6569,
      "mod": 6570,
      "##eg": 6571,
      "##ural": 6572,
      "##ublic": 6573,
      "la": 6574,
      "##any": 6575,
      "##pon": 6576,
      "##ention": 6577,
      "##ied": 6578,
      "##ces": 6579,
      "bel": 6580,
      "rem": 6581,
      "room": 6582,
      "##own": 6583,
      "where": 6584,
      "##ards": 6585,
      "ext": 6586,
      "##ality": 6587,
      "made": 6588,
      "leg": 6589,
      "##ract": 6590,
      "hel": 6591,
      "two": 6592,
      "##ency": 6593,
      "##ents": 6594,
      "op": 6595,
      "information": 6596,
      "cle": 6597,
      "##ph": 6598,
      "##ives": 6599,
      "point": 6600,
      "av": 6601,
      "great": 6602,
      "##ib": 6603,
      "years": 6604,
      "##te": 6605,
      "see": 6606,
      "good": 6607,
      "##ob": 6608,
      "##uring": 6609,
      "##chn": 6610,
      "every": 6611,
      "##als": 6612,
      "ac": 6613,
      "Con": 6614,
      "even": 6615,
      "sit": 6616,
      "way": 6617,
      "If": 6618,
      "through": 6619,
      "##olog": 6620,
      "##round": 6621,
      "iss": 6622,
      "##ove": 6623,
      "disc": 6624,
      "those": 6625,
      "##rib": 6626,
      "bu": 6627,
      "##ax": 6628,
      "had": 6629,
      "sol": 6630,
      "polit": 6631,
      "pers": 6632,
      "set": 6633,
      "min": 6634,
      "want": 6635,
      "##ues": 6636,
      "##vern": 6637,
      "##gy": 6638,
      "##ey": 6639,
      "On": 6640,
      "policy": 6641,
      "##ener": 6642,
      "aut": 6643,
      "agree": 6644,
      "##ific": 6645,
      "...": 6646,
      "own": 6647,
      "tak": 6648,
      "##abl": 6649,
      "##ru": 6650,
      "being": 6651,
      "##row": 6652,
      "proble": 6653,
      "##ited": 6654,
      "may": 6655,
      "exp": 6656,
      "##ced": 6657,
      "form": 6658,
      "##day": 6659,
      "##ieve": 6660,
      "##ages": 6661,
      "col": 6662,
      "##arm": 6663,
      "appro": 6664,
      "fact": 6665,
      "There": 6666,
      "##urr": 6667,
      "long": 6668,
      "prot": 6669,
      "##urn": 6670,
      "particular": 6671,
      "##uss": 6672,
      "num": 6673,
      "view": 6674,
      "##unity": 6675,
      "##air": 6676,
      "##gan": 6677,
      "##uch": 6678,
      "sc": 6679,
      "##ath": 6680,
      "fe": 6681,
      "##elf": 6682,
      "order": 6683,
      "process": 6684,
      "ass": 6685,
      "differ": 6686,
      "##ently": 6687,
      "##ss": 6688,
      "##arge": 6689,
      "##ower": 6690,
      "vot": 6691,
      ").": 6692,
      "ph": 6693,
      "car": 6694,
      "respon": 6695,
      "progra": 6696,
      "sm": 6697,
      "##ood": 6698,
      "For": 6699,
      "quest": 6700,
      "##read": 6701,
      "##land": 6702,
      "##ism": 6703,
      "cour": 6704,
      "##ision": 6705,
      "##ines": 6706,
      "main": 6707,
      "mon": 6708,
      "cre": 6709,
      "end": 6710,
      "rep": 6711,
      "area": 6712,
      "call": 6713,
      "You": 6714,
      "bus": 6715,
      "rest": 6716,
      "##atic": 6717,
      "here": 6718,
      "find": 6719,
      "##ict": 6720,
      "Am": 6721,
      "def": 6722,
      "techn": 6723,
      "20": 6724,
      "deb": 6725,
      "economic": 6726,
      "after": 6727,
      "##uman": 6728,
      "ful": 6729,
      "cond": 6730,
      "term": 6731,
      "##ider": 6732,
      "##lement": 6733,
      "##ork": 6734,
      "##ren": 6735,
      "situ": 6736,
      "place": 6737,
      "public": 6738,
      "person": 6739,
      "clear": 6740,
      "concern": 6741,
      "##ince": 6742,
      "possible": 6743,
      "emp": 6744,
      "help": 6745,
      "same": 6746,
      "##ouse": 6747,
      "##ning": 6748,
      "conf": 6749,
      "##iness": 6750,
      "##par": 6751,
      "political": 6752,
      "effect": 6753,
      "##bers": 6754,
      "exper": 6755,
      "country": 6756,
      "access": 6757,
      "##ick": 6758,
      "##eth": 6759,
      "##ron": 6760,
      "##ety": 6761,
      "protect": 6762,
      "##ved": 6763,
      "incre": 6764,
      "contin": 6765,
      "say": 6766,
      "sim": 6767,
      "##eng": 6768,
      "could": 6769,
      "development": 6770,
      "interest": 6771,
      "comple": 6772,
      "does": 6773,
      "exc": 6774,
      "##ily": 6775,
      "An": 6776,
      "##rol": 6777,
      "then": 6778,
      "aw": 6779,
      "curr": 6780,
      "within": 6781,
      "rights": 6782,
      "##oy": 6783,
      "level": 6784,
      "##ised": 6785,
      "result": 6786,
      "sec": 6787,
      "del": 6788,
      "ra": 6789,
      "exam": 6790,
      "offer": 6791,
      "stand": 6792,
      "ser": 6793,
      "provid": 6794,
      "against": 6795,
      "##ner": 6796,
      "avail": 6797,
      "present": 6798,
      "both": 6799,
      "est": 6800,
      "therefore": 6801,
      "used": 6802,
      "equ": 6803,
      "ap": 6804,
      "val": 6805,
      "dist": 6806,
      "much": 6807,
      "##ason": 6808,
      "Pro": 6809,
      "gener": 6810,
      "##loy": 6811,
      "##ef": 6812,
      "How": 6813,
      "##old": 6814,
      "##iron": 6815,
      "##ruct": 6816,
      "get": 6817,
      "det": 6818,
      "##ional": 6819,
      "##itions": 6820,
      "##ata": 6821,
      "##iven": 6822,
      "ent": 6823,
      "##utions": 6824,
      "##viron": 6825,
      "fund": 6826,
      "play": 6827,
      "finan": 6828,
      "##hip": 6829,
      "##ty": 6830,
      "free": 6831,
      "vis": 6832,
      "Germ": 6833,
      "##ustom": 6834,
      "##ran": 6835,
      "cert": 6836,
      "human": 6837,
      "mak": 6838,
      "##ollow": 6839,
      "),": 6840,
      "lead": 6841,
      "sign": 6842,
      "group": 6843,
      "##ting": 6844,
      "without": 6845,
      "##ittee": 6846,
      "fam": 6847,
      "social": 6848,
      "meas": 6849,
      "##ici": 6850,
      "number": 6851,
      "em": 6852,
      "##aj": 6853,
      "govern": 6854,
      "##its": 6855,
      "Hotel": 6856,
      "red": 6857,
      "##cond": 6858,
      "##vironment": 6859,
      "sur": 6860,
      "last": 6861,
      "##rit": 6862,
      "international": 6863,
      "##led": 6864,
      "var": 6865,
      "think": 6866,
      "##ts": 6867,
      "mat": 6868,
      "different": 6869,
      "allow": 6870,
      "##ted": 6871,
      "services": 6872,
      "ens": 6873,
      "real": 6874,
      "##ration": 6875,
      "organ": 6876,
      "##ug": 6877,
      "sect": 6878,
      "oper": 6879,
      "##io": 6880,
      "still": 6881,
      "adv": 6882,
      "##embers": 6883,
      "hand": 6884,
      "##ists": 6885,
      "down": 6886,
      "back": 6887,
      "##les": 6888,
      "available": 6889,
      "const": 6890,
      "fut": 6891,
      "##els": 6892,
      "##ock": 6893,
      "##urther": 6894,
      "consider": 6895,
      "fl": 6896,
      "En": 6897,
      "open": 6898,
      "##ready": 6899,
      "##alk": 6900,
      "compet": 6901,
      "business": 6902,
      "look": 6903,
      "##ulation": 6904,
      "##cif": 6905,
      "follow": 6906,
      "##sib": 6907,
      "##ics": 6908,
      "custom": 6909,
      "before": 6910,
      "already": 6911,
      "believe": 6912,
      "future": 6913,
      "project": 6914,
      "start": 6915,
      "national": 6916,
      "##ants": 6917,
      "##not": 6918,
      "small": 6919,
      "air": 6920,
      "prev": 6921,
      "##ven": 6922,
      "cor": 6923,
      "today": 6924,
      "##ral": 6925,
      "special": 6926,
      "course": 6927,
      "##arg": 6928,
      "De": 6929,
      "##alth": 6930,
      "Ar": 6931,
      "That": 6932,
      "state": 6933,
      "products": 6934,
      "elect": 6935,
      "ins": 6936,
      "med": 6937,
      "##ope": 6938,
      "environment": 6939,
      "able": 6940,
      "indust": 6941,
      "##pr": 6942,
      "##eration": 6943,
      "too": 6944,
      "All": 6945,
      "design": 6946,
      "##ten": 6947,
      "##hor": 6948,
      "##ital": 6949,
      "##ute": 6950,
      "##itiz": 6951,
      "##eld": 6952,
      "##ving": 6953,
      "ref": 6954,
      "##ually": 6955,
      "So": 6956,
      "quality": 6957,
      "ide": 6958,
      "He": 6959,
      "dra": 6960,
      "Se": 6961,
      "service": 6962,
      "data": 6963,
      "cannot": 6964,
      "certain": 6965,
      "##ank": 6966,
      "art": 6967,
      "##urity": 6968,
      "case": 6969,
      "lif": 6970,
      "day": 6971,
      "##ier": 6972,
      "##tain": 6973,
      "experi": 6974,
      "10": 6975,
      "cap": 6976,
      "programm": 6977,
      "##ately": 6978,
      "##ves": 6979,
      "But": 6980,
      "br": 6981,
      "specif": 6982,
      "regard": 6983,
      "##ished": 6984,
      "law": 6985,
      "pur": 6986,
      "##ese": 6987,
      "question": 6988,
      "##ajor": 6989,
      "Commissioner": 6990,
      "put": 6991,
      "##ether": 6992,
      "impro": 6993,
      "inf": 6994,
      "offers": 6995,
      "bo": 6996,
      "fac": 6997,
      "##udget": 6998,
      "beh": 6999,
      "bl": 7000,
      "meet": 7001,
      "eas": 7002,
      "##lease": 7003,
      "199": 7004,
      "##iving": 7005,
      "best": 7006,
      "citiz": 7007,
      "##fort": 7008,
      "##ix": 7009,
      "reason": 7010,
      "##other": 7011,
      "financial": 7012,
      "prom": 7013,
      "her": 7014,
      "during": 7015,
      "activ": 7016,
      "ter": 7017,
      "ach": 7018,
      "##ivers": 7019,
      "nat": 7020,
      "##ather": 7021,
      "debate": 7022,
      "said": 7023,
      "##ird": 7024,
      "##ness": 7025,
      "##ccess": 7026,
      "At": 7027,
      "respect": 7028,
      "means": 7029,
      "issue": 7030,
      "proposal": 7031,
      "rev": 7032,
      "city": 7033,
      "example": 7034,
      "control": 7035,
      "cost": 7036,
      "##ars": 7037,
      "ed": 7038,
      "##ible": 7039,
      "prof": 7040,
      "including": 7041,
      "##ina": 7042,
      "applic": 7043,
      "implement": 7044,
      "##ination": 7045,
      "major": 7046,
      "ask": 7047,
      "web": 7048,
      "since": 7049,
      "##ining": 7050,
      "list": 7051,
      "And": 7052,
      "situation": 7053,
      "show": 7054,
      "necess": 7055,
      "However": 7056,
      "found": 7057,
      "coop": 7058,
      "##ences": 7059,
      "##ined": 7060,
      "##isation": 7061,
      "dep": 7062,
      "common": 7063,
      "es": 7064,
      "saf": 7065,
      "##ivid": 7066,
      "amend": 7067,
      "ener": 7068,
      "Our": 7069,
      "##lus": 7070,
      "With": 7071,
      "resol": 7072,
      "child": 7073,
      "##bal": 7074,
      "based": 7075,
      "adop": 7076,
      "power": 7077,
      "fun": 7078,
      "few": 7079,
      "##ized": 7080,
      "##ests": 7081,
      "each": 7082,
      "##ability": 7083,
      "##ways": 7084,
      "object": 7085,
      "##amp": 7086,
      "citizens": 7087,
      "far": 7088,
      "Sp": 7089,
      "##reed": 7090,
      "instit": 7091,
      "Committee": 7092,
      "##que": 7093,
      "##ains": 7094,
      "hist": 7095,
      "##ram": 7096,
      "US": 7097,
      "##imes": 7098,
      "pass": 7099,
      "author": 7100,
      "democ": 7101,
      "##ilities": 7102,
      "cult": 7103,
      "##illion": 7104,
      "three": 7105,
      "invest": 7106,
      "measures": 7107,
      "employ": 7108,
      "grow": 7109,
      "##alf": 7110,
      "##red": 7111,
      "represent": 7112,
      "read": 7113,
      "##earch": 7114,
      "areas": 7115,
      "rooms": 7116,
      "##ann": 7117,
      "Intern": 7118,
      "##ware": 7119,
      "specific": 7120,
      "problem": 7121,
      "give": 7122,
      "build": 7123,
      "energy": 7124,
      "account": 7125,
      "success": 7126,
      "##elc": 7127,
      "ty": 7128,
      "next": 7129,
      "opt": 7130,
      "Is": 7131,
      "discuss": 7132,
      "par": 7133,
      "neg": 7134,
      "##ield": 7135,
      "further": 7136,
      "establ": 7137,
      "##ology": 7138,
      "rece": 7139,
      "budget": 7140,
      "##ased": 7141,
      "##ward": 7142,
      "trad": 7143,
      "key": 7144,
      "provide": 7145,
      "large": 7146,
      "##omen": 7147,
      "taken": 7148,
      "To": 7149,
      "agreement": 7150,
      "second": 7151,
      "dr": 7152,
      "##itional": 7153,
      "Sh": 7154,
      "##rat": 7155,
      "prin": 7156,
      "##ified": 7157,
      "supp": 7158,
      "##ium": 7159,
      "stay": 7160,
      "pay": 7161,
      "ensure": 7162,
      "met": 7163,
      "##ential": 7164,
      "##eur": 7165,
      "som": 7166,
      "##ising": 7167,
      "imm": 7168,
      "##raph": 7169,
      "##iti": 7170,
      "##joy": 7171,
      "accept": 7172,
      "shall": 7173,
      "##line": 7174,
      "opport": 7175,
      "problems": 7176,
      "Mar": 7177,
      "##over": 7178,
      "company": 7179,
      "##az": 7180,
      "come": 7181,
      "Re": 7182,
      "##aut": 7183,
      "necessary": 7184,
      "##aur": 7185,
      "##ases": 7186,
      "position": 7187,
      "##isl": 7188,
      "##lobal": 7189,
      "security": 7190,
      "##oint": 7191,
      "##ross": 7192,
      "change": 7193,
      "##ys": 7194,
      "##cially": 7195,
      "priv": 7196,
      "##ules": 7197,
      "##nect": 7198,
      "health": 7199,
      "im": 7200,
      "princi": 7201,
      "given": 7202,
      "##itive": 7203,
      "stud": 7204,
      "pract": 7205,
      "hope": 7206,
      "##reak": 7207,
      "why": 7208,
      "##utes": 7209,
      "pres": 7210,
      "however": 7211,
      "fil": 7212,
      "##stand": 7213,
      "old": 7214,
      "cooperation": 7215,
      "ret": 7216,
      "while": 7217,
      "invol": 7218,
      "##ets": 7219,
      "##men": 7220,
      "##rod": 7221,
      "sk": 7222,
      "##ively": 7223,
      "life": 7224,
      "aff": 7225,
      "protection": 7226,
      "vote": 7227,
      "##iter": 7228,
      "##rac": 7229,
      "##eric": 7230,
      "did": 7231,
      "##ond": 7232,
      "##ired": 7233,
      "##riend": 7234,
      "##unic": 7235,
      "tour": 7236,
      "refer": 7237,
      "needs": 7238,
      "pop": 7239,
      "always": 7240,
      "legisl": 7241,
      "##leg": 7242,
      "##sibility": 7243,
      "welc": 7244,
      "##rem": 7245,
      "individ": 7246,
      "##ize": 7247,
      "strate": 7248,
      "Group": 7249,
      "ben": 7250,
      "comb": 7251,
      "They": 7252,
      "reach": 7253,
      "15": 7254,
      "12": 7255,
      "deal": 7256,
      "enter": 7257,
      "located": 7258,
      "wish": 7259,
      "short": 7260,
      "##agement": 7261,
      "action": 7262,
      "happ": 7263,
      "United": 7264,
      "better": 7265,
      "net": 7266,
      "##ek": 7267,
      "##ave": 7268,
      "pri": 7269,
      "full": 7270,
      "##inal": 7271,
      "Americ": 7272,
      "##eep": 7273,
      "##ret": 7274,
      "using": 7275,
      "less": 7276,
      "fav": 7277,
      "require": 7278,
      "What": 7279,
      "##ury": 7280,
      "unt": 7281,
      "##mb": 7282,
      "##wards": 7283,
      "##ction": 7284,
      "el": 7285,
      "integ": 7286,
      "##ient": 7287,
      "cho": 7288,
      "##icult": 7289,
      "##ling": 7290,
      "visit": 7291,
      "connect": 7292,
      "Mrs": 7293,
      "Ind": 7294,
      "production": 7295,
      "working": 7296,
      "sch": 7297,
      "##ung": 7298,
      "##ash": 7299,
      "##ners": 7300,
      "transport": 7301,
      "current": 7302,
      "Ex": 7303,
      "legal": 7304,
      "around": 7305,
      "Community": 7306,
      "terms": 7307,
      "##ources": 7308,
      "word": 7309,
      "whether": 7310,
      "arr": 7311,
      "chang": 7312,
      "When": 7313,
      "##mental": 7314,
      "trade": 7315,
      "become": 7316,
      "particularly": 7317,
      "##ins": 7318,
      "##pporteur": 7319,
      "global": 7320,
      "##ister": 7321,
      "enjoy": 7322,
      "subject": 7323,
      "##ically": 7324,
      "toget": 7325,
      "##por": 7326,
      "##sel": 7327,
      "together": 7328,
      "##ises": 7329,
      "##less": 7330,
      "making": 7331,
      "##ale": 7332,
      "##arant": 7333,
      "sever": 7334,
      "House": 7335,
      "sing": 7336,
      "##orth": 7337,
      "non": 7338,
      "##itted": 7339,
      "difficult": 7340,
      "rapporteur": 7341,
      "run": 7342,
      "sl": 7343,
      "individual": 7344,
      "field": 7345,
      "another": 7346,
      "research": 7347,
      "##oura": 7348,
      "These": 7349,
      "##iod": 7350,
      "modern": 7351,
      "##ense": 7352,
      "ca": 7353,
      "##ands": 7354,
      "clos": 7355,
      "##uce": 7356,
      "Mad": 7357,
      "##ims": 7358,
      "water": 7359,
      "contrib": 7360,
      "express": 7361,
      "##anies": 7362,
      "proper": 7363,
      "18": 7364,
      "children": 7365,
      "promot": 7366,
      "care": 7367,
      "lim": 7368,
      "whole": 7369,
      "issues": 7370,
      "friend": 7371,
      "plan": 7372,
      "beg": 7373,
      "##aff": 7374,
      "##ights": 7375,
      "##pecially": 7376,
      "##ying": 7377,
      "near": 7378,
      "exist": 7379,
      "201": 7380,
      "##ons": 7381,
      "third": 7382,
      "conditions": 7383,
      "sector": 7384,
      "##olid": 7385,
      "local": 7386,
      "adm": 7387,
      "text": 7388,
      "##rad": 7389,
      "address": 7390,
      "guarant": 7391,
      "systems": 7392,
      "fish": 7393,
      "step": 7394,
      "role": 7395,
      "accord": 7396,
      "##eck": 7397,
      "centre": 7398,
      "soft": 7399,
      "tax": 7400,
      "##ocu": 7401,
      "##lose": 7402,
      "##iver": 7403,
      "various": 7404,
      "speak": 7405,
      "##eed": 7406,
      "women": 7407,
      "benef": 7408,
      "initi": 7409,
      "industry": 7410,
      "companies": 7411,
      "##selves": 7412,
      "month": 7413,
      "book": 7414,
      "##angu": 7415,
      "##reen": 7416,
      "basis": 7417,
      "appe": 7418,
      "experience": 7419,
      "Le": 7420,
      "##ux": 7421,
      "##ength": 7422,
      "##oti": 7423,
      "##inist": 7424,
      "Ad": 7425,
      "ann": 7426,
      "occ": 7427,
      "##up": 7428,
      "matter": 7429,
      "especially": 7430,
      "ris": 7431,
      "perform": 7432,
      "##reaty": 7433,
      "called": 7434,
      "##uced": 7435,
      "pack": 7436,
      "Cent": 7437,
      "gent": 7438,
      "effort": 7439,
      "members": 7440,
      "##ah": 7441,
      "war": 7442,
      "Ag": 7443,
      "orig": 7444,
      "vers": 7445,
      "##fact": 7446,
      "Sw": 7447,
      "site": 7448,
      "##imate": 7449,
      "##omp": 7450,
      "done": 7451,
      "break": 7452,
      "##ensive": 7453,
      "proced": 7454,
      "though": 7455,
      "move": 7456,
      "government": 7457,
      "fram": 7458,
      "##isions": 7459,
      "ear": 7460,
      "30": 7461,
      "bro": 7462,
      "German": 7463,
      "region": 7464,
      "##lev": 7465,
      "##thing": 7466,
      "period": 7467,
      "negoti": 7468,
      "enc": 7469,
      "really": 7470,
      "##ived": 7471,
      "beaut": 7472,
      "##ilit": 7473,
      "create": 7474,
      "##aterial": 7475,
      "bed": 7476,
      "prior": 7477,
      "press": 7478,
      "strong": 7479,
      "gentle": 7480,
      "docu": 7481,
      "turn": 7482,
      "pat": 7483,
      "##ething": 7484,
      "improve": 7485,
      "##ances": 7486,
      "food": 7487,
      "Go": 7488,
      "feat": 7489,
      "approach": 7490,
      "##ization": 7491,
      "##oney": 7492,
      "decision": 7493,
      "No": 7494,
      "##ool": 7495,
      "among": 7496,
      "##ended": 7497,
      "million": 7498,
      "##ours": 7499,
      "##ead": 7500,
      "Sch": 7501,
      "consum": 7502,
      "top": 7503,
      "struct": 7504,
      "soci": 7505,
      "##irm": 7506,
      "job": 7507,
      "##outh": 7508,
      "000": 7509,
      "##ogn": 7510,
      "##use": 7511,
      "##adies": 7512,
      "##ending": 7513,
      "itself": 7514,
      "something": 7515,
      "close": 7516,
      "eng": 7517,
      "Pl": 7518,
      "resolution": 7519,
      "general": 7520,
      "##asing": 7521,
      "several": 7522,
      "single": 7523,
      "thank": 7524,
      "lab": 7525,
      "comfort": 7526,
      "langu": 7527,
      "Germany": 7528,
      "Bar": 7529,
      "ple": 7530,
      "page": 7531,
      "Fin": 7532,
      "personal": 7533,
      "restaur": 7534,
      "programme": 7535,
      "continue": 7536,
      "select": 7537,
      "##iber": 7538,
      "##isis": 7539,
      "gr": 7540,
      "##ext": 7541,
      "mult": 7542,
      "excell": 7543,
      "bar": 7544,
      "##ody": 7545,
      "netw": 7546,
      "##lish": 7547,
      "##ipp": 7548,
      "material": 7549,
      "gentlemen": 7550,
      "introd": 7551,
      "let": 7552,
      "dou": 7553,
      "##ories": 7554,
      "going": 7555,
      "expl": 7556,
      "webs": 7557,
      "##ably": 7558,
      "serious": 7559,
      "peace": 7560,
      "often": 7561,
      "##ror": 7562,
      "relations": 7563,
      "management": 7564,
      "home": 7565,
      "contact": 7566,
      "following": 7567,
      "##gg": 7568,
      "least": 7569,
      "crisis": 7570,
      "##rand": 7571,
      "opin": 7572,
      "kind": 7573,
      "town": 7574,
      "directive": 7575,
      "##ework": 7576,
      "##pri": 7577,
      "detail": 7578,
      "char": 7579,
      "mot": 7580,
      "rules": 7581,
      "##ique": 7582,
      "reform": 7583,
      "ve": 7584,
      "she": 7585,
      "##ricult": 7586,
      "class": 7587,
      "understand": 7588,
      "name": 7589,
      "##room": 7590,
      "11": 7591,
      "line": 7592,
      "particip": 7593,
      "progress": 7594,
      "sw": 7595,
      "##ried": 7596,
      "##co": 7597,
      "##ittle": 7598,
      "##ification": 7599,
      "mus": 7600,
      "wr": 7601,
      "away": 7602,
      "Pol": 7603,
      "family": 7604,
      "forward": 7605,
      "range": 7606,
      "il": 7607,
      "hard": 7608,
      "Tur": 7609,
      "##ows": 7610,
      "towards": 7611,
      "##orn": 7612,
      "mention": 7613,
      "once": 7614,
      "##side": 7615,
      "Ro": 7616,
      "ess": 7617,
      "##ither": 7618,
      "conv": 7619,
      "recogn": 7620,
      "bal": 7621,
      "##though": 7622,
      "##icle": 7623,
      "favour": 7624,
      "##itor": 7625,
      "et": 7626,
      "00": 7627,
      "feel": 7628,
      "tot": 7629,
      "Mon": 7630,
      "welcome": 7631,
      "institutions": 7632,
      "communic": 7633,
      "money": 7634,
      "things": 7635,
      "software": 7636,
      "Pr": 7637,
      "##ule": 7638,
      "aid": 7639,
      "Madam": 7640,
      "until": 7641,
      "ur": 7642,
      "Af": 7643,
      "price": 7644,
      "review": 7645,
      "expect": 7646,
      "post": 7647,
      "Treaty": 7648,
      "##airs": 7649,
      "##ees": 7650,
      "establish": 7651,
      "customers": 7652,
      "##iol": 7653,
      "Be": 7654,
      "excellent": 7655,
      "known": 7656,
      "]]": 7657,
      "##thers": 7658,
      "little": 7659,
      "2009": 7660,
      "increase": 7661,
      "apart": 7662,
      "him": 7663,
      "keep": 7664,
      "id": 7665,
      "days": 7666,
      "Ital": 7667,
      "##aps": 7668,
      "location": 7669,
      "growth": 7670,
      "begin": 7671,
      "extrem": 7672,
      "##sequ": 7673,
      "bring": 7674,
      "##way": 7675,
      "opportunity": 7676,
      "install": 7677,
      "##alog": 7678,
      "##idency": 7679,
      "private": 7680,
      "staff": 7681,
      "achieve": 7682,
      "##atives": 7683,
      "##istic": 7684,
      "rather": 7685,
      "##ratic": 7686,
      "New": 7687,
      "profess": 7688,
      "inn": 7689,
      "prepar": 7690,
      "##aces": 7691,
      "Members": 7692,
      "activities": 7693,
      "##ator": 7694,
      "suff": 7695,
      "summ": 7696,
      "##eign": 7697,
      "opp": 7698,
      "resources": 7699,
      "##fect": 7700,
      "collect": 7701,
      "##ared": 7702,
      "Cl": 7703,
      "partners": 7704,
      "mean": 7705,
      "treat": 7706,
      "larg": 7707,
      "##ides": 7708,
      "State": 7709,
      "##reedom": 7710,
      "behalf": 7711,
      "dev": 7712,
      "seem": 7713,
      "provided": 7714,
      "effici": 7715,
      "##iet": 7716,
      "##racy": 7717,
      "##ference": 7718,
      "##iful": 7719,
      "might": 7720,
      "Or": 7721,
      "quite": 7722,
      "foc": 7723,
      "##by": 7724,
      "##uction": 7725,
      "##ply": 7726,
      "Wor": 7727,
      "Gu": 7728,
      "fully": 7729,
      "Fr": 7730,
      "##ng": 7731,
      "four": 7732,
      "big": 7733,
      "port": 7734,
      "signific": 7735,
      "technology": 7736,
      "[[": 7737,
      "##load": 7738,
      "request": 7739,
      "yet": 7740,
      "##enn": 7741,
      "ladies": 7742,
      "aim": 7743,
      "include": 7744,
      "##mber": 7745,
      "walk": 7746,
      "educ": 7747,
      "value": 7748,
      "stat": 7749,
      "##soci": 7750,
      "bord": 7751,
      "proposals": 7752,
      "beach": 7753,
      "left": 7754,
      "amendments": 7755,
      "having": 7756,
      "##ze": 7757,
      "##ples": 7758,
      "##ront": 7759,
      "##icial": 7760,
      "light": 7761,
      "past": 7762,
      "##ER": 7763,
      "gl": 7764,
      "ren": 7765,
      "framework": 7766,
      "##ering": 7767,
      "After": 7768,
      "##ript": 7769,
      "regul": 7770,
      "taking": 7771,
      "remain": 7772,
      "along": 7773,
      "##erg": 7774,
      "phot": 7775,
      "safety": 7776,
      "solution": 7777,
      "event": 7778,
      "heart": 7779,
      "##idence": 7780,
      "economy": 7781,
      "Pal": 7782,
      "##fast": 7783,
      "above": 7784,
      "##aster": 7785,
      "costs": 7786,
      "viol": 7787,
      "abs": 7788,
      "##cient": 7789,
      "adopted": 7790,
      "men": 7791,
      "times": 7792,
      "sat": 7793,
      "strength": 7794,
      "##fully": 7795,
      "creat": 7796,
      "Turk": 7797,
      "content": 7798,
      "others": 7799,
      "##ify": 7800,
      "16": 7801,
      "recomm": 7802,
      "test": 7803,
      "fail": 7804,
      "China": 7805,
      "addition": 7806,
      "histor": 7807,
      "##ival": 7808,
      "Di": 7809,
      "sea": 7810,
      "week": 7811,
      "##lick": 7812,
      "agricult": 7813,
      "opinion": 7814,
      "dest": 7815,
      "##ening": 7816,
      "makes": 7817,
      "head": 7818,
      "building": 7819,
      "entire": 7820,
      "chall": 7821,
      "focus": 7822,
      "charact": 7823,
      "##ters": 7824,
      "##anc": 7825,
      "##edi": 7826,
      "##rated": 7827,
      "tool": 7828,
      "legislation": 7829,
      "##sw": 7830,
      "lo": 7831,
      "##ured": 7832,
      "##ivil": 7833,
      "##iting": 7834,
      "beautiful": 7835,
      "##ne": 7836,
      "25": 7837,
      "effective": 7838,
      "##lex": 7839,
      "application": 7840,
      "return": 7841,
      "freedom": 7842,
      "flo": 7843,
      "##uge": 7844,
      "projects": 7845,
      "##ites": 7846,
      "##ilt": 7847,
      "##arch": 7848,
      "never": 7849,
      "Eng": 7850,
      "##irc": 7851,
      "##imum": 7852,
      "results": 7853,
      "context": 7854,
      "points": 7855,
      "##amental": 7856,
      "##ames": 7857,
      "Art": 7858,
      "policies": 7859,
      "cover": 7860,
      "##wh": 7861,
      "instru": 7862,
      "easy": 7863,
      "concerned": 7864,
      "responsibility": 7865,
      "attention": 7866,
      "sure": 7867,
      "##stain": 7868,
      "##stit": 7869,
      "provides": 7870,
      "website": 7871,
      "One": 7872,
      "##most": 7873,
      "##lin": 7874,
      "tar": 7875,
      "minutes": 7876,
      "14": 7877,
      "##tion": 7878,
      "simply": 7879,
      "appropri": 7880,
      "Med": 7881,
      "due": 7882,
      "construct": 7883,
      "park": 7884,
      "##ograph": 7885,
      "perfect": 7886,
      "house": 7887,
      "World": 7888,
      "##ledge": 7889,
      "autom": 7890,
      "importance": 7891,
      "ident": 7892,
      "17": 7893,
      "groups": 7894,
      "##ode": 7895,
      "bath": 7896,
      "##ior": 7897,
      "commit": 7898,
      "team": 7899,
      "prevent": 7900,
      "typ": 7901,
      "society": 7902,
      "##ump": 7903,
      "##epend": 7904,
      "young": 7905,
      "##for": 7906,
      "##ension": 7907,
      "Min": 7908,
      "questions": 7909,
      "meth": 7910,
      "function": 7911,
      "##ufact": 7912,
      "tem": 7913,
      "environmental": 7914,
      "##ots": 7915,
      "greater": 7916,
      "##rate": 7917,
      "Reg": 7918,
      "sty": 7919,
      "##AT": 7920,
      "continu": 7921,
      "Te": 7922,
      "Res": 7923,
      "innov": 7924,
      "##bon": 7925,
      "##hing": 7926,
      "strategy": 7927,
      "Part": 7928,
      "##ceed": 7929,
      "##ened": 7930,
      "increasing": 7931,
      "win": 7932,
      "euro": 7933,
      "perm": 7934,
      "road": 7935,
      "cred": 7936,
      "host": 7937,
      "check": 7938,
      "complete": 7939,
      "##idd": 7940,
      "holid": 7941,
      "principle": 7942,
      "Des": 7943,
      "natural": 7944,
      "risk": 7945,
      "mount": 7946,
      "Rom": 7947,
      "standards": 7948,
      "##word": 7949,
      "achie": 7950,
      "version": 7951,
      "50": 7952,
      "arch": 7953,
      "talk": 7954,
      "amount": 7955,
      "##man": 7956,
      "##oot": 7957,
      "mach": 7958,
      "won": 7959,
      "100": 7960,
      "words": 7961,
      "manufact": 7962,
      "method": 7963,
      "##oming": 7964,
      "##itch": 7965,
      "appl": 7966,
      "significant": 7967,
      "training": 7968,
      "##ck": 7969,
      "##lig": 7970,
      "required": 7971,
      "pot": 7972,
      "answ": 7973,
      "##ton": 7974,
      "##of": 7975,
      "##rial": 7976,
      "##ological": 7977,
      "demand": 7978,
      "via": 7979,
      "clearly": 7980,
      "##urg": 7981,
      "authorities": 7982,
      "Aust": 7983,
      "##ators": 7984,
      "sal": 7985,
      "pa": 7986,
      "2010": 7987,
      "infl": 7988,
      "##ends": 7989,
      "Internet": 7990,
      "century": 7991,
      "##sp": 7992,
      "super": 7993,
      "EUR": 7994,
      "meeting": 7995,
      "lear": 7996,
      "##unities": 7997,
      "My": 7998,
      "link": 7999,
      "capital": 8000,
      "essential": 8001,
      "technical": 8002,
      "Off": 8003,
      "wide": 8004,
      "recent": 8005,
      "13": 8006,
      "side": 8007,
      "quick": 8008,
      "central": 8009,
      "##rist": 8010,
      "subm": 8011,
      "##ti": 8012,
      "network": 8013,
      "##ats": 8014,
      "assist": 8015,
      "##atch": 8016,
      "##ided": 8017,
      "##unch": 8018,
      "ban": 8019,
      "works": 8020,
      "share": 8021,
      "according": 8022,
      "cultural": 8023,
      "##iversity": 8024,
      "##ler": 8025,
      "log": 8026,
      "user": 8027,
      "2008": 8028,
      "employment": 8029,
      "##arity": 8030,
      "##hib": 8031,
      "##pose": 8032,
      "aspect": 8033,
      "internal": 8034,
      "sugg": 8035,
      "##ca": 8036,
      "independ": 8037,
      "crit": 8038,
      "distrib": 8039,
      "##ateg": 8040,
      "pages": 8041,
      "circ": 8042,
      "standard": 8043,
      "##oss": 8044,
      "longer": 8045,
      "La": 8046,
      "responsible": 8047,
      "months": 8048,
      "writ": 8049,
      "directly": 8050,
      "proposed": 8051,
      "fight": 8052,
      "##une": 8053,
      "##ean": 8054,
      "solutions": 8055,
      "desc": 8056,
      "gen": 8057,
      "##ients": 8058,
      "affect": 8059,
      "interests": 8060,
      "nature": 8061,
      "currently": 8062,
      "Russ": 8063,
      "##li": 8064,
      "mom": 8065,
      "sustain": 8066,
      "maintain": 8067,
      "farm": 8068,
      "regions": 8069,
      "##bour": 8070,
      "administ": 8071,
      "requirements": 8072,
      "civil": 8073,
      "##vention": 8074,
      "history": 8075,
      "Man": 8076,
      "##ports": 8077,
      "subs": 8078,
      "anal": 8079,
      "Air": 8080,
      "character": 8081,
      "24": 8082,
      "don": 8083,
      "democratic": 8084,
      "Tr": 8085,
      "enough": 8086,
      "events": 8087,
      "record": 8088,
      "involved": 8089,
      "dam": 8090,
      "fundamental": 8091,
      "needed": 8092,
      "themselves": 8093,
      "##arian": 8094,
      "developed": 8095,
      "Afric": 8096,
      "dom": 8097,
      "parties": 8098,
      "apply": 8099,
      "democracy": 8100,
      "mov": 8101,
      "total": 8102,
      "relax": 8103,
      "Su": 8104,
      "regulation": 8105,
      "guests": 8106,
      "implementation": 8107,
      "competition": 8108,
      "foreign": 8109,
      "Can": 8110,
      "##anced": 8111,
      "force": 8112,
      "voted": 8113,
      "Please": 8114,
      "vol": 8115,
      "Serv": 8116,
      "lat": 8117,
      "vill": 8118,
      "guarantee": 8119,
      "##yc": 8120,
      "##erous": 8121,
      "online": 8122,
      "related": 8123,
      "Russia": 8124,
      "Qu": 8125,
      "night": 8126,
      "##oh": 8127,
      "attract": 8128,
      "efforts": 8129,
      "##ote": 8130,
      "contract": 8131,
      "##uly": 8132,
      "upon": 8133,
      "##rench": 8134,
      "##lear": 8135,
      "From": 8136,
      "##ria": 8137,
      "contain": 8138,
      "pub": 8139,
      "item": 8140,
      "##acy": 8141,
      "##ged": 8142,
      "First": 8143,
      "language": 8144,
      "stre": 8145,
      "ago": 8146,
      "categ": 8147,
      "changes": 8148,
      "caus": 8149,
      "##empt": 8150,
      "please": 8151,
      "##aged": 8152,
      "extremely": 8153,
      "mob": 8154,
      "positive": 8155,
      "music": 8156,
      "##ibility": 8157,
      "facilities": 8158,
      "comput": 8159,
      "low": 8160,
      "hold": 8161,
      "constit": 8162,
      "Br": 8163,
      "camp": 8164,
      "document": 8165,
      "date": 8166,
      "Ber": 8167,
      "anim": 8168,
      "##ops": 8169,
      "target": 8170,
      "etc": 8171,
      "negotiations": 8172,
      "International": 8173,
      "Port": 8174,
      "##to": 8175,
      "soon": 8176,
      "reserv": 8177,
      "cases": 8178,
      "##af": 8179,
      "views": 8180,
      "oppos": 8181,
      "cut": 8182,
      "previous": 8183,
      "markets": 8184,
      "Govern": 8185,
      "either": 8186,
      "##ili": 8187,
      "sens": 8188,
      "Sy": 8189,
      "##atory": 8190,
      "gra": 8191,
      "terror": 8192,
      "harm": 8193,
      "##ex": 8194,
      "comes": 8195,
      "developing": 8196,
      "##amb": 8197,
      "fair": 8198,
      "##go": 8199,
      "Direct": 8200,
      "May": 8201,
      "der": 8202,
      "fre": 8203,
      "broad": 8204,
      "states": 8205,
      "regional": 8206,
      "subst": 8207,
      "2007": 8208,
      "##eless": 8209,
      "mess": 8210,
      "created": 8211,
      "##ony": 8212,
      "mind": 8213,
      "lot": 8214,
      "sound": 8215,
      "draw": 8216,
      "Par": 8217,
      "tas": 8218,
      "Bl": 8219,
      "##ommod": 8220,
      "breakfast": 8221,
      "Presidency": 8222,
      "##ene": 8223,
      "wind": 8224,
      "education": 8225,
      "##ush": 8226,
      "pool": 8227,
      "More": 8228,
      "##aced": 8229,
      "type": 8230,
      "final": 8231,
      "##utional": 8232,
      "indic": 8233,
      "live": 8234,
      "##tle": 8235,
      "##rop": 8236,
      "later": 8237,
      "true": 8238,
      "milit": 8239,
      "##IN": 8240,
      "By": 8241,
      "ground": 8242,
      "suggest": 8243,
      "French": 8244,
      "Rep": 8245,
      "Tra": 8246,
      "clean": 8247,
      "Bel": 8248,
      "prices": 8249,
      "cong": 8250,
      "monitor": 8251,
      "additional": 8252,
      "situated": 8253,
      "##ring": 8254,
      "almost": 8255,
      "thus": 8256,
      "surround": 8257,
      "everything": 8258,
      "living": 8259,
      "climate": 8260,
      "emph": 8261,
      "unique": 8262,
      "rate": 8263,
      "##alogue": 8264,
      "immedi": 8265,
      "colle": 8266,
      "##haps": 8267,
      "actually": 8268,
      "transpar": 8269,
      "pict": 8270,
      "land": 8271,
      "##AN": 8272,
      "produc": 8273,
      "correct": 8274,
      "encoura": 8275,
      "seen": 8276,
      "##elling": 8277,
      "knowledge": 8278,
      "idea": 8279,
      "famous": 8280,
      "looking": 8281,
      "held": 8282,
      "receive": 8283,
      "enl": 8284,
      "mar": 8285,
      "included": 8286,
      "##ulate": 8287,
      "##ipped": 8288,
      "prec": 8289,
      "##eries": 8290,
      "##oid": 8291,
      "mass": 8292,
      "appropriate": 8293,
      "##omes": 8294,
      "funds": 8295,
      "##ai": 8296,
      "##abled": 8297,
      "five": 8298,
      "concept": 8299,
      "##rict": 8300,
      "##ource": 8301,
      "oblig": 8302,
      "##lusion": 8303,
      "##ox": 8304,
      "cal": 8305,
      "procedure": 8306,
      "workers": 8307,
      "file": 8308,
      "##ored": 8309,
      "France": 8310,
      "moment": 8311,
      "cla": 8312,
      "determ": 8313,
      "accommod": 8314,
      "restaurant": 8315,
      "school": 8316,
      "2000": 8317,
      "jo": 8318,
      "designed": 8319,
      "##apt": 8320,
      "except": 8321,
      "associ": 8322,
      "lack": 8323,
      "travel": 8324,
      "Ph": 8325,
      "station": 8326,
      "mail": 8327,
      "''": 8328,
      "majority": 8329,
      "consult": 8330,
      "##ES": 8331,
      "##ison": 8332,
      "##pping": 8333,
      "tri": 8334,
      "Brit": 8335,
      "##urs": 8336,
      "mor": 8337,
      "exch": 8338,
      "##ON": 8339,
      "impact": 8340,
      "##ino": 8341,
      "thing": 8342,
      "program": 8343,
      "outside": 8344,
      "communication": 8345,
      "Cour": 8346,
      "emphas": 8347,
      "island": 8348,
      "Christ": 8349,
      "##ipment": 8350,
      "professional": 8351,
      "##ilar": 8352,
      "throughout": 8353,
      "ideal": 8354,
      "recommend": 8355,
      "customer": 8356,
      "features": 8357,
      "hon": 8358,
      "##onst": 8359,
      "##inks": 8360,
      "##ires": 8361,
      "##erc": 8362,
      "comfortable": 8363,
      "##ternal": 8364,
      "American": 8365,
      "rad": 8366,
      "##yl": 8367,
      "takes": 8368,
      "doing": 8369,
      "draft": 8370,
      "Cont": 8371,
      "space": 8372,
      "obs": 8373,
      "##let": 8374,
      "users": 8375,
      "Fund": 8376,
      "certainly": 8377,
      "##yn": 8378,
      "mentioned": 8379,
      "consequ": 8380,
      "ce": 8381,
      "early": 8382,
      "##be": 8383,
      "parts": 8384,
      "transl": 8385,
      "complet": 8386,
      "EC": 8387,
      "colleag": 8388,
      "mag": 8389,
      "Lis": 8390,
      "commer": 8391,
      "ever": 8392,
      "investment": 8393,
      "##ians": 8394,
      "hours": 8395,
      "across": 8396,
      "existing": 8397,
      "download": 8398,
      "traditional": 8399,
      "joint": 8400,
      "displ": 8401,
      "Do": 8402,
      "Turkey": 8403,
      "##rast": 8404,
      "concerns": 8405,
      "##self": 8406,
      "##ables": 8407,
      "friendly": 8408,
      "programmes": 8409,
      "\".": 8410,
      "##inary": 8411,
      "amb": 8412,
      "##isc": 8413,
      "although": 8414,
      "vide": 8415,
      "##he": 8416,
      "coord": 8417,
      "cross": 8418,
      "built": 8419,
      "performance": 8420,
      "answer": 8421,
      "took": 8422,
      "party": 8423,
      "leading": 8424,
      "Room": 8425,
      "Aff": 8426,
      "guest": 8427,
      "concerning": 8428,
      "complex": 8429,
      "connection": 8430,
      "##atically": 8431,
      "search": 8432,
      "threat": 8433,
      "member": 8434,
      "military": 8435,
      "model": 8436,
      "##fortun": 8437,
      "UN": 8438,
      "reasons": 8439,
      "decisions": 8440,
      "flex": 8441,
      "conflic": 8442,
      "aware": 8443,
      "##rim": 8444,
      "established": 8445,
      "demonst": 8446,
      "game": 8447,
      "Government": 8448,
      "try": 8449,
      "South": 8450,
      "writing": 8451,
      "send": 8452,
      "reflect": 8453,
      "##na": 8454,
      "##chan": 8455,
      "community": 8456,
      "completely": 8457,
      "##la": 8458,
      "##AR": 8459,
      "Let": 8460,
      "##ches": 8461,
      "Val": 8462,
      "assess": 8463,
      "TV": 8464,
      "committee": 8465,
      "vari": 8466,
      "##eb": 8467,
      "card": 8468,
      "nothing": 8469,
      "population": 8470,
      "Jan": 8471,
      "nam": 8472,
      "km": 8473,
      "##oph": 8474,
      "2006": 8475,
      "decl": 8476,
      "agreements": 8477,
      "half": 8478,
      "fall": 8479,
      "star": 8480,
      "sent": 8481,
      "##useum": 8482,
      "practice": 8483,
      "culture": 8484,
      "media": 8485,
      "basic": 8486,
      "cop": 8487,
      "body": 8488,
      "Sec": 8489,
      "##rael": 8490,
      "includes": 8491,
      "initiative": 8492,
      "separ": 8493,
      "original": 8494,
      "solid": 8495,
      "##alt": 8496,
      "extra": 8497,
      "objectives": 8498,
      "Israel": 8499,
      "America": 8500,
      "Since": 8501,
      "holiday": 8502,
      "##iable": 8503,
      "##vert": 8504,
      "##itting": 8505,
      "allows": 8506,
      "##rag": 8507,
      "##enda": 8508,
      "198": 8509,
      "speed": 8510,
      "##ones": 8511,
      "front": 8512,
      "equipped": 8513,
      "advant": 8514,
      "values": 8515,
      "##cel": 8516,
      "##oard": 8517,
      "jobs": 8518,
      "##uted": 8519,
      "official": 8520,
      "upd": 8521,
      "##erve": 8522,
      "liber": 8523,
      "##ley": 8524,
      "##itable": 8525,
      "Office": 8526,
      "received": 8527,
      "Lisbon": 8528,
      "##iab": 8529,
      "##iddle": 8530,
      "Just": 8531,
      "Court": 8532,
      "##ges": 8533,
      "##den": 8534,
      "satis": 8535,
      "##ature": 8536,
      "capac": 8537,
      "jud": 8538,
      "##aging": 8539,
      "agricultural": 8540,
      "strateg": 8541,
      "package": 8542,
      "applications": 8543,
      "##pite": 8544,
      "##gu": 8545,
      "equipment": 8546,
      "choice": 8547,
      "regarding": 8548,
      "English": 8549,
      "##imm": 8550,
      "##anish": 8551,
      "stop": 8552,
      "##rary": 8553,
      "benefit": 8554,
      "self": 8555,
      "objective": 8556,
      "er": 8557,
      "doub": 8558,
      "condition": 8559,
      "tre": 8560,
      "impos": 8561,
      "##ott": 8562,
      "purch": 8563,
      "poor": 8564,
      "##ctions": 8565,
      "files": 8566,
      "##cious": 8567,
      "transfer": 8568,
      "##mos": 8569,
      "goods": 8570,
      "Here": 8571,
      "image": 8572,
      "reports": 8573,
      "##ban": 8574,
      "treatment": 8575,
      "quickly": 8576,
      "keyword": 8577,
      "##encies": 8578,
      "##uclear": 8579,
      "##ourn": 8580,
      "aud": 8581,
      "##lt": 8582,
      "##EN": 8583,
      "attack": 8584,
      "##estern": 8585,
      "Comp": 8586,
      "style": 8587,
      "Now": 8588,
      "Affairs": 8589,
      "##vious": 8590,
      "simple": 8591,
      "potential": 8592,
      "industrial": 8593,
      "influ": 8594,
      "defin": 8595,
      "leaders": 8596,
      "##iveness": 8597,
      "face": 8598,
      "mechan": 8599,
      "sense": 8600,
      "print": 8601,
      "engine": 8602,
      "21": 8603,
      "below": 8604,
      "##sian": 8605,
      "wa": 8606,
      "achieved": 8607,
      "##amic": 8608,
      "computer": 8609,
      "Gree": 8610,
      "##oking": 8611,
      "##ke": 8612,
      "indeed": 8613,
      "\",": 8614,
      "##ster": 8615,
      "center": 8616,
      "border": 8617,
      "##OR": 8618,
      "click": 8619,
      "repl": 8620,
      "seems": 8621,
      "series": 8622,
      "rail": 8623,
      "contains": 8624,
      "##ills": 8625,
      "23": 8626,
      "##che": 8627,
      "gard": 8628,
      "qual": 8629,
      "oil": 8630,
      "Pa": 8631,
      "##icles": 8632,
      "vict": 8633,
      "bank": 8634,
      "##vers": 8635,
      "Amend": 8636,
      "sun": 8637,
      "congrat": 8638,
      "deliver": 8639,
      "carry": 8640,
      "##more": 8641,
      "pleas": 8642,
      "##gra": 8643,
      "##itten": 8644,
      "popular": 8645,
      "Finally": 8646,
      "##uck": 8647,
      "dialogue": 8648,
      "active": 8649,
      "##aving": 8650,
      "Gener": 8651,
      "recently": 8652,
      "##era": 8653,
      "June": 8654,
      "##just": 8655,
      "##raft": 8656,
      "beginning": 8657,
      "dig": 8658,
      "##reh": 8659,
      "internet": 8660,
      "scient": 8661,
      "East": 8662,
      "absol": 8663,
      "stage": 8664,
      "seek": 8665,
      "successful": 8666,
      "learn": 8667,
      "##ude": 8668,
      "age": 8669,
      "analys": 8670,
      "integration": 8671,
      "highly": 8672,
      "che": 8673,
      "governments": 8674,
      "levels": 8675,
      "Col": 8676,
      "cru": 8677,
      "##eral": 8678,
      "comprom": 8679,
      "presented": 8680,
      "##ps": 8681,
      "Some": 8682,
      "##ounter": 8683,
      "##cript": 8684,
      "##olf": 8685,
      "pain": 8686,
      "whose": 8687,
      "##gn": 8688,
      "everyone": 8689,
      "increased": 8690,
      "##resh": 8691,
      "attempt": 8692,
      "##fortunately": 8693,
      "Berlin": 8694,
      "carried": 8695,
      "Fran": 8696,
      "consumers": 8697,
      "Co": 8698,
      "former": 8699,
      "huge": 8700,
      "origin": 8701,
      "Dem": 8702,
      "Fl": 8703,
      "##phere": 8704,
      "40": 8705,
      "warm": 8706,
      "principles": 8707,
      "cam": 8708,
      "agreed": 8709,
      "amendment": 8710,
      "higher": 8711,
      "supply": 8712,
      "enlarge": 8713,
      "App": 8714,
      "dang": 8715,
      "office": 8716,
      "traff": 8717,
      "##iles": 8718,
      "##cing": 8719,
      "##face": 8720,
      "atmos": 8721,
      "Pe": 8722,
      "##itect": 8723,
      "Further": 8724,
      "nuclear": 8725,
      "ste": 8726,
      "challeng": 8727,
      "vir": 8728,
      "##alu": 8729,
      "commitment": 8730,
      "subsid": 8731,
      "perhaps": 8732,
      "reviews": 8733,
      "lik": 8734,
      "##IS": 8735,
      "added": 8736,
      "floor": 8737,
      "Article": 8738,
      "commercial": 8739,
      "hy": 8740,
      "confirm": 8741,
      "max": 8742,
      "Therefore": 8743,
      "##orrow": 8744,
      "choose": 8745,
      "appear": 8746,
      "obtain": 8747,
      "##rupt": 8748,
      "furn": 8749,
      "veh": 8750,
      "matters": 8751,
      "shows": 8752,
      "den": 8753,
      "news": 8754,
      "tele": 8755,
      "Second": 8756,
      "effects": 8757,
      "tell": 8758,
      "##emp": 8759,
      "Ed": 8760,
      "avoid": 8761,
      "shown": 8762,
      "relev": 8763,
      "foot": 8764,
      "2005": 8765,
      "direction": 8766,
      "asked": 8767,
      "promote": 8768,
      "aspects": 8769,
      "wonder": 8770,
      "thanks": 8771,
      "exchange": 8772,
      "Social": 8773,
      "##wise": 8774,
      "##20": 8775,
      "double": 8776,
      "enable": 8777,
      "stress": 8778,
      "Acc": 8779,
      "similar": 8780,
      "consist": 8781,
      "altern": 8782,
      "exclus": 8783,
      "coll": 8784,
      "##igration": 8785,
      "##rought": 8786,
      "Car": 8787,
      "##eter": 8788,
      "##apan": 8789,
      "considered": 8790,
      "##itz": 8791,
      "##loyment": 8792,
      "##OM": 8793,
      "##urch": 8794,
      "rates": 8795,
      "##ana": 8796,
      "organis": 8797,
      "Spain": 8798,
      "six": 8799,
      "opportunities": 8800,
      "possibility": 8801,
      "size": 8802,
      "##ously": 8803,
      "creation": 8804,
      "note": 8805,
      "table": 8806,
      "Ab": 8807,
      "##rid": 8808,
      "materials": 8809,
      "prepared": 8810,
      "Web": 8811,
      "Sc": 8812,
      "setting": 8813,
      "##icro": 8814,
      "prim": 8815,
      "behind": 8816,
      "El": 8817,
      "latest": 8818,
      "external": 8819,
      "##ger": 8820,
      "##uary": 8821,
      "came": 8822,
      "emerg": 8823,
      "##illed": 8824,
      "response": 8825,
      "death": 8826,
      "##ental": 8827,
      "##lements": 8828,
      "##iqu": 8829,
      "pressure": 8830,
      "##etary": 8831,
      "norm": 8832,
      "sustainable": 8833,
      "##issions": 8834,
      "reached": 8835,
      "capacity": 8836,
      "Not": 8837,
      "reject": 8838,
      "providing": 8839,
      "spa": 8840,
      "Republic": 8841,
      "reduce": 8842,
      "Japan": 8843,
      "exhib": 8844,
      "criter": 8845,
      "rout": 8846,
      "lay": 8847,
      "sho": 8848,
      "##arily": 8849,
      "Sept": 8850,
      "##ma": 8851,
      "ut": 8852,
      "decided": 8853,
      "emb": 8854,
      "coming": 8855,
      "easily": 8856,
      "Italy": 8857,
      "Central": 8858,
      "submitted": 8859,
      "##inated": 8860,
      "pan": 8861,
      "actions": 8862,
      "##ona": 8863,
      "##owers": 8864,
      "urg": 8865,
      "enlargement": 8866,
      "DE": 8867,
      "##cember": 8868,
      "priority": 8869,
      "rich": 8870,
      "Per": 8871,
      "Of": 8872,
      "2004": 8873,
      "Bank": 8874,
      "hotels": 8875,
      "summer": 8876,
      "##ij": 8877,
      "remains": 8878,
      "Roman": 8879,
      "charg": 8880,
      "San": 8881,
      "gives": 8882,
      "Africa": 8883,
      "neigh": 8884,
      "##equ": 8885,
      "atmosphere": 8886,
      "balance": 8887,
      "##ologies": 8888,
      "regular": 8889,
      "December": 8890,
      "cause": 8891,
      "accommodation": 8892,
      "funding": 8893,
      "##ha": 8894,
      "round": 8895,
      "September": 8896,
      "consumer": 8897,
      "details": 8898,
      "Com": 8899,
      "billion": 8900,
      "board": 8901,
      "grant": 8902,
      "green": 8903,
      "architect": 8904,
      "operation": 8905,
      "Wind": 8906,
      "##erb": 8907,
      "##hes": 8908,
      "closed": 8909,
      "display": 8910,
      "independent": 8911,
      "property": 8912,
      "##sibilities": 8913,
      "supported": 8914,
      "##iterran": 8915,
      "limited": 8916,
      "##IT": 8917,
      "deg": 8918,
      "conduct": 8919,
      "Oct": 8920,
      "register": 8921,
      "places": 8922,
      "describ": 8923,
      "##istics": 8924,
      "movement": 8925,
      "purpose": 8926,
      "sites": 8927,
      "fig": 8928,
      "##light": 8929,
      "assistance": 8930,
      "Convention": 8931,
      "##val": 8932,
      "##ground": 8933,
      "##antly": 8934,
      "discover": 8935,
      "##astic": 8936,
      "leave": 8937,
      "II": 8938,
      "forms": 8939,
      "video": 8940,
      "##ane": 8941,
      "conclud": 8942,
      "creating": 8943,
      "##ume": 8944,
      "22": 8945,
      "##ender": 8946,
      "bathroom": 8947,
      "credit": 8948,
      "Tod": 8949,
      "rule": 8950,
      "March": 8951,
      "regulations": 8952,
      "impress": 8953,
      "##iterranean": 8954,
      "##ief": 8955,
      "charge": 8956,
      "ship": 8957,
      "territ": 8958,
      "brought": 8959,
      "##ober": 8960,
      "produced": 8961,
      "hear": 8962,
      "relevant": 8963,
      "##AS": 8964,
      "2003": 8965,
      "spir": 8966,
      "largest": 8967,
      "else": 8968,
      "##ica": 8969,
      "acqu": 8970,
      "##ream": 8971,
      "lic": 8972,
      "categories": 8973,
      "pleased": 8974,
      "Develop": 8975,
      "January": 8976,
      "##prise": 8977,
      "##where": 8978,
      "Trans": 8979,
      "##race": 8980,
      "launch": 8981,
      "##burg": 8982,
      "##etimes": 8983,
      "deep": 8984,
      "construction": 8985,
      "North": 8986,
      "exec": 8987,
      "pros": 8988,
      "##uff": 8989,
      "discussion": 8990,
      "ll": 8991,
      "Cons": 8992,
      "##raq": 8993,
      "blo": 8994,
      "Ap": 8995,
      "Italian": 8996,
      "source": 8997,
      "##imately": 8998,
      "instead": 8999,
      "became": 9000,
      "stability": 9001,
      "thous": 9002,
      "War": 9003,
      "repe": 9004,
      "message": 9005,
      "Book": 9006,
      "##aries": 9007,
      "measure": 9008,
      "fishing": 9009,
      "##icient": 9010,
      "variety": 9011,
      "compreh": 9012,
      "relationship": 9013,
      "##iture": 9014,
      "Mediterranean": 9015,
      "Inter": 9016,
      "conference": 9017,
      "National": 9018,
      "October": 9019,
      "##aring": 9020,
      "regards": 9021,
      "efficient": 9022,
      "obvious": 9023,
      "friends": 9024,
      "sett": 9025,
      "ways": 9026,
      "##lands": 9027,
      "Minister": 9028,
      "British": 9029,
      "guid": 9030,
      "parliament": 9031,
      "##50": 9032,
      "##gar": 9033,
      "##ging": 9034,
      "mer": 9035,
      "train": 9036,
      "nice": 9037,
      "safe": 9038,
      "dut": 9039,
      "procedures": 9040,
      "wood": 9041,
      "##enced": 9042,
      "medium": 9043,
      "interesting": 9044,
      "activity": 9045,
      "hous": 9046,
      "##ronic": 9047,
      "Park": 9048,
      "started": 9049,
      "Service": 9050,
      "ski": 9051,
      "ten": 9052,
      "produce": 9053,
      "mem": 9054,
      "task": 9055,
      "allowed": 9056,
      "study": 9057,
      "compromise": 9058,
      "prob": 9059,
      "depart": 9060,
      "Today": 9061,
      "##ault": 9062,
      "steps": 9063,
      "purs": 9064,
      "status": 9065,
      "##uel": 9066,
      "labour": 9067,
      "contribution": 9068,
      "base": 9069,
      "compon": 9070,
      "damage": 9071,
      "partner": 9072,
      "provisions": 9073,
      "option": 9074,
      "relation": 9075,
      "##ouch": 9076,
      "##aily": 9077,
      "##porary": 9078,
      "Every": 9079,
      "2001": 9080,
      "written": 9081,
      "instruments": 9082,
      "giving": 9083,
      "adapt": 9084,
      "limit": 9085,
      "led": 9086,
      "Democ": 9087,
      "##IC": 9088,
      "exact": 9089,
      "##ivity": 9090,
      "violence": 9091,
      "path": 9092,
      "coast": 9093,
      "cat": 9094,
      "journ": 9095,
      "film": 9096,
      "gain": 9097,
      "optim": 9098,
      "##ucing": 9099,
      "loss": 9100,
      "criteria": 9101,
      "ourselves": 9102,
      "Spanish": 9103,
      "During": 9104,
      "General": 9105,
      "vo": 9106,
      "##EC": 9107,
      "##ada": 9108,
      "tom": 9109,
      "relig": 9110,
      "statement": 9111,
      "##orks": 9112,
      "Ge": 9113,
      "Mark": 9114,
      "fast": 9115,
      "documents": 9116,
      "quiet": 9117,
      "restaurants": 9118,
      "##ellow": 9119,
      "ge": 9120,
      "##zz": 9121,
      "minor": 9122,
      "July": 9123,
      "##olution": 9124,
      "IT": 9125,
      "apartment": 9126,
      "historical": 9127,
      "mountain": 9128,
      "bi": 9129,
      "dise": 9130,
      "bit": 9131,
      "firm": 9132,
      "prefer": 9133,
      "##rug": 9134,
      "197": 9135,
      "benefits": 9136,
      "finally": 9137,
      "distance": 9138,
      "code": 9139,
      "worth": 9140,
      "Aut": 9141,
      "structure": 9142,
      "##mark": 9143,
      "ill": 9144,
      "##unt": 9145,
      "##hold": 9146,
      "types": 9147,
      "##arter": 9148,
      "section": 9149,
      "##ception": 9150,
      "dim": 9151,
      "##ially": 9152,
      "Rights": 9153,
      "airport": 9154,
      "##rian": 9155,
      "transparency": 9156,
      "nor": 9157,
      "Iraq": 9158,
      "integrated": 9159,
      "##istan": 9160,
      "##enge": 9161,
      "##ift": 9162,
      "##itude": 9163,
      "##osp": 9164,
      "Many": 9165,
      "##ka": 9166,
      "##ager": 9167,
      "##orpor": 9168,
      "wine": 9169,
      "growing": 9170,
      "liberal": 9171,
      "##ras": 9172,
      "elements": 9173,
      "observ": 9174,
      "lower": 9175,
      "highest": 9176,
      "Fed": 9177,
      "immediately": 9178,
      "##ixed": 9179,
      "##wide": 9180,
      "##antic": 9181,
      "distribution": 9182,
      "##ience": 9183,
      "reading": 9184,
      "village": 9185,
      "Nove": 9186,
      "employees": 9187,
      "agenda": 9188,
      "equal": 9189,
      "cand": 9190,
      "useful": 9191,
      "##elt": 9192,
      "payment": 9193,
      "##put": 9194,
      "evalu": 9195,
      "gas": 9196,
      "##ued": 9197,
      "elections": 9198,
      "pover": 9199,
      "Although": 9200,
      "##ugg": 9201,
      "legislative": 9202,
      "sou": 9203,
      "depend": 9204,
      "pen": 9205,
      "poverty": 9206,
      "applied": 9207,
      "##AL": 9208,
      "numerous": 9209,
      "##rastruct": 9210,
      "challenges": 9211,
      "reality": 9212,
      "Furthermore": 9213,
      "Rus": 9214,
      "solidarity": 9215,
      "November": 9216,
      "drive": 9217,
      "Party": 9218,
      "die": 9219,
      "tim": 9220,
      "unemp": 9221,
      "West": 9222,
      "processes": 9223,
      "illeg": 9224,
      "conflict": 9225,
      "suppl": 9226,
      "rat": 9227,
      "consequences": 9228,
      "##app": 9229,
      "##vent": 9230,
      "##ont": 9231,
      "paid": 9232,
      "rap": 9233,
      "King": 9234,
      "Swed": 9235,
      "2002": 9236,
      "##ira": 9237,
      "tools": 9238,
      "saying": 9239,
      "##aign": 9240,
      "##ech": 9241,
      "##imming": 9242,
      "##ser": 9243,
      "##ding": 9244,
      "daily": 9245,
      "Apr": 9246,
      "##ession": 9247,
      "##ades": 9248,
      "##OS": 9249,
      "Palest": 9250,
      "digital": 9251,
      "conven": 9252,
      "analysis": 9253,
      "bey": 9254,
      "undert": 9255,
      "ver": 9256,
      "beyond": 9257,
      "Windows": 9258,
      "occas": 9259,
      "##umm": 9260,
      "harmon": 9261,
      "teach": 9262,
      "##ocks": 9263,
      "colleagues": 9264,
      "Sal": 9265,
      "##urance": 9266,
      "##quare": 9267,
      "Your": 9268,
      "##lished": 9269,
      "persons": 9270,
      "ey": 9271,
      "arm": 9272,
      "practical": 9273,
      "apartments": 9274,
      "##ull": 9275,
      "late": 9276,
      "##dom": 9277,
      "##come": 9278,
      "##aking": 9279,
      "##aw": 9280,
      "instrument": 9281,
      "Loc": 9282,
      "offering": 9283,
      "renew": 9284,
      "scientific": 9285,
      "anti": 9286,
      "requires": 9287,
      "Portug": 9288,
      "brand": 9289,
      "##AD": 9290,
      "goes": 9291,
      "infrastruct": 9292,
      "##eks": 9293,
      "ir": 9294,
      "weak": 9295,
      "Inst": 9296,
      "cast": 9297,
      "forces": 9298,
      "April": 9299,
      "terrorism": 9300,
      "implemented": 9301,
      "enh": 9302,
      "ideas": 9303,
      "##ester": 9304,
      "copy": 9305,
      "60": 9306,
      "lux": 9307,
      "##oor": 9308,
      "minimum": 9309,
      "##dam": 9310,
      "##ano": 9311,
      "##etic": 9312,
      "Directive": 9313,
      "Development": 9314,
      "tast": 9315,
      "mobile": 9316,
      "organisations": 9317,
      "##oon": 9318,
      "##alls": 9319,
      "ord": 9320,
      "thought": 9321,
      "##cent": 9322,
      "offered": 9323,
      "sales": 9324,
      "tomorrow": 9325,
      "vac": 9326,
      "##utely": 9327,
      "congratulate": 9328,
      "doubt": 9329,
      "efficiency": 9330,
      "happy": 9331,
      "crucial": 9332,
      "email": 9333,
      "season": 9334,
      "react": 9335,
      "27": 9336,
      "lines": 9337,
      "Spe": 9338,
      "dat": 9339,
      "##reci": 9340,
      "partnership": 9341,
      "circum": 9342,
      "advantage": 9343,
      "discrim": 9344,
      "reduction": 9345,
      "links": 9346,
      "starting": 9347,
      "reference": 9348,
      "eth": 9349,
      "monitoring": 9350,
      "buy": 9351,
      "weeks": 9352,
      "##ilater": 9353,
      "operating": 9354,
      "bat": 9355,
      "relating": 9356,
      "frequ": 9357,
      "meaning": 9358,
      "##ife": 9359,
      "##augh": 9360,
      "Even": 9361,
      "argu": 9362,
      "'.": 9363,
      "waste": 9364,
      "Mus": 9365,
      "published": 9366,
      "secure": 9367,
      "Amendment": 9368,
      "bad": 9369,
      "historic": 9370,
      "Western": 9371,
      "##ruction": 9372,
      "server": 9373,
      "Ob": 9374,
      "500": 9375,
      "lives": 9376,
      "maximum": 9377,
      "##estic": 9378,
      "ready": 9379,
      "caused": 9380,
      "comprehensive": 9381,
      "Paris": 9382,
      "sometimes": 9383,
      "stor": 9384,
      "ult": 9385,
      "options": 9386,
      "spirit": 9387,
      "##theless": 9388,
      "##leb": 9389,
      "ant": 9390,
      "machine": 9391,
      "Sk": 9392,
      "critic": 9393,
      "campaign": 9394,
      "accordance": 9395,
      "##ses": 9396,
      "##itarian": 9397,
      "##uis": 9398,
      "Iran": 9399,
      "##ection": 9400,
      "clients": 9401,
      "##abor": 9402,
      "counter": 9403,
      "##ev": 9404,
      "plant": 9405,
      "got": 9406,
      "While": 9407,
      "##umb": 9408,
      "hor": 9409,
      "interp": 9410,
      "##pective": 9411,
      "disp": 9412,
      "##rant": 9413,
      "bedroom": 9414,
      "##itors": 9415,
      "High": 9416,
      "explain": 9417,
      "##cience": 9418,
      "##inese": 9419,
      "farmers": 9420,
      "technologies": 9421,
      "pie": 9422,
      "accession": 9423,
      "extent": 9424,
      "south": 9425,
      "remov": 9426,
      "remind": 9427,
      "##ini": 9428,
      "##rative": 9429,
      "recon": 9430,
      "Sm": 9431,
      "fulf": 9432,
      "##ari": 9433,
      "anything": 9434,
      "probably": 9435,
      "Me": 9436,
      "voting": 9437,
      "sports": 9438,
      "rapid": 9439,
      "ones": 9440,
      "players": 9441,
      "##view": 9442,
      "##hol": 9443,
      "worldwide": 9444,
      "##ulated": 9445,
      "methods": 9446,
      "advert": 9447,
      "##AC": 9448,
      "sectors": 9449,
      "parking": 9450,
      "interested": 9451,
      "Aug": 9452,
      "challenge": 9453,
      "##inate": 9454,
      "##ocol": 9455,
      "##ww": 9456,
      "Austria": 9457,
      "languages": 9458,
      "##iction": 9459,
      "concent": 9460,
      "ke": 9461,
      "sav": 9462,
      "##AP": 9463,
      "pictures": 9464,
      "lands": 9465,
      "release": 9466,
      "Prod": 9467,
      "businesses": 9468,
      "candid": 9469,
      "morning": 9470,
      "sport": 9471,
      "196": 9472,
      "innovative": 9473,
      "cou": 9474,
      "##know": 9475,
      "##itness": 9476,
      "Econom": 9477,
      "crim": 9478,
      "City": 9479,
      "Thank": 9480,
      "track": 9481,
      "arrange": 9482,
      "1999": 9483,
      "www": 9484,
      "encourage": 9485,
      "shopping": 9486,
      "powers": 9487,
      "##semb": 9488,
      "ded": 9489,
      "##illa": 9490,
      "rele": 9491,
      "##ered": 9492,
      "chance": 9493,
      "accepted": 9494,
      "##iability": 9495,
      "adjust": 9496,
      "annual": 9497,
      "adopt": 9498,
      "despite": 9499,
      "##hern": 9500,
      "exerc": 9501,
      "swimming": 9502,
      "fire": 9503,
      "fear": 9504,
      "spec": 9505,
      "##berg": 9506,
      "Mor": 9507,
      "##respon": 9508,
      "Chinese": 9509,
      "selection": 9510,
      "influence": 9511,
      "##ien": 9512,
      "div": 9513,
      "raised": 9514,
      "##urb": 9515,
      "##ivery": 9516,
      "##vis": 9517,
      "expert": 9518,
      "##ourable": 9519,
      "##reland": 9520,
      "appreci": 9521,
      "Op": 9522,
      "cohes": 9523,
      "##cape": 9524,
      "##izing": 9525,
      "miss": 9526,
      "genu": 9527,
      "heav": 9528,
      "images": 9529,
      "System": 9530,
      "mis": 9531,
      "lost": 9532,
      "wanted": 9533,
      "kitch": 9534,
      "export": 9535,
      "Ireland": 9536,
      "processing": 9537,
      "valid": 9538,
      "street": 9539,
      "strategic": 9540,
      "##atform": 9541,
      "visitors": 9542,
      "##phone": 9543,
      "garden": 9544,
      "namely": 9545,
      "##ties": 9546,
      "##ama": 9547,
      "drug": 9548,
      "demands": 9549,
      "80": 9550,
      "absolutely": 9551,
      "##reg": 9552,
      "trying": 9553,
      "##ares": 9554,
      "borders": 9555,
      "##...": 9556,
      "involve": 9557,
      "games": 9558,
      "innovation": 9559,
      "tick": 9560,
      "investig": 9561,
      "Secondly": 9562,
      "##rain": 9563,
      "canc": 9564,
      "claim": 9565,
      "scale": 9566,
      "manufactur": 9567,
      "Moreover": 9568,
      "##ilateral": 9569,
      "##elines": 9570,
      "##ilies": 9571,
      "##ür": 9572,
      "##force": 9573,
      "##hr": 9574,
      "fields": 9575,
      "que": 9576,
      "tal": 9577,
      "join": 9578,
      "Dr": 9579,
      "fresh": 9580,
      "##head": 9581,
      "sil": 9582,
      "remember": 9583,
      "##va": 9584,
      "sex": 9585,
      "fine": 9586,
      "alone": 9587,
      "Russian": 9588,
      "Tour": 9589,
      "calls": 9590,
      "representatives": 9591,
      "compli": 9592,
      "motor": 9593,
      "hour": 9594,
      "Prot": 9595,
      "##verage": 9596,
      "highlight": 9597,
      "Conference": 9598,
      "bur": 9599,
      "born": 9600,
      "##urt": 9601,
      "##prises": 9602,
      "##ape": 9603,
      "Lin": 9604,
      "proceed": 9605,
      "##itation": 9606,
      "initiatives": 9607,
      "##una": 9608,
      "overall": 9609,
      "##anks": 9610,
      "cell": 9611,
      "earl": 9612,
      "sort": 9613,
      "##rab": 9614,
      "prem": 9615,
      "screen": 9616,
      "club": 9617,
      "dyn": 9618,
      "##TO": 9619,
      "Constit": 9620,
      "changed": 9621,
      "unc": 9622,
      "circumst": 9623,
      "alternative": 9624,
      "approx": 9625,
      "##ero": 9626,
      "expressed": 9627,
      "trust": 9628,
      "##osed": 9629,
      "wrong": 9630,
      "decor": 9631,
      "intended": 9632,
      "respond": 9633,
      "player": 9634,
      "##isely": 9635,
      "minute": 9636,
      "Bus": 9637,
      "yourself": 9638,
      "Public": 9639,
      "illegal": 9640,
      "banks": 9641,
      "##illing": 9642,
      "resort": 9643,
      "occup": 9644,
      "##umption": 9645,
      "worked": 9646,
      "committed": 9647,
      "##ole": 9648,
      "##iance": 9649,
      "mainly": 9650,
      "ME": 9651,
      "heard": 9652,
      "Ne": 9653,
      "##hood": 9654,
      "plans": 9655,
      "Are": 9656,
      "##sec": 9657,
      "running": 9658,
      "passeng": 9659,
      "substant": 9660,
      "Lond": 9661,
      "Only": 9662,
      "cities": 9663,
      "eleg": 9664,
      "##ava": 9665,
      "##omb": 9666,
      "She": 9667,
      "vital": 9668,
      "opening": 9669,
      "phys": 9670,
      "AG": 9671,
      "##poses": 9672,
      "approved": 9673,
      "talking": 9674,
      "award": 9675,
      "menu": 9676,
      "feed": 9677,
      "cohesion": 9678,
      "ability": 9679,
      "##reement": 9680,
      "University": 9681,
      "virt": 9682,
      "traffic": 9683,
      "##akes": 9684,
      "wid": 9685,
      "confidence": 9686,
      "placed": 9687,
      "univers": 9688,
      "appoint": 9689,
      "tourist": 9690,
      "kitchen": 9691,
      "TH": 9692,
      "##uts": 9693,
      "white": 9694,
      "CD": 9695,
      "Its": 9696,
      "currency": 9697,
      "planning": 9698,
      "affected": 9699,
      "Lat": 9700,
      "Bu": 9701,
      "config": 9702,
      "justice": 9703,
      "##dra": 9704,
      "reforms": 9705,
      "London": 9706,
      "spect": 9707,
      "goal": 9708,
      "datab": 9709,
      "improved": 9710,
      "##body": 9711,
      "##formation": 9712,
      "grad": 9713,
      "corpor": 9714,
      "walking": 9715,
      "August": 9716,
      "whom": 9717,
      "black": 9718,
      "##ID": 9719,
      "families": 9720,
      "##iff": 9721,
      "Ma": 9722,
      "box": 9723,
      "helpful": 9724,
      "increasingly": 9725,
      "conclusion": 9726,
      "evening": 9727,
      "chann": 9728,
      "##undred": 9729,
      "Cal": 9730,
      "stri": 9731,
      "laws": 9732,
      "Centre": 9733,
      "pred": 9734,
      "circumstances": 9735,
      "simpl": 9736,
      "##mbH": 9737,
      "delivery": 9738,
      "People": 9739,
      "##ray": 9740,
      "IS": 9741,
      "Techn": 9742,
      "provision": 9743,
      "decide": 9744,
      "##thern": 9745,
      "structural": 9746,
      "Hung": 9747,
      "regime": 9748,
      "reduced": 9749,
      "comments": 9750,
      "terrace": 9751,
      "GmbH": 9752,
      "feature": 9753,
      "Security": 9754,
      "26": 9755,
      "rise": 9756,
      "priorities": 9757,
      "spok": 9758,
      "##icians": 9759,
      "unemployment": 9760,
      "##rief": 9761,
      "##agraph": 9762,
      "PC": 9763,
      "Star": 9764,
      "administration": 9765,
      "automatically": 9766,
      "Tw": 9767,
      "love": 9768,
      "suitable": 9769,
      "##pped": 9770,
      "Palestin": 9771,
      "compl": 9772,
      "God": 9773,
      "##standing": 9774,
      "fa": 9775,
      "client": 9776,
      "##uses": 9777,
      "##rew": 9778,
      "infrastructure": 9779,
      "watch": 9780,
      "contribute": 9781,
      "usually": 9782,
      "UK": 9783,
      "began": 9784,
      "cyc": 9785,
      "##asc": 9786,
      "sem": 9787,
      "300": 9788,
      "##omet": 9789,
      "ensuring": 9790,
      "##anned": 9791,
      "emissions": 9792,
      "collection": 9793,
      "Free": 9794,
      "fru": 9795,
      "##ording": 9796,
      "tradition": 9797,
      "competitive": 9798,
      "participation": 9799,
      "victims": 9800,
      "supports": 9801,
      "powerful": 9802,
      "scope": 9803,
      "poll": 9804,
      "##raz": 9805,
      "crime": 9806,
      "Eas": 9807,
      "separate": 9808,
      "Nations": 9809,
      "critical": 9810,
      "tit": 9811,
      "##ought": 9812,
      "phone": 9813,
      "specifically": 9814,
      "28": 9815,
      "protected": 9816,
      "says": 9817,
      "students": 9818,
      "##icy": 9819,
      "effectively": 9820,
      "Indeed": 9821,
      "tabled": 9822,
      "##craft": 9823,
      "Feb": 9824,
      "north": 9825,
      "celeb": 9826,
      "##rich": 9827,
      "manner": 9828,
      "played": 9829,
      "extensive": 9830,
      "fellow": 9831,
      "##lines": 9832,
      "block": 9833,
      "electronic": 9834,
      "agriculture": 9835,
      "##rats": 9836,
      "##zech": 9837,
      "ec": 9838,
      "platform": 9839,
      "##ett": 9840,
      "##right": 9841,
      "sources": 9842,
      "belong": 9843,
      "introduced": 9844,
      "##tt": 9845,
      "san": 9846,
      "Slo": 9847,
      "##ara": 9848,
      "##erland": 9849,
      "speaking": 9850,
      "Red": 9851,
      "Sim": 9852,
      "perman": 9853,
      "##AM": 9854,
      "purposes": 9855,
      "##rete": 9856,
      "##used": 9857,
      "Uk": 9858,
      "referred": 9859,
      "medic": 9860,
      "hot": 9861,
      "aimed": 9862,
      "hundred": 9863,
      "Cro": 9864,
      "##enty": 9865,
      "detailed": 9866,
      "##verse": 9867,
      "##ounced": 9868,
      "larger": 9869,
      "animals": 9870,
      "comment": 9871,
      "motion": 9872,
      "##oo": 9873,
      "covered": 9874,
      "af": 9875,
      "satisf": 9876,
      "Each": 9877,
      "Czech": 9878,
      "installation": 9879,
      "dead": 9880,
      "##hab": 9881,
      "rural": 9882,
      "Deb": 9883,
      "photo": 9884,
      "##EL": 9885,
      "##iation": 9886,
      "functions": 9887,
      "precisely": 9888,
      "##ico": 9889,
      "Joh": 9890,
      "served": 9891,
      "risks": 9892,
      "##iding": 9893,
      "##orthern": 9894,
      "According": 9895,
      "managed": 9896,
      "deleg": 9897,
      "sitting": 9898,
      "electric": 9899,
      ".,": 9900,
      "Sol": 9901,
      "police": 9902,
      "India": 9903,
      "Enter": 9904,
      "discussed": 9905,
      "budgetary": 9906,
      "becoming": 9907,
      "Also": 9908,
      "##aint": 9909,
      "##lim": 9910,
      "debt": 9911,
      "Summ": 9912,
      "stated": 9913,
      "forget": 9914,
      "Any": 9915,
      "exactly": 9916,
      "restrict": 9917,
      "serve": 9918,
      "represents": 9919,
      "museum": 9920,
      "##odies": 9921,
      "##ruary": 9922,
      "getting": 9923,
      "developments": 9924,
      "institutional": 9925,
      "##aves": 9926,
      "mid": 9927,
      "entry": 9928,
      "otherwise": 9929,
      "31": 9930,
      "dedic": 9931,
      "wants": 9932,
      "Agreement": 9933,
      "Mal": 9934,
      "##sh": 9935,
      "##bourg": 9936,
      "lies": 9937,
      "resist": 9938,
      "enterprises": 9939,
      "sold": 9940,
      "discussions": 9941,
      "likely": 9942,
      "##overy": 9943,
      "mut": 9944,
      "founded": 9945,
      "weap": 9946,
      "convin": 9947,
      "assessment": 9948,
      "##org": 9949,
      "multip": 9950,
      "His": 9951,
      "February": 9952,
      "selected": 9953,
      "remark": 9954,
      "##bit": 9955,
      "Human": 9956,
      "facilit": 9957,
      "session": 9958,
      "01": 9959,
      "Other": 9960,
      "mand": 9961,
      "Then": 9962,
      "IN": 9963,
      "linked": 9964,
      "thousands": 9965,
      "Ir": 9966,
      "charm": 9967,
      "##pper": 9968,
      "administrative": 9969,
      "quot": 9970,
      "medical": 9971,
      "Barcel": 9972,
      "camera": 9973,
      "Why": 9974,
      "spread": 9975,
      "listed": 9976,
      "guidelines": 9977,
      "programs": 9978,
      "Green": 9979,
      "regret": 9980,
      "Her": 9981,
      "##atively": 9982,
      "Cas": 9983,
      "##idents": 9984,
      "sufficient": 9985,
      "##itiveness": 9986,
      "Play": 9987,
      "Bec": 9988,
      "##ella": 9989,
      "##ovo": 9990,
      "earlier": 9991,
      "followed": 9992,
      "closely": 9993,
      "cos": 9994,
      "##SE": 9995,
      "introduction": 9996,
      "paper": 9997,
      "happen": 9998,
      "symb": 9999,
      "regist": 10000,
      "hands": 10001,
      "wonderful": 10002,
      "conver": 10003,
      "##imb": 10004,
      "FR": 10005,
      "Vi": 10006,
      "##uration": 10007,
      "##sk": 10008,
      "##itzerland": 10009,
      "##ulations": 10010,
      "Middle": 10011,
      "Emp": 10012,
      "temper": 10013,
      "strengthen": 10014,
      "discrimination": 10015,
      "supporting": 10016,
      "correspon": 10017,
      "income": 10018,
      "orient": 10019,
      "##ein": 10020,
      "opened": 10021,
      "immigration": 10022,
      "magn": 10023,
      "Asia": 10024,
      "networks": 10025,
      "##ena": 10026,
      "tourism": 10027,
      "operations": 10028,
      "buildings": 10029,
      "improving": 10030,
      "Policy": 10031,
      "Sub": 10032,
      "buff": 10033,
      "degree": 10034,
      "Add": 10035,
      "spend": 10036,
      "inside": 10037,
      "##idential": 10038,
      "defined": 10039,
      "Switzerland": 10040,
      "##uk": 10041,
      "metres": 10042,
      "brow": 10043,
      "##urally": 10044,
      "##ensions": 10045,
      "speech": 10046,
      "actual": 10047,
      "expected": 10048,
      "exclusive": 10049,
      "Apart": 10050,
      "mill": 10051,
      "Most": 10052,
      "Act": 10053,
      "compens": 10054,
      "stra": 10055,
      "accomp": 10056,
      "##ya": 10057,
      "cod": 10058,
      "Sea": 10059,
      "Greece": 10060,
      "duty": 10061,
      "stock": 10062,
      "color": 10063,
      "Christian": 10064,
      "considerable": 10065,
      "understanding": 10066,
      "Last": 10067,
      "coff": 10068,
      "##att": 10069,
      "##ils": 10070,
      "SM": 10071,
      "explo": 10072,
      "##ifying": 10073,
      "transm": 10074,
      "marketing": 10075,
      "combat": 10076,
      "Sant": 10077,
      "trav": 10078,
      "normal": 10079,
      "entit": 10080,
      "winter": 10081,
      "uses": 10082,
      "##uth": 10083,
      "load": 10084,
      "rein": 10085,
      "destro": 10086,
      "uns": 10087,
      "playing": 10088,
      "Ver": 10089,
      "presence": 10090,
      "save": 10091,
      "--": 10092,
      "animal": 10093,
      "components": 10094,
      "telephone": 10095,
      "brief": 10096,
      "fisheries": 10097,
      "##ingu": 10098,
      "Rest": 10099,
      "delay": 10100,
      "Cast": 10101,
      "Barcelona": 10102,
      "experts": 10103,
      "coordination": 10104,
      "compar": 10105,
      "Swiss": 10106,
      "purchase": 10107,
      "##ureau": 10108,
      "alloc": 10109,
      "scen": 10110,
      "map": 10111,
      "competitiveness": 10112,
      "##road": 10113,
      "##ula": 10114,
      "command": 10115,
      "##egu": 10116,
      "paragraph": 10117,
      "facing": 10118,
      "Rec": 10119,
      "properly": 10120,
      "90": 10121,
      "typical": 10122,
      "presidency": 10123,
      "Minist": 10124,
      "sized": 10125,
      "refuge": 10126,
      "entirely": 10127,
      "70": 10128,
      "dispos": 10129,
      "format": 10130,
      "chem": 10131,
      "authority": 10132,
      "Economic": 10133,
      "plants": 10134,
      "AC": 10135,
      "29": 10136,
      "touch": 10137,
      "strict": 10138,
      "symbol": 10139,
      "##ussels": 10140,
      "legit": 10141,
      "##kt": 10142,
      "dealing": 10143,
      "element": 10144,
      "generally": 10145,
      "Click": 10146,
      "tack": 10147,
      "summit": 10148,
      "difficulties": 10149,
      "criminal": 10150,
      "##work": 10151,
      "financing": 10152,
      "photograph": 10153,
      "##levision": 10154,
      "expand": 10155,
      "items": 10156,
      "picture": 10157,
      "##ls": 10158,
      "Poland": 10159,
      "Est": 10160,
      "suc": 10161,
      "organisation": 10162,
      "gave": 10163,
      "went": 10164,
      "thinking": 10165,
      "##lying": 10166,
      "USA": 10167,
      "##elled": 10168,
      "average": 10169,
      "##ros": 10170,
      "incorpor": 10171,
      "bear": 10172,
      "relate": 10173,
      "Because": 10174,
      "los": 10175,
      "willing": 10176,
      "##rown": 10177,
      "har": 10178,
      "##eness": 10179,
      "lib": 10180,
      "##ishing": 10181,
      "Brussels": 10182,
      "modified": 10183,
      "susp": 10184,
      "##iling": 10185,
      "Never": 10186,
      "##utive": 10187,
      "vehicles": 10188,
      "##enna": 10189,
      "percent": 10190,
      "machines": 10191,
      "##posit": 10192,
      "flexibility": 10193,
      "Belg": 10194,
      "adequ": 10195,
      "Rooms": 10196,
      "sole": 10197,
      "##amber": 10198,
      "Unfortunately": 10199,
      "Arab": 10200,
      "##izes": 10201,
      "##IL": 10202,
      "##house": 10203,
      "applies": 10204,
      "pleasant": 10205,
      "reception": 10206,
      "informed": 10207,
      "consideration": 10208,
      "advance": 10209,
      "mist": 10210,
      "unac": 10211,
      "meetings": 10212,
      "domestic": 10213,
      "door": 10214,
      "spacious": 10215,
      "##ED": 10216,
      "becomes": 10217,
      "##ón": 10218,
      "##rants": 10219,
      "Kos": 10220,
      "peaceful": 10221,
      "hosp": 10222,
      "enorm": 10223,
      "numbers": 10224,
      "trip": 10225,
      "##amm": 10226,
      "##ball": 10227,
      "##ishes": 10228,
      "establishment": 10229,
      "slow": 10230,
      "Cor": 10231,
      "fixed": 10232,
      "succeed": 10233,
      "##isms": 10234,
      "##imself": 10235,
      "Great": 10236,
      "##OL": 10237,
      "bodies": 10238,
      "beds": 10239,
      "##estival": 10240,
      "belie": 10241,
      "##inating": 10242,
      "graph": 10243,
      "##reet": 10244,
      "##oz": 10245,
      "##inc": 10246,
      "##nes": 10247,
      "flexible": 10248,
      "length": 10249,
      "parliamentary": 10250,
      "aims": 10251,
      "promoting": 10252,
      "practices": 10253,
      "35": 10254,
      "init": 10255,
      "##sterdam": 10256,
      "Once": 10257,
      "himself": 10258,
      "Airport": 10259,
      "colour": 10260,
      "politics": 10261,
      "##ET": 10262,
      "DV": 10263,
      "signed": 10264,
      "##ression": 10265,
      "rent": 10266,
      "district": 10267,
      "##uisine": 10268,
      "Und": 10269,
      "Amsterdam": 10270,
      "',": 10271,
      "schem": 10272,
      "estate": 10273,
      "##).": 10274,
      "shops": 10275,
      "advanced": 10276,
      "##enz": 10277,
      "generation": 10278,
      "connected": 10279,
      "##set": 10280,
      "Grand": 10281,
      "failure": 10282,
      "shower": 10283,
      "##esterday": 10284,
      "defence": 10285,
      "..": 10286,
      "easier": 10287,
      "court": 10288,
      "syn": 10289,
      "myself": 10290,
      "publish": 10291,
      "imag": 10292,
      "##ato": 10293,
      "##inding": 10294,
      "Mich": 10295,
      "##gen": 10296,
      "chair": 10297,
[...]
